{
  "version": "1.0",
  "truncation": null,
  "padding": null,
  "added_tokens": [
    {
      "id": 0,
      "content": "[PAD]",
      "single_word": false,
      "lstrip": false,
      "rstrip": false,
      "normalized": false,
      "special": true
    },
    {
      "id": 1,
      "content": "[BOS]",
      "single_word": false,
      "lstrip": false,
      "rstrip": false,
      "normalized": false,
      "special": true
    },
    {
      "id": 2,
      "content": "[EOS]",
      "single_word": false,
      "lstrip": false,
      "rstrip": false,
      "normalized": false,
      "special": true
    },
    {
      "id": 3,
      "content": "[UNK]",
      "single_word": false,
      "lstrip": false,
      "rstrip": false,
      "normalized": false,
      "special": true
    }
  ],
  "normalizer": {
    "type": "Sequence",
    "normalizers": [
      {
        "type": "NFKC"
      },
      {
        "type": "Replace",
        "pattern": {
          "String": " "
        },
        "content": " "
      }
    ]
  },
  "pre_tokenizer": {
    "type": "Sequence",
    "pretokenizers": [
      {
        "type": "Digits",
        "individual_digits": false
      },
      {
        "type": "Punctuation",
        "behavior": "Isolated"
      },
      {
        "type": "ByteLevel",
        "add_prefix_space": false,
        "trim_offsets": true,
        "use_regex": true
      }
    ]
  },
  "post_processor": {
    "type": "TemplateProcessing",
    "single": [
      {
        "SpecialToken": {
          "id": "[BOS]",
          "type_id": 0
        }
      },
      {
        "Sequence": {
          "id": "A",
          "type_id": 0
        }
      },
      {
        "SpecialToken": {
          "id": "[EOS]",
          "type_id": 0
        }
      }
    ],
    "pair": [
      {
        "SpecialToken": {
          "id": "[BOS]",
          "type_id": 0
        }
      },
      {
        "Sequence": {
          "id": "A",
          "type_id": 0
        }
      },
      {
        "SpecialToken": {
          "id": "[EOS]",
          "type_id": 0
        }
      },
      {
        "SpecialToken": {
          "id": "[BOS]",
          "type_id": 0
        }
      },
      {
        "Sequence": {
          "id": "B",
          "type_id": 0
        }
      },
      {
        "SpecialToken": {
          "id": "[EOS]",
          "type_id": 0
        }
      }
    ],
    "special_tokens": {
      "[BOS]": {
        "id": "[BOS]",
        "ids": [
          1
        ],
        "tokens": [
          "[BOS]"
        ]
      },
      "[EOS]": {
        "id": "[EOS]",
        "ids": [
          2
        ],
        "tokens": [
          "[EOS]"
        ]
      }
    }
  },
  "decoder": {
    "type": "ByteLevel",
    "add_prefix_space": true,
    "trim_offsets": true,
    "use_regex": true
  },
  "model": {
    "type": "BPE",
    "dropout": null,
    "unk_token": null,
    "continuing_subword_prefix": null,
    "end_of_word_suffix": null,
    "fuse_unk": false,
    "byte_fallback": true,
    "ignore_merges": false,
    "vocab": {
      "[PAD]": 0,
      "[BOS]": 1,
      "[EOS]": 2,
      "[UNK]": 3,
      "!": 4,
      "\"": 5,
      "#": 6,
      "$": 7,
      "%": 8,
      "&": 9,
      "'": 10,
      "(": 11,
      ")": 12,
      "*": 13,
      "+": 14,
      ",": 15,
      "-": 16,
      ".": 17,
      "/": 18,
      "0": 19,
      "1": 20,
      "2": 21,
      "3": 22,
      "4": 23,
      "5": 24,
      "6": 25,
      "7": 26,
      "8": 27,
      "9": 28,
      ":": 29,
      ";": 30,
      "<": 31,
      "=": 32,
      ">": 33,
      "?": 34,
      "@": 35,
      "A": 36,
      "B": 37,
      "C": 38,
      "D": 39,
      "E": 40,
      "F": 41,
      "G": 42,
      "H": 43,
      "I": 44,
      "J": 45,
      "K": 46,
      "L": 47,
      "M": 48,
      "N": 49,
      "O": 50,
      "P": 51,
      "Q": 52,
      "R": 53,
      "S": 54,
      "T": 55,
      "U": 56,
      "V": 57,
      "W": 58,
      "X": 59,
      "Y": 60,
      "Z": 61,
      "[": 62,
      "\\": 63,
      "]": 64,
      "^": 65,
      "_": 66,
      "`": 67,
      "a": 68,
      "b": 69,
      "c": 70,
      "d": 71,
      "e": 72,
      "f": 73,
      "g": 74,
      "h": 75,
      "i": 76,
      "j": 77,
      "k": 78,
      "l": 79,
      "m": 80,
      "n": 81,
      "o": 82,
      "p": 83,
      "q": 84,
      "r": 85,
      "s": 86,
      "t": 87,
      "u": 88,
      "v": 89,
      "w": 90,
      "x": 91,
      "y": 92,
      "z": 93,
      "{": 94,
      "|": 95,
      "}": 96,
      "~": 97,
      "¡": 98,
      "¢": 99,
      "£": 100,
      "¤": 101,
      "¥": 102,
      "¦": 103,
      "§": 104,
      "¨": 105,
      "©": 106,
      "ª": 107,
      "«": 108,
      "¬": 109,
      "®": 110,
      "¯": 111,
      "°": 112,
      "±": 113,
      "²": 114,
      "³": 115,
      "´": 116,
      "µ": 117,
      "¶": 118,
      "·": 119,
      "¸": 120,
      "¹": 121,
      "º": 122,
      "»": 123,
      "¼": 124,
      "½": 125,
      "¾": 126,
      "¿": 127,
      "À": 128,
      "Á": 129,
      "Â": 130,
      "Ã": 131,
      "Ä": 132,
      "Å": 133,
      "Æ": 134,
      "Ç": 135,
      "È": 136,
      "É": 137,
      "Ê": 138,
      "Ë": 139,
      "Ì": 140,
      "Í": 141,
      "Î": 142,
      "Ï": 143,
      "Ð": 144,
      "Ñ": 145,
      "Ò": 146,
      "Ó": 147,
      "Ô": 148,
      "Õ": 149,
      "Ö": 150,
      "×": 151,
      "Ø": 152,
      "Ù": 153,
      "Ú": 154,
      "Û": 155,
      "Ü": 156,
      "Ý": 157,
      "Þ": 158,
      "ß": 159,
      "à": 160,
      "á": 161,
      "â": 162,
      "ã": 163,
      "ä": 164,
      "å": 165,
      "æ": 166,
      "ç": 167,
      "è": 168,
      "é": 169,
      "ê": 170,
      "ë": 171,
      "ì": 172,
      "í": 173,
      "î": 174,
      "ï": 175,
      "ð": 176,
      "ñ": 177,
      "ò": 178,
      "ó": 179,
      "ô": 180,
      "õ": 181,
      "ö": 182,
      "÷": 183,
      "ø": 184,
      "ù": 185,
      "ú": 186,
      "û": 187,
      "ü": 188,
      "ý": 189,
      "þ": 190,
      "ÿ": 191,
      "Ā": 192,
      "ā": 193,
      "Ă": 194,
      "ă": 195,
      "Ą": 196,
      "ą": 197,
      "Ć": 198,
      "ć": 199,
      "Ĉ": 200,
      "ĉ": 201,
      "Ċ": 202,
      "ċ": 203,
      "Č": 204,
      "č": 205,
      "Ď": 206,
      "ď": 207,
      "Đ": 208,
      "đ": 209,
      "Ē": 210,
      "ē": 211,
      "Ĕ": 212,
      "ĕ": 213,
      "Ė": 214,
      "ė": 215,
      "Ę": 216,
      "ę": 217,
      "Ě": 218,
      "ě": 219,
      "Ĝ": 220,
      "ĝ": 221,
      "Ğ": 222,
      "ğ": 223,
      "Ġ": 224,
      "ġ": 225,
      "Ģ": 226,
      "ģ": 227,
      "Ĥ": 228,
      "ĥ": 229,
      "Ħ": 230,
      "ħ": 231,
      "Ĩ": 232,
      "ĩ": 233,
      "Ī": 234,
      "ī": 235,
      "Ĭ": 236,
      "ĭ": 237,
      "Į": 238,
      "į": 239,
      "İ": 240,
      "ı": 241,
      "Ĳ": 242,
      "ĳ": 243,
      "Ĵ": 244,
      "ĵ": 245,
      "Ķ": 246,
      "ķ": 247,
      "ĸ": 248,
      "Ĺ": 249,
      "ĺ": 250,
      "Ļ": 251,
      "ļ": 252,
      "Ľ": 253,
      "ľ": 254,
      "Ŀ": 255,
      "ŀ": 256,
      "Ł": 257,
      "ł": 258,
      "Ń": 259,
      "Ġt": 260,
      "he": 261,
      "Ġa": 262,
      "in": 263,
      "Ġw": 264,
      "Ġs": 265,
      "Ġthe": 266,
      "re": 267,
      "ou": 268,
      "nd": 269,
      "ha": 270,
      "Ġo": 271,
      "Ġm": 272,
      "Ġb": 273,
      "er": 274,
      "âĢ": 275,
      "is": 276,
      "it": 277,
      "Ġf": 278,
      "Ġand": 279,
      "ed": 280,
      "on": 281,
      "en": 282,
      "or": 283,
      "Ġc": 284,
      "Ġto": 285,
      "ll": 286,
      "Ġof": 287,
      "ing": 288,
      "Ġd": 289,
      "es": 290,
      "Ġh": 291,
      "Ġl": 292,
      "Ġhe": 293,
      "ar": 294,
      "Ġp": 295,
      "Ġn": 296,
      "an": 297,
      "ĠI": 298,
      "as": 299,
      "Ġin": 300,
      "hat": 301,
      "at": 302,
      "om": 303,
      "Ġha": 304,
      "âĢĻ": 305,
      "ot": 306,
      "Ġth": 307,
      "Ġy": 308,
      "Ġg": 309,
      "Ġbe": 310,
      "ow": 311,
      "ve": 312,
      "le": 313,
      "Ġyou": 314,
      "se": 315,
      "st": 316,
      "im": 317,
      "ce": 318,
      "ld": 319,
      "ch": 320,
      "Ġthat": 321,
      "gh": 322,
      "Ġe": 323,
      "ut": 324,
      "id": 325,
      "ith": 326,
      "ay": 327,
      "Ġit": 328,
      "et": 329,
      "ent": 330,
      "Ġon": 331,
      "Ġu": 332,
      "ir": 333,
      "Ġfor": 334,
      "Ġwas": 335,
      "Ġhis": 336,
      "ly": 337,
      "Ġwith": 338,
      "Ġmy": 339,
      "Ġre": 340,
      "âĢľ": 341,
      "ver": 342,
      "ad": 343,
      "Ġas": 344,
      "Ġme": 345,
      "Ġwh": 346,
      "Ġnot": 347,
      "ght": 348,
      "âĢĿ": 349,
      "Ġwe": 350,
      "ion": 351,
      "oo": 352,
      "ri": 353,
      "her": 354,
      "al": 355,
      "Ġst": 356,
      "ill": 357,
      "ke": 358,
      "Ġis": 359,
      "ould": 360,
      "Ġhim": 361,
      "ur": 362,
      "Ġher": 363,
      "our": 364,
      "The": 365,
      "ro": 366,
      "am": 367,
      "ter": 368,
      "Ġhad": 369,
      "Ġso": 370,
      "ain": 371,
      "Ġan": 372,
      "if": 373,
      "ck": 374,
      "Ġse": 375,
      "ore": 376,
      "and": 377,
      "out": 378,
      "Ġat": 379,
      "Ġhave": 380,
      "ct": 381,
      "Ġk": 382,
      "ome": 383,
      "ess": 384,
      "Ġde": 385,
      "ra": 386,
      "th": 387,
      "ight": 388,
      "Ġsu": 389,
      "Ġall": 390,
      "Ġthis": 391,
      "ĠM": 392,
      "Ġsa": 393,
      "pe": 394,
      "Ġbut": 395,
      "il": 396,
      "rom": 397,
      "us": 398,
      "ich": 399,
      "ge": 400,
      "Ġshe": 401,
      "And": 402,
      "Ġyour": 403,
      "Ġby": 404,
      "ĠS": 405,
      "red": 406,
      "Ġthou": 407,
      "Ġdo": 408,
      "Ġwhe": 409,
      "Ġsh": 410,
      "est": 411,
      "Ġup": 412,
      "qu": 413,
      "sel": 414,
      "ard": 415,
      "li": 416,
      "ood": 417,
      "Ġno": 418,
      "ĠH": 419,
      "all": 420,
      "res": 421,
      "Ġne": 422,
      "Ġfrom": 423,
      "Ġli": 424,
      "ant": 425,
      "Ġor": 426,
      "Ġwhich": 427,
      "Ġwill": 428,
      "Ġkn": 429,
      "ĠA": 430,
      "Ġv": 431,
      "Ġthey": 432,
      "the": 433,
      "ind": 434,
      "ble": 435,
      "to": 436,
      "han": 437,
      "ru": 438,
      "ell": 439,
      "Ġcon": 440,
      "Ġwho": 441,
      "Ġthem": 442,
      "ul": 443,
      "âĢĶ": 444,
      "pp": 445,
      "ĠB": 446,
      "ong": 447,
      "ak": 448,
      "em": 449,
      "art": 450,
      "ĠD": 451,
      "ous": 452,
      "self": 453,
      "ord": 454,
      "one": 455,
      "Ġman": 456,
      "Ġwere": 457,
      "ame": 458,
      "Ġsaid": 459,
      "ake": 460,
      "ast": 461,
      "ust": 462,
      "Ġone": 463,
      "rou": 464,
      "nt": 465,
      "Ġwould": 466,
      "ĠThe": 467,
      "Ġsha": 468,
      "ers": 469,
      "os": 470,
      "very": 471,
      "ic": 472,
      "Ġare": 473,
      "ĠT": 474,
      "Ġthere": 475,
      "la": 476,
      "Ġle": 477,
      "Ġlo": 478,
      "ook": 479,
      "ĠC": 480,
      "Ġcom": 481,
      "Ġgo": 482,
      "ate": 483,
      "Ġout": 484,
      "Ġwhat": 485,
      "Ġif": 486,
      "own": 487,
      "ven": 488,
      "ine": 489,
      "ĠW": 490,
      "el": 491,
      "Ġam": 492,
      "Ġex": 493,
      "ie": 494,
      "Ġwhen": 495,
      "Ġtheir": 496,
      "reat": 497,
      "ry": 498,
      "ort": 499,
      "ĠP": 500,
      "ep": 501,
      "Ġfa": 502,
      "ive": 503,
      "Ġmore": 504,
      "ĠL": 505,
      "ation": 506,
      "ist": 507,
      "ure": 508,
      "un": 509,
      "Ġal": 510,
      "ag": 511,
      "ig": 512,
      "end": 513,
      "um": 514,
      "Ġab": 515,
      "Ġsp": 516,
      "Ġun": 517,
      "ear": 518,
      "ther": 519,
      "Ġr": 520,
      "ol": 521,
      "Ġwor": 522,
      "fore": 523,
      "Ġj": 524,
      "ide": 525,
      "au": 526,
      "Ġknow": 527,
      "ost": 528,
      "urn": 529,
      "Ġbeen": 530,
      "Ġour": 531,
      "Ġsee": 532,
      "Ġthan": 533,
      "ance": 534,
      "itt": 535,
      "ime": 536,
      "Ġcan": 537,
      "ose": 538,
      "Ġag": 539,
      "Ġnow": 540,
      "Ġus": 541,
      "Ġqu": 542,
      "Ġsay": 543,
      "ity": 544,
      "od": 545,
      "Ġar": 546,
      "Ġthy": 547,
      "Ġthen": 548,
      "ound": 549,
      "hed": 550,
      "ĠG": 551,
      "Ġcould": 552,
      "Ġdid": 553,
      "ved": 554,
      "ff": 555,
      "ence": 556,
      "we": 557,
      "are": 558,
      "ass": 559,
      "Ġany": 560,
      "Ġshall": 561,
      "other": 562,
      "pt": 563,
      "Ġupon": 564,
      "ish": 565,
      "Ġlike": 566,
      "Ġgood": 567,
      "Ġsome": 568,
      "ade": 569,
      "Ġhand": 570,
      "Ġshould": 571,
      "Ġen": 572,
      "ink": 573,
      "ond": 574,
      "wn": 575,
      "ice": 576,
      "ĠE": 577,
      "Ġro": 578,
      "ather": 579,
      "Ġpro": 580,
      "Ġtoo": 581,
      "Th": 582,
      "ect": 583,
      "ĠF": 584,
      "ire": 585,
      "able": 586,
      "ng": 587,
      "To": 588,
      "Ġbl": 589,
      "way": 590,
      "Ġlook": 591,
      "oth": 592,
      "That": 593,
      "age": 594,
      "ves": 595,
      "Ġthee": 596,
      "ac": 597,
      "Ġsuch": 598,
      "uch": 599,
      "Ġtw": 600,
      "Ġtime": 601,
      "ress": 602,
      "Ġmay": 603,
      "ĠHe": 604,
      "Ġother": 605,
      "Ġdis": 606,
      "Ġagain": 607,
      "ife": 608,
      "Ġinto": 609,
      "ave": 610,
      "Ġbr": 611,
      "ving": 612,
      "ment": 613,
      "Ġfe": 614,
      "ix": 615,
      "Ġvery": 616,
      "Ġday": 617,
      "ĠJ": 618,
      "Ġoff": 619,
      "Ġcome": 620,
      "Ġlet": 621,
      "old": 622,
      "hi": 623,
      "ĠR": 624,
      "ness": 625,
      "ady": 626,
      "ite": 627,
      "Ġpr": 628,
      "be": 629,
      "Ġad": 630,
      "ies": 631,
      "ings": 632,
      "ath": 633,
      "ount": 634,
      "Ġey": 635,
      "ert": 636,
      "ĠO": 637,
      "Ġhow": 638,
      "Ġgreat": 639,
      "ack": 640,
      "ree": 641,
      "ue": 642,
      "Ġmust": 643,
      "Wh": 644,
      "Ġcl": 645,
      "cc": 646,
      "op": 647,
      "orn": 648,
      "ab": 649,
      "Ġwell": 650,
      "hing": 651,
      "Ġlove": 652,
      "ft": 653,
      "Ġmade": 654,
      "ach": 655,
      "Ġhere": 656,
      "ittle": 657,
      "ĠMr": 658,
      "Ġdown": 659,
      "Ġmake": 660,
      "Ġpo": 661,
      "Ġim": 662,
      "ise": 663,
      "You": 664,
      "ful": 665,
      "fter": 666,
      "ud": 667,
      "hen": 668,
      "Ġover": 669,
      "Ġwhere": 670,
      "for": 671,
      "Ġabout": 672,
      "ap": 673,
      "row": 674,
      "Ġspe": 675,
      "Ġper": 676,
      "Ġpl": 677,
      "Ġbefore": 678,
      "Ġmuch": 679,
      "Ġhas": 680,
      "ick": 681,
      "Ġcha": 682,
      "But": 683,
      "oll": 684,
      "nder": 685,
      "iss": 686,
      "Ġnever": 687,
      "ran": 688,
      "Ġlittle": 689,
      "Ġri": 690,
      "ne": 691,
      "Ġthese": 692,
      "Ġown": 693,
      "Ġdes": 694,
      "led": 695,
      "ile": 696,
      "Ġway": 697,
      "ward": 698,
      "Ġtwo": 699,
      "ious": 700,
      "ull": 701,
      "ĠN": 702,
      "ark": 703,
      "irst": 704,
      "ouse": 705,
      "ret": 706,
      "Ġmight": 707,
      "ĠĠ": 708,
      "ote": 709,
      "ere": 710,
      "Ġfri": 711,
      "Ġbet": 712,
      "Ġfl": 713,
      "oy": 714,
      "Ġlong": 715,
      "Ġrem": 716,
      "round": 717,
      "ons": 718,
      "Ġthink": 719,
      "ove": 720,
      "Ġpart": 721,
      "Ġcomp": 722,
      "ign": 723,
      "Ġtell": 724,
      "Ġsc": 725,
      "Ġhat": 726,
      "Ġhimself": 727,
      "Ġrep": 728,
      "ber": 729,
      "of": 730,
      "ps": 731,
      "Ġevery": 732,
      "that": 733,
      "Ġheart": 734,
      "ered": 735,
      "Ġtake": 736,
      "As": 737,
      "ĠQ": 738,
      "Ġafter": 739,
      "per": 740,
      "not": 741,
      "Ġword": 742,
      "Ġsw": 743,
      "cho": 744,
      "anc": 745,
      "ried": 746,
      "ĠBut": 747,
      "ough": 748,
      "ĠIt": 749,
      "Ġpe": 750,
      "ions": 751,
      "Ġyet": 752,
      "Ġeyes": 753,
      "ss": 754,
      "ĠDon": 755,
      "Ġpla": 756,
      "Ġfriend": 757,
      "Ġthought": 758,
      "Ġbeg": 759,
      "int": 760,
      "leas": 761,
      "Ġmost": 762,
      "Ġke": 763,
      "Ġlife": 764,
      "Ġonly": 765,
      "Ġfirst": 766,
      "Ġgive": 767,
      "man": 768,
      "Ġhead": 769,
      "Ġra": 770,
      "rough": 771,
      "less": 772,
      "For": 773,
      "Ġcame": 774,
      "Ġpass": 775,
      "Ġgl": 776,
      "ancho": 777,
      "Ġback": 778,
      "Ġbeing": 779,
      "ars": 780,
      "ary": 781,
      "Ġnight": 782,
      "de": 783,
      "uix": 784,
      "his": 785,
      "me": 786,
      "Ġfather": 787,
      "ause": 788,
      "Ġwithout": 789,
      "uixote": 790,
      "igh": 791,
      "Ġturn": 792,
      "Ġwr": 793,
      "Ġmen": 794,
      "alk": 795,
      "In": 796,
      "ated": 797,
      "Ġtru": 798,
      "Ġhouse": 799,
      "Ġcont": 800,
      "Ġsm": 801,
      "Ġunder": 802,
      "He": 803,
      "Ġeven": 804,
      "ty": 805,
      "ied": 806,
      "Ġthose": 807,
      "aster": 808,
      "Ġret": 809,
      "Ġaway": 810,
      "cl": 811,
      "ock": 812,
      "Ġever": 813,
      "Ġser": 814,
      "Ġcall": 815,
      "Ġits": 816,
      "hes": 817,
      "Ġres": 818,
      "ever": 819,
      "ally": 820,
      "ged": 821,
      "Ġwent": 822,
      "Ġbec": 823,
      "ither": 824,
      "entle": 825,
      "aid": 826,
      "Ġseem": 827,
      "Ġold": 828,
      "Ġob": 829,
      "Ġent": 830,
      "Ġput": 831,
      "oss": 832,
      "ors": 833,
      "Ġstill": 834,
      "ĠQuixote": 835,
      "les": 836,
      "Ġap": 837,
      "Ġhea": 838,
      "Ġend": 839,
      "Ġmyself": 840,
      "ger": 841,
      "Ġsaw": 842,
      "ced": 843,
      "Ġru": 844,
      "pect": 845,
      "here": 846,
      "Ġpres": 847,
      "Ġarm": 848,
      "Ġcour": 849,
      "Ġnor": 850,
      "Ġwom": 851,
      "ci": 852,
      "wh": 853,
      "ans": 854,
      "ened": 855,
      "Ġnothing": 856,
      "Ġacc": 857,
      "Ġpre": 858,
      "Ġimp": 859,
      "My": 860,
      "Ġear": 861,
      "It": 862,
      "ily": 863,
      "Ġch": 864,
      "ears": 865,
      "ince": 866,
      "Ġset": 867,
      "âĢĺ": 868,
      "Ġspeak": 869,
      "ĠSancho": 870,
      "Ġhath": 871,
      "Ġhar": 872,
      "Ġthough": 873,
      "lf": 874,
      "Ġmany": 875,
      "ĠAnd": 876,
      "Ġpleas": 877,
      "Ġatt": 878,
      "Ġhon": 879,
      "Ġworld": 880,
      "omet": 881,
      "Ġcomm": 882,
      "ĠShe": 883,
      "lie": 884,
      "eth": 885,
      "Ġjust": 886,
      "ĠK": 887,
      "with": 888,
      "air": 889,
      "Ġtook": 890,
      "Ġtr": 891,
      "Ġop": 892,
      "Ġbre": 893,
      "ces": 894,
      "Ġthrough": 895,
      "aught": 896,
      "Ġyoung": 897,
      "Ġdone": 898,
      "Ġcons": 899,
      "Ġgentle": 900,
      "ew": 901,
      "If": 902,
      "Ġleft": 903,
      "aint": 904,
      "Ġmind": 905,
      "ory": 906,
      "Ġmine": 907,
      "Of": 908,
      "Ġho": 909,
      "With": 910,
      "Ġgr": 911,
      "uck": 912,
      "ody": 913,
      "pl": 914,
      "Ġfind": 915,
      "Ġint": 916,
      "ollow": 917,
      "ace": 918,
      "thing": 919,
      "Ġlast": 920,
      "Ġget": 921,
      "Ġonce": 922,
      "Ġheard": 923,
      "so": 924,
      "Ġgot": 925,
      "Ġans": 926,
      "was": 927,
      "Ġmar": 928,
      "Ġplace": 929,
      "Ġhear": 930,
      "get": 931,
      "ase": 932,
      "ens": 933,
      "Ġfound": 934,
      "Ġgi": 935,
      "Ġface": 936,
      "Ġwhom": 937,
      "Ġlight": 938,
      "ished": 939,
      "Ġlord": 940,
      "Ar": 941,
      "rew": 942,
      "atter": 943,
      "Ġwat": 944,
      "Ġanother": 945,
      "Ġreturn": 946,
      "Ġhands": 947,
      "ared": 948,
      "What": 949,
      "ont": 950,
      "ction": 951,
      "Ġwant": 952,
      "Ġwar": 953,
      "aking": 954,
      "Ġname": 955,
      "Ġask": 956,
      "its": 957,
      "Ġrest": 958,
      "Ġapp": 959,
      "you": 960,
      "land": 961,
      "agn": 962,
      "Ġdeath": 963,
      "ower": 964,
      "Ġappe": 965,
      "imes": 966,
      "Ġwhile": 967,
      "Ġcar": 968,
      "Ġright": 969,
      "ool": 970,
      "ene": 971,
      "oul": 972,
      "com": 973,
      "bt": 974,
      "iness": 975,
      "Ġgra": 976,
      "aut": 977,
      "ier": 978,
      "ks": 979,
      "Ġsoon": 980,
      "So": 981,
      "Ġsame": 982,
      "Ġem": 983,
      "nce": 984,
      "ertain": 985,
      "ĠYou": 986,
      "Ġhapp": 987,
      "ult": 988,
      "Ġshow": 989,
      "When": 990,
      "ĠGod": 991,
      "ject": 992,
      "Ġking": 993,
      "up": 994,
      "Ġkind": 995,
      "Ġbetter": 996,
      "Ġgu": 997,
      "This": 998,
      "Ġsir": 999,
      "Ġco": 1000,
      "Ġchi": 1001,
      "ian": 1002,
      "Ġfell": 1003,
      "Be": 1004,
      "Ġpur": 1005,
      "Art": 1006,
      "Ġthree": 1007,
      "Ġboth": 1008,
      "vent": 1009,
      "Ġcount": 1010,
      "Ġart": 1011,
      "Ġkeep": 1012,
      "Ġmaster": 1013,
      "Ġnew": 1014,
      "Ġwind": 1015,
      "elt": 1016,
      "Ġfar": 1017,
      "Ġconf": 1018,
      "agnan": 1019,
      "ched": 1020,
      "uth": 1021,
      "Ġfair": 1022,
      "Ġagainst": 1023,
      "Ġfear": 1024,
      "Ġsomet": 1025,
      "ised": 1026,
      "Ġwa": 1027,
      "te": 1028,
      "Ġthus": 1029,
      "Ġwords": 1030,
      "but": 1031,
      "Ġblood": 1032,
      "ning": 1033,
      "Artagnan": 1034,
      "med": 1035,
      "Ġhour": 1036,
      "Ġcannot": 1037,
      "iff": 1038,
      "ip": 1039,
      "Ġseen": 1040,
      "Ġfollow": 1041,
      "Ġnat": 1042,
      "ason": 1043,
      "ner": 1044,
      "Ġdou": 1045,
      "Ġpresent": 1046,
      "Ġbest": 1047,
      "Ġdist": 1048,
      "Ġsl": 1049,
      "Ġtold": 1050,
      "ible": 1051,
      "Ġass": 1052,
      "Ġroom": 1053,
      "ister": 1054,
      "cei": 1055,
      "ling": 1056,
      "sh": 1057,
      "ition": 1058,
      "vers": 1059,
      "Ġlady": 1060,
      "ting": 1061,
      "Ġleave": 1062,
      "ex": 1063,
      "oot": 1064,
      "Ġchan": 1065,
      "Ġinst": 1066,
      "Ġwoman": 1067,
      "wer": 1068,
      "Ġsat": 1069,
      "Ġlooked": 1070,
      "Ġdear": 1071,
      "oc": 1072,
      "Ġson": 1073,
      "Ġswe": 1074,
      "ople": 1075,
      "oe": 1076,
      "ought": 1077,
      "aw": 1078,
      "vil": 1079,
      "Ġdoor": 1080,
      "Ġhome": 1081,
      "Ġheaven": 1082,
      "men": 1083,
      "cy": 1084,
      "leep": 1085,
      "ins": 1086,
      "ren": 1087,
      "Ġtra": 1088,
      "Ġsec": 1089,
      "Ġpoor": 1090,
      "Ġpers": 1091,
      "ield": 1092,
      "ways": 1093,
      "Ġstr": 1094,
      "Ġcr": 1095,
      "orrow": 1096,
      "der": 1097,
      "There": 1098,
      "Ġtrue": 1099,
      "Ġaff": 1100,
      "Ġrec": 1101,
      "fort": 1102,
      "vant": 1103,
      "ds": 1104,
      "Ġdra": 1105,
      "ween": 1106,
      "ĠIf": 1107,
      "ross": 1108,
      "ail": 1109,
      "Ġstand": 1110,
      "oice": 1111,
      "Ġfull": 1112,
      "Ġside": 1113,
      "Ġhast": 1114,
      "Ġbelie": 1115,
      "Ġgoing": 1116,
      "ows": 1117,
      "une": 1118,
      "Ġfeel": 1119,
      "Ġhonour": 1120,
      "Ġsupp": 1121,
      "av": 1122,
      "Ġstre": 1123,
      "Which": 1124,
      "Ġchild": 1125,
      "Ġche": 1126,
      "Ġwhose": 1127,
      "hip": 1128,
      "Ġtill": 1129,
      "read": 1130,
      "ĠThere": 1131,
      "fe": 1132,
      "Ġhaving": 1133,
      "lic": 1134,
      "und": 1135,
      "Ġcur": 1136,
      "Ġthings": 1137,
      "ple": 1138,
      "Ġmis": 1139,
      "oment": 1140,
      "No": 1141,
      "any": 1142,
      "Ġmo": 1143,
      "EN": 1144,
      "ained": 1145,
      "rought": 1146,
      "Ġdisc": 1147,
      "selves": 1148,
      "pped": 1149,
      "Ġwife": 1150,
      "Ġdead": 1151,
      "har": 1152,
      "Ġthing": 1153,
      "Ġgave": 1154,
      "Ġpeople": 1155,
      "Ġac": 1156,
      "Ġround": 1157,
      "ined": 1158,
      "Ġnear": 1159,
      "lied": 1160,
      "ĠTh": 1161,
      "Ġread": 1162,
      "ale": 1163,
      "Ġwork": 1164,
      "att": 1165,
      "Ġgone": 1166,
      "Ġenough": 1167,
      "ĠĠĠĠ": 1168,
      "uke": 1169,
      "ild": 1170,
      "Ġfall": 1171,
      "ĠMiss": 1172,
      "Ġbeaut": 1173,
      "Ġhold": 1174,
      "Ġhalf": 1175,
      "Ġbed": 1176,
      "iz": 1177,
      "ison": 1178,
      "rie": 1179,
      "Ġel": 1180,
      "su": 1181,
      "Ġbrother": 1182,
      "ER": 1183,
      "him": 1184,
      "akes": 1185,
      "aughter": 1186,
      "irt": 1187,
      "Ġeye": 1188,
      "Ġfriends": 1189,
      "aken": 1190,
      "We": 1191,
      "Ġhel": 1192,
      "Ġeach": 1193,
      "oke": 1194,
      "Ġsweet": 1195,
      "Ġmoment": 1196,
      "most": 1197,
      "Ġsoul": 1198,
      "thos": 1199,
      "wards": 1200,
      "ures": 1201,
      "Ġstran": 1202,
      "Ġknew": 1203,
      "Ġtalk": 1204,
      "Ġdoth": 1205,
      "ired": 1206,
      "Then": 1207,
      "iv": 1208,
      "ations": 1209,
      "chan": 1210,
      "Ġhigh": 1211,
      "IN": 1212,
      "uc": 1213,
      "Ġsil": 1214,
      "ĠKing": 1215,
      "ser": 1216,
      "Ġlive": 1217,
      "Ġfire": 1218,
      "Ġletter": 1219,
      "Ġtre": 1220,
      "Ġlay": 1221,
      "gether": 1222,
      "my": 1223,
      "Ġdoubt": 1224,
      "Ġbecause": 1225,
      "Ġanswer": 1226,
      "Ġbeh": 1227,
      "Ġalways": 1228,
      "Ġhope": 1229,
      "Ġmad": 1230,
      "ia": 1231,
      "orning": 1232,
      "den": 1233,
      "Ġsub": 1234,
      "Ġadd": 1235,
      "ĠV": 1236,
      "Ġtri": 1237,
      "Ġplay": 1238,
      "Ġhor": 1239,
      "Ġexp": 1240,
      "Ġcle": 1241,
      "which": 1242,
      "ang": 1243,
      "Ġfort": 1244,
      "pr": 1245,
      "ited": 1246,
      "ĠIn": 1247,
      "Ġneed": 1248,
      "io": 1249,
      "Ġdays": 1250,
      "Ġhard": 1251,
      "ute": 1252,
      "osed": 1253,
      "By": 1254,
      "ĠThey": 1255,
      "ĠWhat": 1256,
      "oun": 1257,
      "cept": 1258,
      "ĠSt": 1259,
      "band": 1260,
      "now": 1261,
      "ains": 1262,
      "err": 1263,
      "Ġdon": 1264,
      "lack": 1265,
      "con": 1266,
      "ham": 1267,
      "Ġsun": 1268,
      "day": 1269,
      "ener": 1270,
      "She": 1271,
      "Ġmother": 1272,
      "Ġcare": 1273,
      "Ġhus": 1274,
      "ub": 1275,
      "Ġspir": 1276,
      "Ġpoint": 1277,
      "ĠThis": 1278,
      "Ġhum": 1279,
      "Ġbear": 1280,
      "Ġherself": 1281,
      "ted": 1282,
      "had": 1283,
      "ressed": 1284,
      "Ġchar": 1285,
      "Ġbetween": 1286,
      "Ġsur": 1287,
      "ĠU": 1288,
      "Ġsince": 1289,
      "ceived": 1290,
      "Ġfour": 1291,
      "Ġfelt": 1292,
      "Ġopen": 1293,
      "mer": 1294,
      "Ġill": 1295,
      "Ġless": 1296,
      "ict": 1297,
      "ten": 1298,
      "Ġdark": 1299,
      "Ġmatter": 1300,
      "Ġworth": 1301,
      "cess": 1302,
      "Ġvoice": 1303,
      "Ġste": 1304,
      "sp": 1305,
      "Ġbus": 1306,
      "Ġseemed": 1307,
      "body": 1308,
      "over": 1309,
      "og": 1310,
      "Ġreg": 1311,
      "Ġrather": 1312,
      "rance": 1313,
      "by": 1314,
      "Ġreplied": 1315,
      "iet": 1316,
      "ken": 1317,
      "Ġbrought": 1318,
      "Ġfam": 1319,
      "Ġalone": 1320,
      "Ġhelp": 1321,
      "Ġamong": 1322,
      "ster": 1323,
      "Ġmorning": 1324,
      "Ġpray": 1325,
      "Ġsent": 1326,
      "mb": 1327,
      "Ġsleep": 1328,
      "Ġwish": 1329,
      "ane": 1330,
      "Who": 1331,
      "Ġsomething": 1332,
      "Ġinde": 1333,
      "Ġbo": 1334,
      "cted": 1335,
      "ides": 1336,
      "Ġstood": 1337,
      "Ġsure": 1338,
      "How": 1339,
      "ee": 1340,
      "Ġposs": 1341,
      "Well": 1342,
      "light": 1343,
      "Ġpower": 1344,
      "Ġref": 1345,
      "Ġmean": 1346,
      "Ġbegan": 1347,
      "Ġelse": 1348,
      "ĠY": 1349,
      "Thou": 1350,
      "ense": 1351,
      "Ġknight": 1352,
      "Ġinf": 1353,
      "Now": 1354,
      "right": 1355,
      "Ġcertain": 1356,
      "Ġwit": 1357,
      "Ġwalk": 1358,
      "Ġland": 1359,
      "Ġsuff": 1360,
      "Ġbring": 1361,
      "Ġmon": 1362,
      "ents": 1363,
      "Ġsk": 1364,
      "arge": 1365,
      "ĠAs": 1366,
      "Or": 1367,
      "ets": 1368,
      "Ġair": 1369,
      "Ġdaughter": 1370,
      "Is": 1371,
      "Ġquite": 1372,
      "Ġearth": 1373,
      "Ġmer": 1374,
      "ial": 1375,
      "Ġocc": 1376,
      "Ġwhole": 1377,
      "Ġsays": 1378,
      "Ġarms": 1379,
      "Ġreason": 1380,
      "Ġtruth": 1381,
      "Ġhusband": 1382,
      "Ġsister": 1383,
      "ention": 1384,
      "ls": 1385,
      "xt": 1386,
      "Ġsound": 1387,
      "Ġmist": 1388,
      "like": 1389,
      "hall": 1390,
      "ĠThen": 1391,
      "ently": 1392,
      "Ġdoes": 1393,
      "ĠWhen": 1394,
      "ready": 1395,
      "ĠEng": 1396,
      "ceed": 1397,
      "have": 1398,
      "ank": 1399,
      "ĠMrs": 1400,
      "onder": 1401,
      "Ġmin": 1402,
      "amp": 1403,
      "ury": 1404,
      "ured": 1405,
      "Ġyears": 1406,
      "az": 1407,
      "Ġquest": 1408,
      "Ġprom": 1409,
      "ring": 1410,
      "AN": 1411,
      "Where": 1412,
      "stand": 1413,
      "arn": 1414,
      "Ġdr": 1415,
      "Ġunt": 1416,
      "ĠWe": 1417,
      "bed": 1418,
      "unt": 1419,
      "will": 1420,
      "oney": 1421,
      "ship": 1422,
      "ST": 1423,
      "hy": 1424,
      "Ġboy": 1425,
      "Ġdiff": 1426,
      "ms": 1427,
      "ern": 1428,
      "ating": 1429,
      "Ġanything": 1430,
      "liz": 1431,
      "oor": 1432,
      "vice": 1433,
      "Ã©": 1434,
      "Why": 1435,
      "Ġstrong": 1436,
      "come": 1437,
      "night": 1438,
      "Ġbro": 1439,
      "ash": 1440,
      "Ġcalled": 1441,
      "Ġvis": 1442,
      "gs": 1443,
      "ĠLord": 1444,
      "Ġbes": 1445,
      "ob": 1446,
      "Ġgentleman": 1447,
      "ments": 1448,
      "Ġindeed": 1449,
      "They": 1450,
      "Ġtherefore": 1451,
      "Ġturned": 1452,
      "Ġforth": 1453,
      "ual": 1454,
      "let": 1455,
      "ĠMy": 1456,
      "Ġbelieve": 1457,
      "outh": 1458,
      "Ġgiven": 1459,
      "use": 1460,
      "inal": 1461,
      "Ġsing": 1462,
      "Ġsword": 1463,
      "sand": 1464,
      "ilt": 1465,
      "ĠAn": 1466,
      "Ġcourse": 1467,
      "kes": 1468,
      "tis": 1469,
      "Ġtogether": 1470,
      "Ġrun": 1471,
      "cle": 1472,
      "Ġnext": 1473,
      "Ġremem": 1474,
      "Ġgold": 1475,
      "Ġfool": 1476,
      "Ġhowever": 1477,
      "Ġaw": 1478,
      "Ġca": 1479,
      "she": 1480,
      "Ġfoot": 1481,
      "Ġfew": 1482,
      "Ġtaken": 1483,
      "Ġpri": 1484,
      "His": 1485,
      "Ġstay": 1486,
      "Ġwater": 1487,
      "ately": 1488,
      "ience": 1489,
      "Ġfr": 1490,
      "Ġkill": 1491,
      "no": 1492,
      "ying": 1493,
      "Ġcried": 1494,
      "Ġsea": 1495,
      "Ġnature": 1496,
      "Ġlost": 1497,
      "Ġexc": 1498,
      "Ġground": 1499,
      "Ġcountry": 1500,
      "Ġfore": 1501,
      "ats": 1502,
      "Ġcomes": 1503,
      "lizab": 1504,
      "Ġtimes": 1505,
      "Ġyourself": 1506,
      "Ġdro": 1507,
      "Ġnone": 1508,
      "owed": 1509,
      "ular": 1510,
      "what": 1511,
      "Ġnoble": 1512,
      "lizabeth": 1513,
      "Ġsight": 1514,
      "Ġalong": 1515,
      "Ã±": 1516,
      "Ġblack": 1517,
      "Ġshort": 1518,
      "Ġclose": 1519,
      "Ġuse": 1520,
      "Ġcond": 1521,
      "Ġpassed": 1522,
      "Ġperson": 1523,
      "ider": 1524,
      "Ġwithin": 1525,
      "ches": 1526,
      "Ġasked": 1527,
      "haps": 1528,
      "ection": 1529,
      "atch": 1530,
      "Ġthousand": 1531,
      "ĠAr": 1532,
      "Ġothers": 1533,
      "gg": 1534,
      "ates": 1535,
      "sses": 1536,
      "Ġcourt": 1537,
      "Ġdep": 1538,
      "US": 1539,
      "Ġact": 1540,
      "ĠHer": 1541,
      "Ġappear": 1542,
      "Ġtong": 1543,
      "ouch": 1544,
      "Ġbook": 1545,
      "Ġext": 1546,
      "Ġstri": 1547,
      "Ġdie": 1548,
      "Ġind": 1549,
      "lysses": 1550,
      "laim": 1551,
      "ph": 1552,
      "Ġgrie": 1553,
      "Ġwhether": 1554,
      "Ġdeep": 1555,
      "Let": 1556,
      "ĠFor": 1557,
      "Ġdisp": 1558,
      "Ġte": 1559,
      "there": 1560,
      "oud": 1561,
      "Ġbody": 1562,
      "Ġbu": 1563,
      "Ġlooking": 1564,
      "cri": 1565,
      "this": 1566,
      "Ġcoming": 1567,
      "Ġalready": 1568,
      "val": 1569,
      "ards": 1570,
      "Ġbreat": 1571,
      "iting": 1572,
      "Ġvill": 1573,
      "ieur": 1574,
      "ĠDo": 1575,
      "hile": 1576,
      "ully": 1577,
      "Ġbehind": 1578,
      "Ġtears": 1579,
      "AR": 1580,
      "Ġlist": 1581,
      "empt": 1582,
      "well": 1583,
      "ream": 1584,
      "Ġvirt": 1585,
      "Ġgener": 1586,
      "Sc": 1587,
      "Ġsign": 1588,
      "mon": 1589,
      "Ġhorse": 1590,
      "Ġinter": 1591,
      "Ġpret": 1592,
      "Ġtown": 1593,
      "Ġwrong": 1594,
      "Ġbusiness": 1595,
      "Ġitself": 1596,
      "ief": 1597,
      "vour": 1598,
      "Ġdire": 1599,
      "Ġins": 1600,
      "ĠSo": 1601,
      "they": 1602,
      "St": 1603,
      "ery": 1604,
      "onsieur": 1605,
      "Ġheav": 1606,
      "Ġmount": 1607,
      "Ġgre": 1608,
      "Ġbreak": 1609,
      "Ġopp": 1610,
      "Ġeas": 1611,
      "ING": 1612,
      "ked": 1613,
      "Ġstate": 1614,
      "Ġgir": 1615,
      "isf": 1616,
      "Ġval": 1617,
      "From": 1618,
      "ius": 1619,
      "head": 1620,
      "Ġstep": 1621,
      "enty": 1622,
      "Ġwhy": 1623,
      "Ġpra": 1624,
      "Ġmeet": 1625,
      "Ġhair": 1626,
      "cious": 1627,
      "enn": 1628,
      "race": 1629,
      "Ġprop": 1630,
      "Ġbel": 1631,
      "Ġdec": 1632,
      "Ġthemselves": 1633,
      "king": 1634,
      "ering": 1635,
      "Ġfree": 1636,
      "Ġcause": 1637,
      "Ġdef": 1638,
      "vel": 1639,
      "Ġmeans": 1640,
      "Ġmoney": 1641,
      "Ġlow": 1642,
      "Ġstru": 1643,
      "ued": 1644,
      "Ġbeauty": 1645,
      "Your": 1646,
      "een": 1647,
      "Ġbar": 1648,
      "riage": 1649,
      "used": 1650,
      "Ġjud": 1651,
      "Ġlie": 1652,
      "On": 1653,
      "Ġsum": 1654,
      "Ġpeace": 1655,
      "would": 1656,
      "Ġprison": 1657,
      "form": 1658,
      "Ġstrange": 1659,
      "At": 1660,
      "Ġmark": 1661,
      "Ġdraw": 1662,
      "Ġter": 1663,
      "Ġlaw": 1664,
      "Ġstra": 1665,
      "Ġleast": 1666,
      "uri": 1667,
      "your": 1668,
      "Ġobser": 1669,
      "esty": 1670,
      "Ġtowards": 1671,
      "were": 1672,
      "CH": 1673,
      "Ġfaith": 1674,
      "ift": 1675,
      "Ġalso": 1676,
      "Ġuntil": 1677,
      "Ġes": 1678,
      "Ġye": 1679,
      "Ġcontin": 1680,
      "Ġcold": 1681,
      "All": 1682,
      "ended": 1683,
      "ey": 1684,
      "Ġdet": 1685,
      "idd": 1686,
      "Ġknown": 1687,
      "ĠCh": 1688,
      "ached": 1689,
      "Ġoften": 1690,
      "fully": 1691,
      "Ġheld": 1692,
      "Ġpat": 1693,
      "Ġeither": 1694,
      "Scene": 1695,
      "lt": 1696,
      "Ġwhite": 1697,
      "Ġreturned": 1698,
      "Ã±or": 1699,
      "lem": 1700,
      "als": 1701,
      "Ġservant": 1702,
      "Than": 1703,
      "ceive": 1704,
      "Ġsaying": 1705,
      "ging": 1706,
      "ott": 1707,
      "Ġeff": 1708,
      "Ġcir": 1709,
      "Ġcase": 1710,
      "Ġexpect": 1711,
      "Ġfur": 1712,
      "ardinal": 1713,
      "undred": 1714,
      "uring": 1715,
      "Ġalmost": 1716,
      "wered": 1717,
      "Ġtrou": 1718,
      "Ġsmall": 1719,
      "ĠUlysses": 1720,
      "Ġcor": 1721,
      "Ġabs": 1722,
      "Ġfeet": 1723,
      "Ġspirit": 1724,
      "Ġinc": 1725,
      "Ġsend": 1726,
      "ude": 1727,
      "Ġquestion": 1728,
      "Ġtongue": 1729,
      "oh": 1730,
      "lish": 1731,
      "Ġthine": 1732,
      "orry": 1733,
      "rying": 1734,
      "Ġfal": 1735,
      "itted": 1736,
      "pose": 1737,
      "bert": 1738,
      "Ġjoy": 1739,
      "Come": 1740,
      "vern": 1741,
      "Ġsad": 1742,
      "Ġsort": 1743,
      "Ġlau": 1744,
      "app": 1745,
      "oint": 1746,
      "ably": 1747,
      "ney": 1748,
      "overed": 1749,
      "Ġtable": 1750,
      "ĠJoe": 1751,
      "Ġpleasure": 1752,
      "Ġmakes": 1753,
      "Ġbra": 1754,
      "iece": 1755,
      "Ġkept": 1756,
      "ca": 1757,
      "ient": 1758,
      "ided": 1759,
      "Ġdesire": 1760,
      "ities": 1761,
      "alth": 1762,
      "ĠRoc": 1763,
      "bour": 1764,
      "Ġsold": 1765,
      "Ġsuit": 1766,
      "them": 1767,
      "ON": 1768,
      "Ġbad": 1769,
      "Ġappro": 1770,
      "Ġwonder": 1771,
      "ley": 1772,
      "Ġquick": 1773,
      "aj": 1774,
      "pro": 1775,
      "where": 1776,
      "Ġbound": 1777,
      "run": 1778,
      "ĠHis": 1779,
      "Ġlea": 1780,
      "Ġlead": 1781,
      "Ġadm": 1782,
      "Ġmet": 1783,
      "Ġrequ": 1784,
      "dden": 1785,
      "Mr": 1786,
      "Ġten": 1787,
      "room": 1788,
      "ĠAthos": 1789,
      "ung": 1790,
      "ek": 1791,
      "Ġred": 1792,
      "Ġthoughts": 1793,
      "Ġanswered": 1794,
      "Ġmanner": 1795,
      "ances": 1796,
      "br": 1797,
      "Ġcast": 1798,
      "Ġorder": 1799,
      "Ġenem": 1800,
      "act": 1801,
      "Ġwall": 1802,
      "Ġbir": 1803,
      "Ġhur": 1804,
      "Ġhappy": 1805,
      "Ġfortune": 1806,
      "ohn": 1807,
      "Not": 1808,
      "go": 1809,
      "Ġlad": 1810,
      "Ġlaid": 1811,
      "ĠElizabeth": 1812,
      "Ġroad": 1813,
      "Ġwood": 1814,
      "iled": 1815,
      "airs": 1816,
      "Ġfellow": 1817,
      "bs": 1818,
      "Ġseeing": 1819,
      "Ġut": 1820,
      "ĠBuck": 1821,
      "ĠNow": 1822,
      "wor": 1823,
      "anger": 1824,
      "Ġwomen": 1825,
      "Ġcrown": 1826,
      "from": 1827,
      "though": 1828,
      "Ġclear": 1829,
      "arch": 1830,
      "gr": 1831,
      "Ġpast": 1832,
      "cha": 1833,
      "Ġsit": 1834,
      "iew": 1835,
      "Ġmur": 1836,
      "Ġworship": 1837,
      "KING": 1838,
      "ues": 1839,
      "live": 1840,
      "ĠDuke": 1841,
      "Here": 1842,
      "ec": 1843,
      "mp": 1844,
      "Ġsqu": 1845,
      "Ġcut": 1846,
      "imp": 1847,
      "Ġsatisf": 1848,
      "iful": 1849,
      "Ġadv": 1850,
      "Do": 1851,
      "Tis": 1852,
      "Ġmaking": 1853,
      "Ġyouth": 1854,
      "ush": 1855,
      "ages": 1856,
      "ĠNo": 1857,
      "OR": 1858,
      "Ġhundred": 1859,
      "ĠAt": 1860,
      "ĠThat": 1861,
      "Ġmaid": 1862,
      "Ġcra": 1863,
      "Ġkiss": 1864,
      "ĠFrance": 1865,
      "Ġperhaps": 1866,
      "Ġplain": 1867,
      "Ġgrace": 1868,
      "ES": 1869,
      "Ġlarge": 1870,
      "Ġabove": 1871,
      "Ġfast": 1872,
      "Ġcreat": 1873,
      "Ġprof": 1874,
      "when": 1875,
      "Ġwound": 1876,
      "Ġinstant": 1877,
      "ilady": 1878,
      "resh": 1879,
      "Ġspoke": 1880,
      "itting": 1881,
      "ĠLet": 1882,
      "Ġunderstand": 1883,
      "bl": 1884,
      "eng": 1885,
      "ille": 1886,
      "Ġqueen": 1887,
      "Ġsecond": 1888,
      "TH": 1889,
      "par": 1890,
      "oured": 1891,
      "Ġfalse": 1892,
      "son": 1893,
      "Ġcoun": 1894,
      "Ġgrow": 1895,
      "oof": 1896,
      "Ġsudden": 1897,
      "ĠHow": 1898,
      "Ġdevil": 1899,
      "hand": 1900,
      "Ġwatch": 1901,
      "dis": 1902,
      "Ġquiet": 1903,
      "uff": 1904,
      "Ġinv": 1905,
      "Ġfavour": 1906,
      "Ġdri": 1907,
      "rist": 1908,
      "rem": 1909,
      "Ġpap": 1910,
      "Ġtran": 1911,
      "rest": 1912,
      "Ġhang": 1913,
      "Ġform": 1914,
      "erest": 1915,
      "Ġeverything": 1916,
      "Ġgall": 1917,
      "ĠAl": 1918,
      "ĠTo": 1919,
      "ĠJane": 1920,
      "Ġdrink": 1921,
      "oose": 1922,
      "Ġevening": 1923,
      "Ġsto": 1924,
      "Ġcomfort": 1925,
      "inter": 1926,
      "Ġpay": 1927,
      "rac": 1928,
      "ĠBe": 1929,
      "Ġappeared": 1930,
      "eds": 1931,
      "Ġrespect": 1932,
      "ising": 1933,
      "Ġeat": 1934,
      "Ġquar": 1935,
      "Ġmus": 1936,
      "Ġmouth": 1937,
      "ĠEd": 1938,
      "Ġperf": 1939,
      "Ġdream": 1940,
      "Ġlate": 1941,
      "arted": 1942,
      "Ġere": 1943,
      "ctor": 1944,
      "Ġaccount": 1945,
      "Ġsorrow": 1946,
      "essed": 1947,
      "pon": 1948,
      "who": 1949,
      "umb": 1950,
      "Ġresol": 1951,
      "ines": 1952,
      "els": 1953,
      "Ġtaking": 1954,
      "Ġduke": 1955,
      "Ġinn": 1956,
      "Ġgods": 1957,
      "Ġemb": 1958,
      "look": 1959,
      "ones": 1960,
      "Ġrel": 1961,
      "Thy": 1962,
      "dom": 1963,
      "na": 1964,
      "Ġconsider": 1965,
      "asion": 1966,
      "Ġneither": 1967,
      "Ġsix": 1968,
      "Ġsubject": 1969,
      "hood": 1970,
      "ray": 1971,
      "ices": 1972,
      "Ġshame": 1973,
      "Ġrich": 1974,
      "Ġdin": 1975,
      "Ġtend": 1976,
      "Ġwine": 1977,
      "Ġcap": 1978,
      "Ġran": 1979,
      "Ġglad": 1980,
      "Ġwild": 1981,
      "Ġborn": 1982,
      "Ġcity": 1983,
      "Ġgovern": 1984,
      "ib": 1985,
      "Ġobject": 1986,
      "Ġplease": 1987,
      "Nor": 1988,
      "Ġaround": 1989,
      "Ġcommon": 1990,
      "Ġpurpose": 1991,
      "Yet": 1992,
      "Ġdanger": 1993,
      "ancy": 1994,
      "under": 1995,
      "Ġide": 1996,
      "Ġfix": 1997,
      "ters": 1998,
      "Ġlips": 1999,
      "itude": 2000,
      "othing": 2001,
      "Ġfamily": 2002,
      "ze": 2003,
      "Ġest": 2004,
      "Ġpain": 2005,
      "Ġlonger": 2006,
      "ead": 2007,
      "Ġhence": 2008,
      "alm": 2009,
      "Ġdesp": 2010,
      "ĠEngland": 2011,
      "roud": 2012,
      "Ġknows": 2013,
      "Ġcompany": 2014,
      "Ġage": 2015,
      "arce": 2016,
      "Ġund": 2017,
      "Don": 2018,
      "bit": 2019,
      "ket": 2020,
      "mes": 2021,
      "Ġunto": 2022,
      "ĠJohn": 2023,
      "Ġhours": 2024,
      "got": 2025,
      "Ġfill": 2026,
      "Ġready": 2027,
      "Ġsoft": 2028,
      "Ġfurther": 2029,
      "umber": 2030,
      "An": 2031,
      "Ġdread": 2032,
      "ĠRome": 2033,
      "Ġwindow": 2034,
      "then": 2035,
      "Ġbegin": 2036,
      "Ġremember": 2037,
      "vere": 2038,
      "Ġve": 2039,
      "Ġfight": 2040,
      "idence": 2041,
      "ĠBr": 2042,
      "Ġcross": 2043,
      "Ġweep": 2044,
      "Ġsecret": 2045,
      "tw": 2046,
      "Ġbit": 2047,
      "ĠCa": 2048,
      "Ġacqu": 2049,
      "Ġgrief": 2050,
      "min": 2051,
      "Ġsens": 2052,
      "lice": 2053,
      "II": 2054,
      "do": 2055,
      "Ġord": 2056,
      "rench": 2057,
      "Ġsense": 2058,
      "ĠDe": 2059,
      "Ġbreath": 2060,
      "ants": 2061,
      "Ġexpress": 2062,
      "ution": 2063,
      "ours": 2064,
      "ieu": 2065,
      "Ġarri": 2066,
      "Ġchange": 2067,
      "Ġdiffere": 2068,
      "Ġpretty": 2069,
      "Oh": 2070,
      "ardon": 2071,
      "Ġstory": 2072,
      "Ġlearn": 2073,
      "Have": 2074,
      "gain": 2075,
      "arcy": 2076,
      "Ġbecome": 2077,
      "Will": 2078,
      "Ġview": 2079,
      "Shall": 2080,
      "Ġstreng": 2081,
      "ires": 2082,
      "mber": 2083,
      "Ġfin": 2084,
      "ality": 2085,
      "Yes": 2086,
      "Ġfive": 2087,
      "Ġreceived": 2088,
      "iles": 2089,
      "ility": 2090,
      "osition": 2091,
      "uous": 2092,
      "Ġbur": 2093,
      "ho": 2094,
      "how": 2095,
      "cell": 2096,
      "ident": 2097,
      "cks": 2098,
      "Ġdelight": 2099,
      "Ġvirtue": 2100,
      "Ġable": 2101,
      "Ġcardinal": 2102,
      "ĠAnt": 2103,
      "Ġprov": 2104,
      "ges": 2105,
      "ler": 2106,
      "Ġyear": 2107,
      "aff": 2108,
      "Ġban": 2109,
      "ical": 2110,
      "gu": 2111,
      "cend": 2112,
      "Ġequ": 2113,
      "irm": 2114,
      "ĠMar": 2115,
      "Un": 2116,
      "Ġtem": 2117,
      "ural": 2118,
      "Ġself": 2119,
      "Ġden": 2120,
      "Ġdiv": 2121,
      "Ġshad": 2122,
      "Ġfollowed": 2123,
      "Ġstraight": 2124,
      "Her": 2125,
      "side": 2126,
      "Ġir": 2127,
      "arden": 2128,
      "Ġchildren": 2129,
      "cum": 2130,
      "eas": 2131,
      "joy": 2132,
      "Ġfing": 2133,
      "Ġservice": 2134,
      "Ġgentlemen": 2135,
      "ater": 2136,
      "eness": 2137,
      "ĠSp": 2138,
      "Ġeng": 2139,
      "Ġtwenty": 2140,
      "retched": 2141,
      "Ġseems": 2142,
      "can": 2143,
      "Ġmod": 2144,
      "Ġburn": 2145,
      "ingly": 2146,
      "Ġfault": 2147,
      "Ġcommand": 2148,
      "Ġstruck": 2149,
      "ives": 2150,
      "Ġbright": 2151,
      "ned": 2152,
      "Ġfield": 2153,
      "Ġcry": 2154,
      "ĠMad": 2155,
      "Ġlooks": 2156,
      "ught": 2157,
      "enance": 2158,
      "roy": 2159,
      "IR": 2160,
      "rust": 2161,
      "ajesty": 2162,
      "Our": 2163,
      "du": 2164,
      "hakes": 2165,
      "Ġdest": 2166,
      "Ġdrew": 2167,
      "ety": 2168,
      "ondon": 2169,
      "Ġwis": 2170,
      "ony": 2171,
      "more": 2172,
      "sc": 2173,
      "Ġtouch": 2174,
      "Ġdam": 2175,
      "Ġthir": 2176,
      "ĠMilady": 2177,
      "Ġused": 2178,
      "Ġpartic": 2179,
      "Ġrose": 2180,
      "Ġfine": 2181,
      "ĠOn": 2182,
      "Ġmistress": 2183,
      "Ġgirl": 2184,
      "some": 2185,
      "orthos": 2186,
      "oop": 2187,
      "lled": 2188,
      "Ġpity": 2189,
      "aged": 2190,
      "Ġbecame": 2191,
      "Ġaccom": 2192,
      "yond": 2193,
      "iling": 2194,
      "hakespe": 2195,
      "ike": 2196,
      "iant": 2197,
      "urch": 2198,
      "ĠDarcy": 2199,
      "ĠPr": 2200,
      "Ġwon": 2201,
      "Ġfly": 2202,
      "ĠAll": 2203,
      "ĠLa": 2204,
      "Ġinterest": 2205,
      "Upon": 2206,
      "Ġstrength": 2207,
      "ville": 2208,
      "oman": 2209,
      "Ġdost": 2210,
      "Ġspo": 2211,
      "Ġsla": 2212,
      "Ġweak": 2213,
      "ĠChrist": 2214,
      "Ġdidn": 2215,
      "oved": 2216,
      "ug": 2217,
      "their": 2218,
      "Ġseek": 2219,
      "Ġheavy": 2220,
      "could": 2221,
      "pla": 2222,
      "Ġbid": 2223,
      "Ġjo": 2224,
      "arent": 2225,
      "Ġcarried": 2226,
      "rÃ©": 2227,
      "otion": 2228,
      "utes": 2229,
      "Ġtrust": 2230,
      "Ġled": 2231,
      "ĠWhy": 2232,
      "Ġsilence": 2233,
      "gers": 2234,
      "iers": 2235,
      "Ġentered": 2236,
      "Ġsometimes": 2237,
      "Ġtrouble": 2238,
      "Ġsin": 2239,
      "Ġcol": 2240,
      "Ġcorn": 2241,
      "Ġsever": 2242,
      "Ġlies": 2243,
      "ected": 2244,
      "ainted": 2245,
      "bb": 2246,
      "ĠLondon": 2247,
      "errant": 2248,
      "sf": 2249,
      "Ġsick": 2250,
      "Ġgeneral": 2251,
      "Ġsn": 2252,
      "Ġbene": 2253,
      "Ġfig": 2254,
      "olmes": 2255,
      "Ġimag": 2256,
      "house": 2257,
      "morrow": 2258,
      "owers": 2259,
      "Ġdev": 2260,
      "Ġdeal": 2261,
      "Ġconst": 2262,
      "Ġopened": 2263,
      "Al": 2264,
      "aven": 2265,
      "wise": 2266,
      "Ġshalt": 2267,
      "Ġthank": 2268,
      "Ġchair": 2269,
      "Ġmarried": 2270,
      "ening": 2271,
      "Ġmere": 2272,
      "cher": 2273,
      "Ġcru": 2274,
      "aring": 2275,
      "comp": 2276,
      "Ġslow": 2277,
      "attle": 2278,
      "oes": 2279,
      "Ġcous": 2280,
      "Ġlose": 2281,
      "off": 2282,
      "Ġpale": 2283,
      "Ġdel": 2284,
      "Ġliving": 2285,
      "ually": 2286,
      "Ġfit": 2287,
      "Ġshut": 2288,
      "should": 2289,
      "iol": 2290,
      "inion": 2291,
      "Ġmort": 2292,
      "Ġdress": 2293,
      "tern": 2294,
      "ĠMonsieur": 2295,
      "Ġsave": 2296,
      "Ġsafe": 2297,
      "pend": 2298,
      "Ġbreast": 2299,
      "Ġwarn": 2300,
      "medi": 2301,
      "cour": 2302,
      "hester": 2303,
      "Ġdut": 2304,
      "Ġship": 2305,
      "Ġcomple": 2306,
      "Ġmonth": 2307,
      "iam": 2308,
      "kn": 2309,
      "Ġwrite": 2310,
      "Ġgrave": 2311,
      "Ġswear": 2312,
      "hakespeare": 2313,
      "ustom": 2314,
      "Ġproceed": 2315,
      "Ġcapt": 2316,
      "dd": 2317,
      "ledge": 2318,
      "versation": 2319,
      "Ġevil": 2320,
      "ĠSir": 2321,
      "Thus": 2322,
      "Ġwel": 2323,
      "ourney": 2324,
      "Ġremain": 2325,
      "Ġworthy": 2326,
      "ĠEnglish": 2327,
      "Ġidea": 2328,
      "reed": 2329,
      "ament": 2330,
      "ession": 2331,
      "Ġyours": 2332,
      "Ġworse": 2333,
      "ission": 2334,
      "Ġoccasion": 2335,
      "Ġcontinued": 2336,
      "Ġpar": 2337,
      "ames": 2338,
      "ils": 2339,
      "Ġwanted": 2340,
      "Ġdare": 2341,
      "Ġpen": 2342,
      "ĠIs": 2343,
      "ature": 2344,
      "ĠHere": 2345,
      "Ġsurpr": 2346,
      "ength": 2347,
      "Ġproud": 2348,
      "Ġele": 2349,
      "co": 2350,
      "Ġport": 2351,
      "Ġthrow": 2352,
      "Ġladies": 2353,
      "yal": 2354,
      "ries": 2355,
      "Ġlives": 2356,
      "ĠFrench": 2357,
      "Ġspirits": 2358,
      "Ġears": 2359,
      "angu": 2360,
      "fl": 2361,
      "Ġauth": 2362,
      "Ġstud": 2363,
      "amis": 2364,
      "ager": 2365,
      "Are": 2366,
      "sed": 2367,
      "Ġpost": 2368,
      "Ġreck": 2369,
      "Ġnecess": 2370,
      "ĠCome": 2371,
      "Ġprove": 2372,
      "ĠOF": 2373,
      "Ġlaugh": 2374,
      "ax": 2375,
      "ining": 2376,
      "Ġtoward": 2377,
      "Ġthr": 2378,
      "Ġyield": 2379,
      "usion": 2380,
      "Ġchance": 2381,
      "esar": 2382,
      "ement": 2383,
      "ope": 2384,
      "Good": 2385,
      "Ġought": 2386,
      "Ġsake": 2387,
      "Ġdoing": 2388,
      "Ġcompan": 2389,
      "Ġdinner": 2390,
      "OL": 2391,
      "pping": 2392,
      "Ġexpl": 2393,
      "Ġcharac": 2394,
      "Ġeffect": 2395,
      "asure": 2396,
      "Ġenter": 2397,
      "Ġnews": 2398,
      "Was": 2399,
      "ys": 2400,
      "hel": 2401,
      "Ġbow": 2402,
      "Ġreally": 2403,
      "Ġguard": 2404,
      "hard": 2405,
      "appe": 2406,
      "ĠHolmes": 2407,
      "Ġprin": 2408,
      "icked": 2409,
      "Ġriver": 2410,
      "ublic": 2411,
      "Ġeasy": 2412,
      "Ġenemy": 2413,
      "erv": 2414,
      "ises": 2415,
      "Ġhop": 2416,
      "ishment": 2417,
      "Ġhuman": 2418,
      "osom": 2419,
      "One": 2420,
      "time": 2421,
      "Ġentreat": 2422,
      "Ġadded": 2423,
      "ennet": 2424,
      "ination": 2425,
      "Ġdog": 2426,
      "Ġenjoy": 2427,
      "eed": 2428,
      "Ġhither": 2429,
      "Ġbeyond": 2430,
      "Ġforce": 2431,
      "Ġfact": 2432,
      "Ġperfect": 2433,
      "Ah": 2434,
      "cause": 2435,
      "Ġed": 2436,
      "Ġlab": 2437,
      "chief": 2438,
      "Ġisland": 2439,
      "Ġchamber": 2440,
      "cumst": 2441,
      "Ġcousin": 2442,
      "said": 2443,
      "Ġlength": 2444,
      "fast": 2445,
      "Ġsal": 2446,
      "happ": 2447,
      "ask": 2448,
      "Ġstir": 2449,
      "Ġvillage": 2450,
      "after": 2451,
      "ech": 2452,
      "Ġaf": 2453,
      "Ġsucc": 2454,
      "Ġcharge": 2455,
      "oom": 2456,
      "spect": 2457,
      "Ġav": 2458,
      "Ġwished": 2459,
      "iment": 2460,
      "Ġrepe": 2461,
      "Ġkne": 2462,
      "Ġconv": 2463,
      "Ġmighty": 2464,
      "Ġmoon": 2465,
      "Ġseveral": 2466,
      "Ġsim": 2467,
      "Ġwear": 2468,
      "Ġneigh": 2469,
      "ĠTe": 2470,
      "ĠWell": 2471,
      "Ġuncle": 2472,
      "Ġtender": 2473,
      "ron": 2474,
      "Ġtry": 2475,
      "rible": 2476,
      "venge": 2477,
      "orses": 2478,
      "upon": 2479,
      "Ġparticular": 2480,
      "Ġwilt": 2481,
      "cked": 2482,
      "ĠPar": 2483,
      "Ġvisit": 2484,
      "LE": 2485,
      "tered": 2486,
      "ots": 2487,
      "ĠPorthos": 2488,
      "itten": 2489,
      "achus": 2490,
      "Ġforward": 2491,
      "mand": 2492,
      "iter": 2493,
      "Ġmeant": 2494,
      "Ġconc": 2495,
      "ortun": 2496,
      "Ġbeautiful": 2497,
      "Hath": 2498,
      "Ġexam": 2499,
      "ĠLe": 2500,
      "Ġprot": 2501,
      "Ġglass": 2502,
      "ashion": 2503,
      "Ġfat": 2504,
      "Ġdied": 2505,
      "ossible": 2506,
      "Ġmarriage": 2507,
      "Go": 2508,
      "Ġbosom": 2509,
      "asp": 2510,
      "aded": 2511,
      "ump": 2512,
      "Ġcontent": 2513,
      "Ġhappened": 2514,
      "Ġdirect": 2515,
      "Ġhot": 2516,
      "othes": 2517,
      "Ġexcept": 2518,
      "ĠLuc": 2519,
      "Ġplaced": 2520,
      "Ġhonest": 2521,
      "Ġmarry": 2522,
      "Ġmove": 2523,
      "urious": 2524,
      "Ġstopped": 2525,
      "sfn": 2526,
      "00": 2527,
      "Ġmid": 2528,
      "erm": 2529,
      "Ġpardon": 2530,
      "Ġinstru": 2531,
      "Ġpossible": 2532,
      "Ġfresh": 2533,
      "Ġlim": 2534,
      "Ġyes": 2535,
      "Ġev": 2536,
      "Ġconce": 2537,
      "inea": 2538,
      "Ġjourney": 2539,
      "Ġadvent": 2540,
      "Whose": 2541,
      "Ġfeeling": 2542,
      "Ġsuffer": 2543,
      "lect": 2544,
      "Ġthyself": 2545,
      "Ġopinion": 2546,
      "pher": 2547,
      "Ġhide": 2548,
      "anced": 2549,
      "CE": 2550,
      "Ġduring": 2551,
      "Ġpal": 2552,
      "Ġforget": 2553,
      "Ġloved": 2554,
      "Ġring": 2555,
      "Ġoffer": 2556,
      "rÃ©ville": 2557,
      "rel": 2558,
      "Ġtop": 2559,
      "Ġhardly": 2560,
      "Ġsteps": 2561,
      "ians": 2562,
      "ingley": 2563,
      "Ġspeed": 2564,
      "Ġhist": 2565,
      "Ġreach": 2566,
      "ushed": 2567,
      "Ġscarce": 2568,
      "cons": 2569,
      "gl": 2570,
      "Ġmem": 2571,
      "Ġsmile": 2572,
      "Ġjustice": 2573,
      "Ġacross": 2574,
      "Ġpriv": 2575,
      "eks": 2576,
      "enge": 2577,
      "Ġline": 2578,
      "osing": 2579,
      "Ġoffic": 2580,
      "ĠĠĠĠĠĠĠĠ": 2581,
      "Ġast": 2582,
      "erve": 2583,
      "esh": 2584,
      "Ġremark": 2585,
      "Ġattend": 2586,
      "Ġlords": 2587,
      "Ġregard": 2588,
      "Ġjudge": 2589,
      "rant": 2590,
      "been": 2591,
      "Ġclo": 2592,
      "Ġaffection": 2593,
      "bo": 2594,
      "cont": 2595,
      "enry": 2596,
      "arer": 2597,
      "count": 2598,
      "ses": 2599,
      "Ġhost": 2600,
      "Ġshore": 2601,
      "Ġgoes": 2602,
      "clock": 2603,
      "uche": 2604,
      "Ġpromise": 2605,
      "Did": 2606,
      "ĠBennet": 2607,
      "Ġexclaim": 2608,
      "Ġpaper": 2609,
      "long": 2610,
      "ative": 2611,
      "Ġremained": 2612,
      "hor": 2613,
      "set": 2614,
      "ulc": 2615,
      "unes": 2616,
      "Ġgreater": 2617,
      "Ġsett": 2618,
      "Ġwait": 2619,
      "Ġfront": 2620,
      "ieux": 2621,
      "Ġauthor": 2622,
      "AT": 2623,
      "pass": 2624,
      "Ġi": 2625,
      "inct": 2626,
      "Ġwand": 2627,
      "Ġsch": 2628,
      "Ġsol": 2629,
      "ĠseÃ±or": 2630,
      "ĠLady": 2631,
      "Ġenchan": 2632,
      "Ġpresence": 2633,
      "Ġpursu": 2634,
      "uchess": 2635,
      "Ġtast": 2636,
      "het": 2637,
      "thy": 2638,
      "Ġneck": 2639,
      "rupt": 2640,
      "ĠBy": 2641,
      "ueen": 2642,
      "retch": 2643,
      "bet": 2644,
      "uct": 2645,
      "Ġtried": 2646,
      "orm": 2647,
      "ĠSe": 2648,
      "Ġexcell": 2649,
      "Ġmusic": 2650,
      "mediately": 2651,
      "Ġwelcome": 2652,
      "Ġain": 2653,
      "Ġsle": 2654,
      "Ġreal": 2655,
      "usket": 2656,
      "Ġblow": 2657,
      "Ġtrans": 2658,
      "ners": 2659,
      "Ġfet": 2660,
      "onac": 2661,
      "Ġbell": 2662,
      "iding": 2663,
      "Ġpassion": 2664,
      "Ġletters": 2665,
      "Ġappearance": 2666,
      "ĠCaesar": 2667,
      "ulcinea": 2668,
      "onacieux": 2669,
      "za": 2670,
      "Ġbott": 2671,
      "arry": 2672,
      "str": 2673,
      "Ġhate": 2674,
      "lemachus": 2675,
      "RY": 2676,
      "Ġnote": 2677,
      "ĠTH": 2678,
      "ume": 2679,
      "Ġcurate": 2680,
      "Ġwalked": 2681,
      "Ġbroken": 2682,
      "ĠAramis": 2683,
      "Sir": 2684,
      "Ġsigh": 2685,
      "Ġoath": 2686,
      "Ġmention": 2687,
      "Ġfancy": 2688,
      "Ġconversation": 2689,
      "before": 2690,
      "ald": 2691,
      "give": 2692,
      "pre": 2693,
      "Ġpun": 2694,
      "Ġpiece": 2695,
      "sequ": 2696,
      "again": 2697,
      "Ġblind": 2698,
      "Ġspeech": 2699,
      "Ġminutes": 2700,
      "uskete": 2701,
      "hold": 2702,
      "Ġda": 2703,
      "Ġinqu": 2704,
      "Ġgar": 2705,
      "Ġvain": 2706,
      "Ġshar": 2707,
      "Ġattempt": 2708,
      "Ġnatural": 2709,
      "Ġdepart": 2710,
      "Ġreckon": 2711,
      "than": 2712,
      "rig": 2713,
      "Ġpride": 2714,
      "iously": 2715,
      "Ġchurch": 2716,
      "Ġcarry": 2717,
      "Ġfoul": 2718,
      "Ġbeat": 2719,
      "ĠChar": 2720,
      "ĠJim": 2721,
      "about": 2722,
      "Ġcontr": 2723,
      "sue": 2724,
      "Ġhorses": 2725,
      "Ġincl": 2726,
      "Ġlived": 2727,
      "ante": 2728,
      "ized": 2729,
      "Ġcharacter": 2730,
      "mit": 2731,
      "Ġlangu": 2732,
      "Ġgate": 2733,
      "keep": 2734,
      "Ġbehold": 2735,
      "Ġgreen": 2736,
      "Ġdifferent": 2737,
      "Ġduty": 2738,
      "Some": 2739,
      "ker": 2740,
      "mo": 2741,
      "Ġwise": 2742,
      "vell": 2743,
      "ĠOne": 2744,
      "Ġserve": 2745,
      "gainst": 2746,
      "say": 2747,
      "ĠLorry": 2748,
      "Ġflesh": 2749,
      "Ġattention": 2750,
      "ĠRochester": 2751,
      "ĠMadame": 2752,
      "Ġeight": 2753,
      "These": 2754,
      "Ġang": 2755,
      "Ġanx": 2756,
      "ific": 2757,
      "raid": 2758,
      "Ġdism": 2759,
      "ĠQueen": 2760,
      "Ġdiffic": 2761,
      "Ġfixed": 2762,
      "ior": 2763,
      "kind": 2764,
      "ignor": 2765,
      "see": 2766,
      "Ġseat": 2767,
      "Ġlean": 2768,
      "formed": 2769,
      "Ġbooks": 2770,
      "Even": 2771,
      "every": 2772,
      "Ġsy": 2773,
      "Ġfif": 2774,
      "Ġforgot": 2775,
      "Ġspite": 2776,
      "Ġholy": 2777,
      "ext": 2778,
      "gar": 2779,
      "Ġver": 2780,
      "held": 2781,
      "ĠJove": 2782,
      "vantage": 2783,
      "Ġprisoner": 2784,
      "Ay": 2785,
      "af": 2786,
      "dle": 2787,
      "good": 2788,
      "just": 2789,
      "Ġstranger": 2790,
      "ogn": 2791,
      "Ġbrave": 2792,
      "uli": 2793,
      "erable": 2794,
      "Ġbread": 2795,
      "Ġcircumst": 2796,
      "Ġthird": 2797,
      "Like": 2798,
      "isham": 2799,
      "Ġvan": 2800,
      "Though": 2801,
      "Ġobli": 2802,
      "avisham": 2803,
      "Ġcruel": 2804,
      "May": 2805,
      "More": 2806,
      "Ġpit": 2807,
      "ili": 2808,
      "ĠBingley": 2809,
      "ĠTrÃ©ville": 2810,
      "Ġcompl": 2811,
      "Ġreply": 2812,
      "Were": 2813,
      "Ġbold": 2814,
      "Ġreached": 2815,
      "resent": 2816,
      "Ġexec": 2817,
      "ĠOr": 2818,
      "Ġsuppose": 2819,
      "Ġwitness": 2820,
      "Ġsingle": 2821,
      "yd": 2822,
      "Ġhell": 2823,
      "Ġviol": 2824,
      "error": 2825,
      "Sh": 2826,
      "inary": 2827,
      "Ġfashion": 2828,
      "Ġvict": 2829,
      "Ġdescri": 2830,
      "Ġgrant": 2831,
      "nest": 2832,
      "Ġwoe": 2833,
      "Ġthick": 2834,
      "Ġstone": 2835,
      "Ġstop": 2836,
      "ified": 2837,
      "Ġstreet": 2838,
      "into": 2839,
      "Ġur": 2840,
      "ously": 2841,
      "ĠPro": 2842,
      "Ġhearts": 2843,
      "ploy": 2844,
      "Ġwarm": 2845,
      "Ġhappiness": 2846,
      "Ġwaiting": 2847,
      "Ġstanding": 2848,
      "Ġminute": 2849,
      "Ġutter": 2850,
      "arm": 2851,
      "Ġbeast": 2852,
      "new": 2853,
      "Ġheads": 2854,
      "Ġtalking": 2855,
      "Ġsharp": 2856,
      "liver": 2857,
      "Ġsuddenly": 2858,
      "Ġneighbour": 2859,
      "Ġbig": 2860,
      "Ġgro": 2861,
      "Ġwhis": 2862,
      "amed": 2863,
      "Ġaccord": 2864,
      "Ġimport": 2865,
      "Ġpraise": 2866,
      "Ġid": 2867,
      "riend": 2868,
      "Ġdeg": 2869,
      "peak": 2870,
      "ĠShakespeare": 2871,
      "Ġroyal": 2872,
      "Ġshowed": 2873,
      "Ġservants": 2874,
      "OU": 2875,
      "Would": 2876,
      "eav": 2877,
      "esides": 2878,
      "Ġloud": 2879,
      "Ġgarden": 2880,
      "Their": 2881,
      "Ġnoise": 2882,
      "bey": 2883,
      "Ġobserved": 2884,
      "Ġcrow": 2885,
      "Ġgaz": 2886,
      "ĠAd": 2887,
      "ĠCam": 2888,
      "Ġgiving": 2889,
      "gged": 2890,
      "Ġpublic": 2891,
      "stood": 2892,
      "Ġrev": 2893,
      "rice": 2894,
      "isted": 2895,
      "Ġprince": 2896,
      "erence": 2897,
      "Ġreport": 2898,
      "iddle": 2899,
      "Ġbitter": 2900,
      "eal": 2901,
      "Ġsorry": 2902,
      "Ġpaid": 2903,
      "ades": 2904,
      "Ġbless": 2905,
      "Ġhearing": 2906,
      "Ġpersu": 2907,
      "Ġhaste": 2908,
      "ĠDoctor": 2909,
      "cape": 2910,
      "while": 2911,
      "itor": 2912,
      "emm": 2913,
      "Ġloves": 2914,
      "ĠWith": 2915,
      "ĠWill": 2916,
      "Ġdistance": 2917,
      "Ġcreature": 2918,
      "zen": 2919,
      "Ġhung": 2920,
      "ixt": 2921,
      "Ġturning": 2922,
      "ĠParis": 2923,
      "Look": 2924,
      "des": 2925,
      "Ġalive": 2926,
      "Ġsons": 2927,
      "reet": 2928,
      "Ġconcl": 2929,
      "ĠBonacieux": 2930,
      "ĠDulcinea": 2931,
      "Ġprep": 2932,
      "place": 2933,
      "God": 2934,
      "lo": 2935,
      "little": 2936,
      "ton": 2937,
      "itation": 2938,
      "Ġmel": 2939,
      "Ġallow": 2940,
      "Ġrain": 2941,
      "ails": 2942,
      "Ġtrees": 2943,
      "Ġknights": 2944,
      "Ġsky": 2945,
      "Ġbroke": 2946,
      "Ġsuitors": 2947,
      "Ġfigure": 2948,
      "emmick": 2949,
      "Sancho": 2950,
      "jo": 2951,
      "Ġaid": 2952,
      "Ġbent": 2953,
      "ork": 2954,
      "ĠTom": 2955,
      "Ġraised": 2956,
      "Ġkingdom": 2957,
      "Had": 2958,
      "Ġmal": 2959,
      "Ġwhence": 2960,
      "ĠRic": 2961,
      "Ġgetting": 2962,
      "Ġcheer": 2963,
      "Such": 2964,
      "Till": 2965,
      "cing": 2966,
      "great": 2967,
      "sw": 2968,
      "Ġfier": 2969,
      "Ġdogs": 2970,
      "que": 2971,
      "elve": 2972,
      "Ġdrawn": 2973,
      "ored": 2974,
      "ĠPer": 2975,
      "olly": 2976,
      "ĠNor": 2977,
      "cience": 2978,
      "Ġvillain": 2979,
      "Nay": 2980,
      "even": 2981,
      "sm": 2982,
      "Ġrelie": 2983,
      "ague": 2984,
      "Ġclothes": 2985,
      "Ġspeaking": 2986,
      "without": 2987,
      "IRST": 2988,
      "know": 2989,
      "Ġcouldn": 2990,
      "Ġthinking": 2991,
      "Ġearly": 2992,
      "Ġvaliant": 2993,
      "FIRST": 2994,
      "gy": 2995,
      "Ġsli": 2996,
      "requ": 2997,
      "Ġmess": 2998,
      "ested": 2999,
      "ella": 3000,
      "Ġknowledge": 3001,
      "Ġentertain": 3002,
      "Ġpleased": 3003,
      "Ġgives": 3004,
      "himself": 3005,
      "Ġsummer": 3006,
      "hal": 3007,
      "Ġnumber": 3008,
      "aled": 3009,
      "Ġago": 3010,
      "hered": 3011,
      "Ġwide": 3012,
      "Ġcand": 3013,
      "Ġloss": 3014,
      "Ġpure": 3015,
      "Ġthrew": 3016,
      "Ġformer": 3017,
      "ĠMaster": 3018,
      "Ġvent": 3019,
      "iced": 3020,
      "Ġwritten": 3021,
      "Ġkilled": 3022,
      "Ġsatisfied": 3023,
      "Ġshadow": 3024,
      "Ġcorner": 3025,
      "ortunity": 3026,
      "ET": 3027,
      "rid": 3028,
      "Ġtor": 3029,
      "anza": 3030,
      "Ġsusp": 3031,
      "ĠHavisham": 3032,
      "Ġspot": 3033,
      "Ġthanks": 3034,
      "Ġusual": 3035,
      "Ġrage": 3036,
      "Ġmemory": 3037,
      "down": 3038,
      "ĠHenry": 3039,
      "Ġprob": 3040,
      "Ġbirth": 3041,
      "back": 3042,
      "Ġmed": 3043,
      "Ġmir": 3044,
      "Ġbattle": 3045,
      "Ġstart": 3046,
      "ounds": 3047,
      "Ġlikely": 3048,
      "Ġpock": 3049,
      "comm": 3050,
      "Ġcountenance": 3051,
      "aving": 3052,
      "Ġfle": 3053,
      "arr": 3054,
      "oward": 3055,
      "vey": 3056,
      "Ġperceived": 3057,
      "Ġharm": 3058,
      "Ġpleasant": 3059,
      "Ġbloody": 3060,
      "Ġpresently": 3061,
      "Ġsilent": 3062,
      "Ġcounsel": 3063,
      "Ġhistory": 3064,
      "fall": 3065,
      "Ġfro": 3066,
      "ench": 3067,
      "Ġdi": 3068,
      "Ġeager": 3069,
      "ify": 3070,
      "ĠMuskete": 3071,
      "Ġprevent": 3072,
      "ĠThou": 3073,
      "ĠHerbert": 3074,
      "Ġpract": 3075,
      "Ġaccomp": 3076,
      "Ġmortal": 3077,
      "action": 3078,
      "did": 3079,
      "eem": 3080,
      "rep": 3081,
      "Ġmiss": 3082,
      "ĠAlice": 3083,
      "Ġoffice": 3084,
      "Ġsoldier": 3085,
      "bled": 3086,
      "ding": 3087,
      "made": 3088,
      "pleas": 3089,
      "Ġignor": 3090,
      "Ġwin": 3091,
      "Ġpict": 3092,
      "Ġseven": 3093,
      "Ġwouldn": 3094,
      "Ġunf": 3095,
      "Ġourselves": 3096,
      "Ġimmediately": 3097,
      "Ġquickly": 3098,
      "Ġsquire": 3099,
      "ĠTHE": 3100,
      "field": 3101,
      "Ġevent": 3102,
      "Ġdeeds": 3103,
      "Ġvar": 3104,
      "ĠColl": 3105,
      "Ġwhatever": 3106,
      "acher": 3107,
      "Ġconfess": 3108,
      "iety": 3109,
      "Ġleaves": 3110,
      "might": 3111,
      "sec": 3112,
      "ĠGu": 3113,
      "Ġemploy": 3114,
      "Ġdouble": 3115,
      "berty": 3116,
      "known": 3117,
      "Ġsuccess": 3118,
      "ford": 3119,
      "farge": 3120,
      "much": 3121,
      "Ã¨": 3122,
      "idered": 3123,
      "ĠGo": 3124,
      "Ġrock": 3125,
      "Ġimpossible": 3126,
      "Ġintell": 3127,
      "Ġcarriage": 3128,
      "Ġhid": 3129,
      "ĠPip": 3130,
      "umed": 3131,
      "Ġshoulder": 3132,
      "Ġfright": 3133,
      "teen": 3134,
      "Ġstream": 3135,
      "iddy": 3136,
      "Ġaston": 3137,
      "De": 3138,
      "ts": 3139,
      "Ġdu": 3140,
      "Ġhealth": 3141,
      "semb": 3142,
      "ĠMajesty": 3143,
      "alled": 3144,
      "ize": 3145,
      "Ġapproach": 3146,
      "ĠEdna": 3147,
      "Ġfilled": 3148,
      "Ġafraid": 3149,
      "isto": 3150,
      "Ġfaint": 3151,
      "aining": 3152,
      "Ġrise": 3153,
      "Ġgreatest": 3154,
      "Ġfeelings": 3155,
      "Ġbesides": 3156,
      "Ġexpected": 3157,
      "Ġleaving": 3158,
      "gi": 3159,
      "ois": 3160,
      "Ġpol": 3161,
      "stella": 3162,
      "Ġafterwards": 3163,
      "Ġsmo": 3164,
      "Ġfollowing": 3165,
      "Ġrecogn": 3166,
      "rief": 3167,
      "Ġbelow": 3168,
      "Ġble": 3169,
      "Ġbase": 3170,
      "ites": 3171,
      "ĠPl": 3172,
      "Ġfail": 3173,
      "ively": 3174,
      "inks": 3175,
      "ressing": 3176,
      "ĠYet": 3177,
      "Ġschool": 3178,
      "Re": 3179,
      "che": 3180,
      "lu": 3181,
      "Ġsong": 3182,
      "Ġasleep": 3183,
      "aked": 3184,
      "Ġspring": 3185,
      "Ġbare": 3186,
      "Ġfirm": 3187,
      "Ġcaught": 3188,
      "ays": 3189,
      "Ġrevenge": 3190,
      "Ġslight": 3191,
      "Ġresolved": 3192,
      "RA": 3193,
      "lock": 3194,
      "woman": 3195,
      "Ġfurn": 3196,
      "Ġinj": 3197,
      "ract": 3198,
      "Ġways": 3199,
      "Ġcertainly": 3200,
      "Ġoccup": 3201,
      "Ġtou": 3202,
      "Ġwretched": 3203,
      "reg": 3204,
      "hap": 3205,
      "Ġdemand": 3206,
      "Ġshepher": 3207,
      "unate": 3208,
      "Ġshoulders": 3209,
      "ression": 3210,
      "Ġcourage": 3211,
      "iana": 3212,
      "noon": 3213,
      "Ġsoldiers": 3214,
      "ĠChristian": 3215,
      "rim": 3216,
      "Ġaction": 3217,
      "Ġsitting": 3218,
      "Ġcustom": 3219,
      "Ġlying": 3220,
      "thought": 3221,
      "ĠMary": 3222,
      "together": 3223,
      "Ġleg": 3224,
      "erer": 3225,
      "ANT": 3226,
      "Ġgolden": 3227,
      "Ġbelong": 3228,
      "Ġiron": 3229,
      "IO": 3230,
      "part": 3231,
      "such": 3232,
      "Ġcamp": 3233,
      "Ġhig": 3234,
      "Ġlust": 3235,
      "Ġsuper": 3236,
      "ember": 3237,
      "Ġgod": 3238,
      "aggers": 3239,
      "olute": 3240,
      "Ġeasily": 3241,
      "inante": 3242,
      "ences": 3243,
      "Ġcoll": 3244,
      "Ġweek": 3245,
      "Ġdeed": 3246,
      "Ġshape": 3247,
      "Ġproc": 3248,
      "never": 3249,
      "Ġapart": 3250,
      "Ġteeth": 3251,
      "Ġbeginning": 3252,
      "cent": 3253,
      "cul": 3254,
      "pers": 3255,
      "Ġtit": 3256,
      "Ġthro": 3257,
      "Ġstro": 3258,
      "ĠWemmick": 3259,
      "ĠPanza": 3260,
      "Ġproof": 3261,
      "Ġscorn": 3262,
      "Ġconsent": 3263,
      "ointed": 3264,
      "ĠTelemachus": 3265,
      "Ex": 3266,
      "rat": 3267,
      "Ġtreat": 3268,
      "Ġstar": 3269,
      "ellow": 3270,
      "Ġmoved": 3271,
      "Ġclean": 3272,
      "Ġmercy": 3273,
      "bre": 3274,
      "father": 3275,
      "ram": 3276,
      "Ġmiddle": 3277,
      "Ġfond": 3278,
      "road": 3279,
      "Ġplan": 3280,
      "ARD": 3281,
      "Since": 3282,
      "bly": 3283,
      "certain": 3284,
      "pit": 3285,
      "Ġtear": 3286,
      "only": 3287,
      "Ġdull": 3288,
      "Ġduchess": 3289,
      "Ġinform": 3290,
      "rud": 3291,
      "Ġalthough": 3292,
      "Ġrob": 3293,
      "Ġpassing": 3294,
      "lemn": 3295,
      "runk": 3296,
      "Ġscarcely": 3297,
      "gue": 3298,
      "nothing": 3299,
      "erved": 3300,
      "Ġcou": 3301,
      "Ġpack": 3302,
      "owing": 3303,
      "Ġknock": 3304,
      "law": 3305,
      "Ġamaz": 3306,
      "Ġclosed": 3307,
      "Ġscene": 3308,
      "Ġbeside": 3309,
      "Ġnose": 3310,
      "Ġunless": 3311,
      "Ġtwelve": 3312,
      "rank": 3313,
      "Ġendeav": 3314,
      "Therefore": 3315,
      "Ġaccept": 3316,
      "Ġpatience": 3317,
      "Ġmonths": 3318,
      "Ġtaste": 3319,
      "ips": 3320,
      "Ġtale": 3321,
      "Ġwed": 3322,
      "Ġexper": 3323,
      "Ġadvantage": 3324,
      "Ġparts": 3325,
      "Ġmisfort": 3326,
      "Ġinnoc": 3327,
      "Ġspoken": 3328,
      "engeance": 3329,
      "ealous": 3330,
      "19": 3331,
      "UE": 3332,
      "cap": 3333,
      "ingham": 3334,
      "arrow": 3335,
      "Ġallowed": 3336,
      "Ġnobody": 3337,
      "ept": 3338,
      "Ġglory": 3339,
      "Ġguide": 3340,
      "Ġdeterm": 3341,
      "Ġcloak": 3342,
      "Ġexcellent": 3343,
      "ah": 3344,
      "Ġtall": 3345,
      "Ġbas": 3346,
      "Ġcost": 3347,
      "Ġnur": 3348,
      "Ġnig": 3349,
      "Ġwealth": 3350,
      "amb": 3351,
      "ĠCla": 3352,
      "ishing": 3353,
      "Ġcoach": 3354,
      "ĠYour": 3355,
      "Ġknees": 3356,
      "SE": 3357,
      "gin": 3358,
      "vi": 3359,
      "Ġball": 3360,
      "Ġdwell": 3361,
      "Ġpath": 3362,
      "Ġreceive": 3363,
      "ric": 3364,
      "ĠWhere": 3365,
      "Ġspread": 3366,
      "ĠRe": 3367,
      "Ġpassage": 3368,
      "Ġearnest": 3369,
      "Ġgracious": 3370,
      "ENRY": 3371,
      "car": 3372,
      "ming": 3373,
      "Ġoft": 3374,
      "Ġthreat": 3375,
      "Ġbeha": 3376,
      "ĠGrace": 3377,
      "Ġenv": 3378,
      "Ġfloor": 3379,
      "Ġconscience": 3380,
      "ESS": 3381,
      "Ġfinger": 3382,
      "shall": 3383,
      "Ġwinter": 3384,
      "Ġsought": 3385,
      "Ġmour": 3386,
      "Ġbank": 3387,
      "Ġlif": 3388,
      "Ġrid": 3389,
      "Ġknowing": 3390,
      "ontell": 3391,
      "Ġlanguage": 3392,
      "Can": 3393,
      "friend": 3394,
      "Ġwid": 3395,
      "Ġgrew": 3396,
      "Ġsearch": 3397,
      "raw": 3398,
      "Ġexact": 3399,
      "bered": 3400,
      "Ġdescend": 3401,
      "Ġtruly": 3402,
      "Ġputting": 3403,
      "Ġbelieved": 3404,
      "Ġneeds": 3405,
      "Ġsimple": 3406,
      "came": 3407,
      "Ġty": 3408,
      "has": 3409,
      "Ġhill": 3410,
      "Ġpull": 3411,
      "asons": 3412,
      "Ġgift": 3413,
      "Ġbeheld": 3414,
      "ĠHENRY": 3415,
      "Ġcomb": 3416,
      "Ġdisg": 3417,
      "Ġwaited": 3418,
      "Ġsupper": 3419,
      "Ġnecessary": 3420,
      "Ġangry": 3421,
      "oid": 3422,
      "ste": 3423,
      "Ġforb": 3424,
      "Ġann": 3425,
      "Ġproper": 3426,
      "Ġmiserable": 3427,
      "Ġescape": 3428,
      "Ġslowly": 3429,
      "LI": 3430,
      "RO": 3431,
      "Ġwicked": 3432,
      "Ġcovered": 3433,
      "Ġdust": 3434,
      "Ġves": 3435,
      "Ġlod": 3436,
      "aunt": 3437,
      "arest": 3438,
      "Ġblame": 3439,
      "Ġdarkness": 3440,
      "tell": 3441,
      "Ġtone": 3442,
      "Ġmotion": 3443,
      "Ġthence": 3444,
      "Ġblue": 3445,
      "rang": 3446,
      "Ġstands": 3447,
      "ENT": 3448,
      "Ġpromised": 3449,
      "obert": 3450,
      "Ġbreakfast": 3451,
      "Ġmurder": 3452,
      "Ġexclaimed": 3453,
      "ror": 3454,
      "reme": 3455,
      "Ġobey": 3456,
      "itions": 3457,
      "Ġfru": 3458,
      "ency": 3459,
      "Ġce": 3460,
      "Ġhunt": 3461,
      "Ġange": 3462,
      "ests": 3463,
      "lig": 3464,
      "Ġliberty": 3465,
      "ĠTell": 3466,
      "ending": 3467,
      "Ġsport": 3468,
      "Ġcloud": 3469,
      "Ġinstead": 3470,
      "Ġcheek": 3471,
      "ĠYork": 3472,
      "Ġlearned": 3473,
      "Ġcomplete": 3474,
      "Ġvessel": 3475,
      "Give": 3476,
      "While": 3477,
      "cceed": 3478,
      "somet": 3479,
      "wo": 3480,
      "Ġtakes": 3481,
      "Ġsnow": 3482,
      "erc": 3483,
      "Ġcre": 3484,
      "Ġdue": 3485,
      "stru": 3486,
      "illa": 3487,
      "think": 3488,
      "ĠWho": 3489,
      "Ġspent": 3490,
      "itty": 3491,
      "Ġblessed": 3492,
      "range": 3493,
      "Ġdropped": 3494,
      "Ġenemies": 3495,
      "ontellier": 3496,
      "CON": 3497,
      "Tell": 3498,
      "ghed": 3499,
      "ĠX": 3500,
      "Ġmock": 3501,
      "Ġclaim": 3502,
      "ĠPh": 3503,
      "Ġdesert": 3504,
      "Ġentire": 3505,
      "Ġarrived": 3506,
      "happy": 3507,
      "Ġsuspic": 3508,
      "eor": 3509,
      "Ġfo": 3510,
      "lly": 3511,
      "Ġdry": 3512,
      "Ġluck": 3513,
      "Ġpa": 3514,
      "Ġph": 3515,
      "Ġnotice": 3516,
      "Ġshook": 3517,
      "Ġfaces": 3518,
      "umble": 3519,
      "Ġanyone": 3520,
      "Ġoffered": 3521,
      "ops": 3522,
      "ancing": 3523,
      "Ġterms": 3524,
      "Ġsettled": 3525,
      "Miss": 3526,
      "Ġrough": 3527,
      "Ġones": 3528,
      "Ġaside": 3529,
      "Ġseated": 3530,
      "peci": 3531,
      "Ġgrand": 3532,
      "Before": 3533,
      "Ġsilver": 3534,
      "Ġterrible": 3535,
      "ĠDefarge": 3536,
      "Ġequal": 3537,
      "Mad": 3538,
      "Take": 3539,
      "Ġwoo": 3540,
      "Ġmut": 3541,
      "Ġfood": 3542,
      "Ġcred": 3543,
      "Ġpie": 3544,
      "Ġsolemn": 3545,
      "Ġconsequ": 3546,
      "Ġlegs": 3547,
      "ĠEstella": 3548,
      "ĠHeaven": 3549,
      "Ġplaces": 3550,
      "Ġchief": 3551,
      "Ġfallen": 3552,
      "Ġtalked": 3553,
      "Ġfingers": 3554,
      "ĠPrince": 3555,
      "uz": 3556,
      "vis": 3557,
      "Ġtree": 3558,
      "rent": 3559,
      "Ġbend": 3560,
      "stairs": 3561,
      "Ġease": 3562,
      "Ġadvice": 3563,
      "udge": 3564,
      "Ġpluck": 3565,
      "ickham": 3566,
      "Ġcover": 3567,
      "Ġstreets": 3568,
      "Ġcondition": 3569,
      "Ġwalls": 3570,
      "two": 3571,
      "Ġjoin": 3572,
      "Com": 3573,
      "nat": 3574,
      "inous": 3575,
      "Ġhall": 3576,
      "Ġstarted": 3577,
      "Ġchoose": 3578,
      "Ġgrat": 3579,
      "Ġcastle": 3580,
      "looking": 3581,
      "After": 3582,
      "take": 3583,
      "ories": 3584,
      "Ġcalm": 3585,
      "ayed": 3586,
      "verse": 3587,
      "ilty": 3588,
      "osite": 3589,
      "Ġfeast": 3590,
      "Ġparty": 3591,
      "elton": 3592,
      "eech": 3593,
      "UEEN": 3594,
      "Elizabeth": 3595,
      "host": 3596,
      "Ġfate": 3597,
      "ords": 3598,
      "orted": 3599,
      "Ġworst": 3600,
      "ĠRocinante": 3601,
      "Ġfetch": 3602,
      "keeper": 3603,
      "Ġsoci": 3604,
      "these": 3605,
      "umph": 3606,
      "Ġcanst": 3607,
      "Ġarg": 3608,
      "Ġdidst": 3609,
      "Ġbrow": 3610,
      "Ġeverybody": 3611,
      "Ġrap": 3612,
      "Ġglance": 3613,
      "Ġopportunity": 3614,
      "Ġadmir": 3615,
      "Ġgovernor": 3616,
      "Ġpocket": 3617,
      "zy": 3618,
      "terday": 3619,
      "Ġrank": 3620,
      "Ġconduct": 3621,
      "Ġlisten": 3622,
      "going": 3623,
      "found": 3624,
      "first": 3625,
      "Ġfut": 3626,
      "ilst": 3627,
      "ĠCl": 3628,
      "acy": 3629,
      "ĠOh": 3630,
      "Ġdecla": 3631,
      "Ġlabour": 3632,
      "16": 3633,
      "LA": 3634,
      "gment": 3635,
      "wr": 3636,
      "Ġwond": 3637,
      "Ġdim": 3638,
      "Ġlest": 3639,
      "rif": 3640,
      "Ġstick": 3641,
      "urs": 3642,
      "ĠMan": 3643,
      "quest": 3644,
      "Ġoutside": 3645,
      "Ġchanged": 3646,
      "Ġfamous": 3647,
      "ĠCollins": 3648,
      "Ġcat": 3649,
      "oted": 3650,
      "lected": 3651,
      "Ġforced": 3652,
      "Ġweight": 3653,
      "Ġsuspect": 3654,
      "acqu": 3655,
      "erty": 3656,
      "Ġpoet": 3657,
      "ĠNot": 3658,
      "Ġafternoon": 3659,
      "Ġswift": 3660,
      "Ġempt": 3661,
      "Ġnearly": 3662,
      "hys": 3663,
      "Ġdespair": 3664,
      "Ġengaged": 3665,
      "Ġdressed": 3666,
      "Ġpet": 3667,
      "Ġparent": 3668,
      "unic": 3669,
      "uded": 3670,
      "Ġskill": 3671,
      "Ġrunning": 3672,
      "bus": 3673,
      "bles": 3674,
      "coun": 3675,
      "hend": 3676,
      "rehend": 3677,
      "urb": 3678,
      "Ġneg": 3679,
      "rum": 3680,
      "osity": 3681,
      "Ġprodu": 3682,
      "Ġperceive": 3683,
      "Ġhandsome": 3684,
      "Ġstrike": 3685,
      "Ġcompanion": 3686,
      "ydia": 3687,
      "ĠRichard": 3688,
      "born": 3689,
      "fer": 3690,
      "face": 3691,
      "Ġwore": 3692,
      "Ġfra": 3693,
      "orous": 3694,
      "Ġnine": 3695,
      "Ġeld": 3696,
      "Ġanger": 3697,
      "Ġkings": 3698,
      "rows": 3699,
      "ocket": 3700,
      "Ġdrop": 3701,
      "En": 3702,
      "Ġbore": 3703,
      "edy": 3704,
      "Ġdish": 3705,
      "Ġsovere": 3706,
      "ĠMin": 3707,
      "Ġshown": 3708,
      "ouses": 3709,
      "Ġexist": 3710,
      "Ġtwice": 3711,
      "Ġperform": 3712,
      "Ġfinding": 3713,
      "Ġlistened": 3714,
      "Ġdrawing": 3715,
      "ĠEdward": 3716,
      "Ġbeneath": 3717,
      "Quixote": 3718,
      "may": 3719,
      "whe": 3720,
      "Ġbeard": 3721,
      "Ġmeasure": 3722,
      "Ġstore": 3723,
      "Ġsucceed": 3724,
      "Ġdoors": 3725,
      "lies": 3726,
      "ĠThese": 3727,
      "Ġspake": 3728,
      "Ġanybody": 3729,
      "ector": 3730,
      "Ġbecom": 3731,
      "Ġlaughed": 3732,
      "Ġprivate": 3733,
      "Ġcontrary": 3734,
      "Ġintellig": 3735,
      "ICH": 3736,
      "ipe": 3737,
      "Ġta": 3738,
      "heard": 3739,
      "Ġfie": 3740,
      "orious": 3741,
      "Ġetern": 3742,
      "ĠPontellier": 3743,
      "Ġspace": 3744,
      "Ġjew": 3745,
      "Ġjealous": 3746,
      "ĠJaggers": 3747,
      "Ġflowers": 3748,
      "Ġprev": 3749,
      "aintance": 3750,
      "Ġinflu": 3751,
      "Ġmountain": 3752,
      "Ġabsence": 3753,
      "Ġquarter": 3754,
      "Ġsenses": 3755,
      "Ġexpression": 3756,
      "Ġrepeated": 3757,
      "bro": 3758,
      "iest": 3759,
      "oly": 3760,
      "Ġboot": 3761,
      "itc": 3762,
      "Ġcatch": 3763,
      "uted": 3764,
      "Ġdeliver": 3765,
      "antly": 3766,
      "Ġvile": 3767,
      "Ġchival": 3768,
      "Ġmisery": 3769,
      "Ġpossess": 3770,
      "STER": 3771,
      "ĠBuckingham": 3772,
      "See": 3773,
      "gentle": 3774,
      "pri": 3775,
      "rate": 3776,
      "Ġterror": 3777,
      "Ġpair": 3778,
      "Ġstock": 3779,
      "Ġdepend": 3780,
      "Ġsugg": 3781,
      "seless": 3782,
      "Ġshows": 3783,
      "Ġsouls": 3784,
      "Ġtremb": 3785,
      "Ġhopes": 3786,
      "Ġdegree": 3787,
      "Ġmeth": 3788,
      "Ġmatch": 3789,
      "Ġcal": 3790,
      "Ġla": 3791,
      "ribut": 3792,
      "Ġdelic": 3793,
      "through": 3794,
      "ĠCom": 3795,
      "Ġris": 3796,
      "being": 3797,
      "Ġcompass": 3798,
      "Ġcheeks": 3799,
      "Ġtouched": 3800,
      "pecially": 3801,
      "Ġfuture": 3802,
      "wick": 3803,
      "eding": 3804,
      "Ġtomorrow": 3805,
      "Ġheight": 3806,
      "seem": 3807,
      "Ġappears": 3808,
      "Ġkindness": 3809,
      "Ġboat": 3810,
      "ĠSeÃ±or": 3811,
      "Pro": 3812,
      "must": 3813,
      "sing": 3814,
      "Ġcas": 3815,
      "Ġlack": 3816,
      "tering": 3817,
      "Ġvengeance": 3818,
      "Ġrising": 3819,
      "weet": 3820,
      "Ġcalling": 3821,
      "cip": 3822,
      "cient": 3823,
      "Ġmerry": 3824,
      "Ġcolour": 3825,
      "erva": 3826,
      "Ġcrowd": 3827,
      "QUEEN": 3828,
      "sion": 3829,
      "Ġbond": 3830,
      "Ġcab": 3831,
      "Ġsheep": 3832,
      "Ġshout": 3833,
      "olk": 3834,
      "Ġagree": 3835,
      "anchet": 3836,
      "Ġwrote": 3837,
      "cester": 3838,
      "appeared": 3839,
      "dist": 3840,
      "master": 3841,
      "iny": 3842,
      "Ġband": 3843,
      "Ġbrief": 3844,
      "Ġfame": 3845,
      "Ġstars": 3846,
      "Ġsepar": 3847,
      "ĠMoor": 3848,
      "Ġsail": 3849,
      "Ġtelling": 3850,
      "Ġconsidered": 3851,
      "ceiving": 3852,
      "Ġwishes": 3853,
      "Ġsurprised": 3854,
      "Should": 3855,
      "onour": 3856,
      "Ġdrunk": 3857,
      "Ġmanners": 3858,
      "ĠRobert": 3859,
      "Ġserved": 3860,
      "Ġboard": 3861,
      "Ġincre": 3862,
      "Ġmurd": 3863,
      "Ġtemp": 3864,
      "Ġdetermined": 3865,
      "last": 3866,
      "met": 3867,
      "occ": 3868,
      "ator": 3869,
      "Ġbeam": 3870,
      "ette": 3871,
      "ĠSc": 3872,
      "ĠSome": 3873,
      "ĠAfter": 3874,
      "elen": 3875,
      "Ġquit": 3876,
      "ĠGood": 3877,
      "Ġobt": 3878,
      "Ġbeseech": 3879,
      "Ġburning": 3880,
      "Say": 3881,
      "hus": 3882,
      "Ġbod": 3883,
      "Ġbac": 3884,
      "Ġfled": 3885,
      "Ġloose": 3886,
      "arwick": 3887,
      "Ġgain": 3888,
      "Ġintent": 3889,
      "Ġexcuse": 3890,
      "Ġextreme": 3891,
      "Ġopposite": 3892,
      "Ġhurt": 3893,
      "Ġdreadful": 3894,
      "Ġtemper": 3895,
      "lou": 3896,
      "Ġmor": 3897,
      "Ġhun": 3898,
      "seen": 3899,
      "rill": 3900,
      "Ġissue": 3901,
      "ĠMme": 3902,
      "ĠAm": 3903,
      "igne": 3904,
      "Ġlovely": 3905,
      "Ġflight": 3906,
      "ancholy": 3907,
      "Ġmadam": 3908,
      "Ġrememb": 3909,
      "Ġburst": 3910,
      "Ġadventure": 3911,
      "hum": 3912,
      "mission": 3913,
      "heart": 3914,
      "Ġaud": 3915,
      "Ġfold": 3916,
      "Ġheir": 3917,
      "Ġga": 3918,
      "utation": 3919,
      "Ġweary": 3920,
      "urst": 3921,
      "Ġliked": 3922,
      "emn": 3923,
      "ĠTroy": 3924,
      "ĠWickham": 3925,
      "ument": 3926,
      "Ġspend": 3927,
      "Ġbegun": 3928,
      "Ġaffair": 3929,
      "Ġsuffic": 3930,
      "Ġteach": 3931,
      "itchen": 3932,
      "200": 3933,
      "ivil": 3934,
      "pet": 3935,
      "Ġow": 3936,
      "enced": 3937,
      "Ġgates": 3938,
      "ulty": 3939,
      "unning": 3940,
      "ption": 3941,
      "ĠFort": 3942,
      "Ġrare": 3943,
      "ailed": 3944,
      "chance": 3945,
      "ibly": 3946,
      "Ġorders": 3947,
      "Ġchivalry": 3948,
      "AM": 3949,
      "wind": 3950,
      "rec": 3951,
      "oubt": 3952,
      "Ġmonsieur": 3953,
      "Ġcool": 3954,
      "Ġloving": 3955,
      "Ġunable": 3956,
      "ĠGeor": 3957,
      "aces": 3958,
      "Ġwindows": 3959,
      "ĠTherefore": 3960,
      "attered": 3961,
      "Ġdangerous": 3962,
      "Ġmerely": 3963,
      "Ġcaptain": 3964,
      "Ġaccording": 3965,
      "Ġtitle": 3966,
      "Am": 3967,
      "rous": 3968,
      "uge": 3969,
      "Ġtrying": 3970,
      "Ġheat": 3971,
      "imon": 3972,
      "illed": 3973,
      "Ġsaf": 3974,
      "oso": 3975,
      "ĠLydia": 3976,
      "Ġarmour": 3977,
      "Ġcoff": 3978,
      "Ġconfidence": 3979,
      "Ġheavens": 3980,
      "Ġabsolute": 3981,
      "Ġdestroy": 3982,
      "Ġbottom": 3983,
      "Ġshepherd": 3984,
      "igneur": 3985,
      "ean": 3986,
      "rive": 3987,
      "Ġprecious": 3988,
      "Ġbearing": 3989,
      "Ġbroad": 3990,
      "Against": 3991,
      "cred": 3992,
      "gan": 3993,
      "Ġbade": 3994,
      "Ġlot": 3995,
      "Ġphys": 3996,
      "othe": 3997,
      "Ġbears": 3998,
      "Ġstones": 3999,
      "rue": 4000,
      "astle": 4001,
      "Ġwouldst": 4002,
      "aced": 4003,
      "Ġpoison": 4004,
      "Ġimm": 4005,
      "Ġunderstood": 4006,
      "Ġmadness": 4007,
      "Ġvirtuous": 4008,
      "ĠCharles": 4009,
      "kerchief": 4010,
      "cil": 4011,
      "iod": 4012,
      "Ġaim": 4013,
      "Ġbones": 4014,
      "Ġfolly": 4015,
      "Ġlion": 4016,
      "Ġlines": 4017,
      "Ġanim": 4018,
      "Ġgoodness": 4019,
      "Ġfee": 4020,
      "Ġflatter": 4021,
      "exp": 4022,
      "expect": 4023,
      "Ġreading": 4024,
      "ounced": 4025,
      "Ġsurprise": 4026,
      "Make": 4027,
      "case": 4028,
      "ivers": 4029,
      "rees": 4030,
      "Ġmain": 4031,
      "Ġtoday": 4032,
      "Ġnames": 4033,
      "iring": 4034,
      "urred": 4035,
      "pered": 4036,
      "ĠCount": 4037,
      "Ġsomewhat": 4038,
      "Ġbrid": 4039,
      "Ġdiscovered": 4040,
      "Ġsubst": 4041,
      "Ġsatisfaction": 4042,
      "Ġdeny": 4043,
      "ĠCamilla": 4044,
      "Ġthroat": 4045,
      "Ġfruit": 4046,
      "Se": 4047,
      "sat": 4048,
      "hest": 4049,
      "Ġfanc": 4050,
      "Ġcivil": 4051,
      "ingu": 4052,
      "Ġheed": 4053,
      "ĠIII": 4054,
      "uten": 4055,
      "Ġreb": 4056,
      "ales": 4057,
      "ando": 4058,
      "Ġoffence": 4059,
      "Aside": 4060,
      "Ġchoice": 4061,
      "Ġaffect": 4062,
      "Ġmeaning": 4063,
      "Ġgrey": 4064,
      "Ġundert": 4065,
      "Ġconcern": 4066,
      "iliar": 4067,
      "PH": 4068,
      "inced": 4069,
      "Ġcent": 4070,
      "Ġdign": 4071,
      "Ġghost": 4072,
      "Ġsty": 4073,
      "acle": 4074,
      "aughters": 4075,
      "Ġguilty": 4076,
      "Ġhonourable": 4077,
      "Ġhumour": 4078,
      "Ġprayers": 4079,
      "Ġrequest": 4080,
      "Ġignorant": 4081,
      "Ġsovereign": 4082,
      "make": 4083,
      "Ġcoward": 4084,
      "add": 4085,
      "ĠSaint": 4086,
      "aker": 4087,
      "Ġlover": 4088,
      "ĠLook": 4089,
      "ĠOf": 4090,
      "Ġremoved": 4091,
      "Ġaffairs": 4092,
      "Ġholding": 4093,
      "Ġtrial": 4094,
      "Mrs": 4095,
      "Ġwounded": 4096,
      "Ġslave": 4097,
      "Ġcircumstances": 4098,
      "loucester": 4099,
      "MAN": 4100,
      "Ġdance": 4101,
      "another": 4102,
      "seigneur": 4103,
      "chook": 4104,
      "Ġmeat": 4105,
      "Ġancient": 4106,
      "ulous": 4107,
      "Ġshake": 4108,
      "fty": 4109,
      "peror": 4110,
      "Ġsmoke": 4111,
      "Ġendure": 4112,
      "Ġintention": 4113,
      "Ġkeeping": 4114,
      "Ġassist": 4115,
      "Ġfortunes": 4116,
      "standing": 4117,
      "Ġstrugg": 4118,
      "Ġbenef": 4119,
      "Ġmentioned": 4120,
      "Ġdifficult": 4121,
      "Ġfierce": 4122,
      "Most": 4123,
      "ky": 4124,
      "rey": 4125,
      "Ġfun": 4126,
      "Ġhabit": 4127,
      "Ġthin": 4128,
      "Ġrend": 4129,
      "quis": 4130,
      "ĠBar": 4131,
      "ĠBiddy": 4132,
      "ĠWarwick": 4133,
      "Ġexceed": 4134,
      "Ġsple": 4135,
      "Ġuneas": 4136,
      "Ġrate": 4137,
      "Ġworks": 4138,
      "igned": 4139,
      "Because": 4140,
      "Ġassured": 4141,
      "Ġsteal": 4142,
      "Ġreflect": 4143,
      "Ġproperty": 4144,
      "helor": 4145,
      "Ġperfectly": 4146,
      "Ġcandle": 4147,
      "lord": 4148,
      "ouds": 4149,
      "Ġfla": 4150,
      "Ġmyster": 4151,
      "ourse": 4152,
      "ĠMont": 4153,
      "Ġvol": 4154,
      "Ġconn": 4155,
      "urned": 4156,
      "atherine": 4157,
      "Ġsworn": 4158,
      "Ġboys": 4159,
      "Ġdirection": 4160,
      "Ġwoods": 4161,
      "umblechook": 4162,
      "Ġsociety": 4163,
      "Con": 4164,
      "iently": 4165,
      "mar": 4166,
      "ny": 4167,
      "Ġton": 4168,
      "Ġtask": 4169,
      "ervant": 4170,
      "Ġlament": 4171,
      "asc": 4172,
      "otha": 4173,
      "utus": 4174,
      "rop": 4175,
      "Ġsore": 4176,
      "Ġant": 4177,
      "ĠFelton": 4178,
      "Ġkey": 4179,
      "Ġimpat": 4180,
      "Ġtravell": 4181,
      "Ġmounted": 4182,
      "Ġgirls": 4183,
      "Ġhanging": 4184,
      "Ġanxious": 4185,
      "Ġentirely": 4186,
      "RI": 4187,
      "mind": 4188,
      "Ġerr": 4189,
      "Ġmot": 4190,
      "Ġfury": 4191,
      "Ġceas": 4192,
      "arse": 4193,
      "Ġnarrow": 4194,
      "rio": 4195,
      "aming": 4196,
      "arther": 4197,
      "Ġfarew": 4198,
      "Ġunhappy": 4199,
      "Ġcler": 4200,
      "ables": 4201,
      "ancha": 4202,
      "Ġruin": 4203,
      "Ġsupposed": 4204,
      "Ġforest": 4205,
      "Ġextra": 4206,
      "Ġbirds": 4207,
      "Ġquietly": 4208,
      "Ġweeping": 4209,
      "Ġdivine": 4210,
      "Ġwisdom": 4211,
      "Ġmelancholy": 4212,
      "ĠMusketeers": 4213,
      "hapter": 4214,
      "Ġfarewell": 4215,
      "AP": 4216,
      "EL": 4217,
      "Never": 4218,
      "tle": 4219,
      "Ġcott": 4220,
      "ustri": 4221,
      "ĠWh": 4222,
      "because": 4223,
      "Ġdesper": 4224,
      "Ġtraitor": 4225,
      "feel": 4226,
      "Ġbuy": 4227,
      "Ġburied": 4228,
      "Ġinside": 4229,
      "Ġbarber": 4230,
      "THER": 4231,
      "Ġyesterday": 4232,
      "Ġfifty": 4233,
      "ĠMinerva": 4234,
      "Ġinfluence": 4235,
      "Must": 4236,
      "itors": 4237,
      "Ġpress": 4238,
      "atures": 4239,
      "athered": 4240,
      "chie": 4241,
      "rap": 4242,
      "Ġsacri": 4243,
      "theless": 4244,
      "ĠCass": 4245,
      "Ġsprang": 4246,
      "aud": 4247,
      "Ġotherwise": 4248,
      "Ġbrain": 4249,
      "ĠKitty": 4250,
      "Ġwarrant": 4251,
      "Ġpersons": 4252,
      "change": 4253,
      "Ġfoolish": 4254,
      "Ġbuild": 4255,
      "Ġsafety": 4256,
      "Ġwings": 4257,
      "ounce": 4258,
      "Ġmil": 4259,
      "erry": 4260,
      "enger": 4261,
      "Ġcries": 4262,
      "Ġcurious": 4263,
      "Ġpin": 4264,
      "Ġthrust": 4265,
      "Ġseized": 4266,
      "Ġshed": 4267,
      "Ġknee": 4268,
      "ĠLou": 4269,
      "ĠFrom": 4270,
      "Ġbegged": 4271,
      "Ġraise": 4272,
      "Ġsmell": 4273,
      "Ġgrass": 4274,
      "ception": 4275,
      "Ġframe": 4276,
      "work": 4277,
      "Ġgovernment": 4278,
      "Ġfinished": 4279,
      "Ġthrown": 4280,
      "Ġnigger": 4281,
      "Ġpieces": 4282,
      "Ġeternal": 4283,
      "Ch": 4284,
      "Chapter": 4285,
      "EM": 4286,
      "Le": 4287,
      "oqu": 4288,
      "uation": 4289,
      "Ġtempt": 4290,
      "rence": 4291,
      "Ġba": 4292,
      "ona": 4293,
      "esy": 4294,
      "Ġpains": 4295,
      "Ġpowers": 4296,
      "ĠII": 4297,
      "ĠInd": 4298,
      "Ġthunder": 4299,
      "iments": 4300,
      "rose": 4301,
      "Ġkitchen": 4302,
      "ĠHelen": 4303,
      "onel": 4304,
      "Ġshade": 4305,
      "ĠTur": 4306,
      "ĠGloucester": 4307,
      "Ġblows": 4308,
      "Ġprec": 4309,
      "Ġwatched": 4310,
      "Ġcoat": 4311,
      "Ġfearful": 4312,
      "Ġplayed": 4313,
      "Ġsisters": 4314,
      "Ġdrown": 4315,
      "Ġpalace": 4316,
      "COND": 4317,
      "Bet": 4318,
      "bar": 4319,
      "bout": 4320,
      "sper": 4321,
      "ithe": 4322,
      "Ġdying": 4323,
      "Ġinvent": 4324,
      "Ġwithd": 4325,
      "selmo": 4326,
      "ĠPet": 4327,
      "ends": 4328,
      "Ġunknown": 4329,
      "Ġbride": 4330,
      "Ġgloom": 4331,
      "Ġspeaks": 4332,
      "Ġslain": 4333,
      "conf": 4334,
      "Ġadvanced": 4335,
      "Ġcouple": 4336,
      "lot": 4337,
      "oices": 4338,
      "ule": 4339,
      "Ġsides": 4340,
      "itable": 4341,
      "Ġcave": 4342,
      "ased": 4343,
      "urd": 4344,
      "icious": 4345,
      "Ġaloud": 4346,
      "Ġclouds": 4347,
      "Ġwants": 4348,
      "Ġaddress": 4349,
      "Ġsigns": 4350,
      "Ġvalour": 4351,
      "Ġbird": 4352,
      "Ġhurried": 4353,
      "Ġcounter": 4354,
      "Ġquarrel": 4355,
      "Ġborne": 4356,
      "Ġprobably": 4357,
      "othario": 4358,
      "20": 4359,
      "iable": 4360,
      "kin": 4361,
      "vol": 4362,
      "Ġorig": 4363,
      "Ġmajesty": 4364,
      "ital": 4365,
      "Ġlower": 4366,
      "aying": 4367,
      "Ġreasons": 4368,
      "thou": 4369,
      "ĠGree": 4370,
      "ĠEvery": 4371,
      "Ġdrive": 4372,
      "Ġacquaintance": 4373,
      "Ġcompanions": 4374,
      "Ġpicture": 4375,
      "Ġinnocent": 4376,
      "SECOND": 4377,
      "Ġempty": 4378,
      "Per": 4379,
      "ault": 4380,
      "mis": 4381,
      "nor": 4382,
      "Ġwars": 4383,
      "Ġmiles": 4384,
      "Ġbark": 4385,
      "Ġcup": 4386,
      "Ġcunning": 4387,
      "rodu": 4388,
      "Ġconqu": 4389,
      "Ġamb": 4390,
      "agger": 4391,
      "Ġspare": 4392,
      "Ġroof": 4393,
      "ĠFair": 4394,
      "Ġgrown": 4395,
      "Ġsooner": 4396,
      "Ġfellows": 4397,
      "Ġtreasure": 4398,
      "Ġquestions": 4399,
      "ernando": 4400,
      "Ġdrove": 4401,
      "Ġeffort": 4402,
      "Ġwounds": 4403,
      "Ġembrace": 4404,
      "Ġofficer": 4405,
      "Ġobliged": 4406,
      "Ġmisfortune": 4407,
      "eli": 4408,
      "mble": 4409,
      "rain": 4410,
      "saw": 4411,
      "went": 4412,
      "Ġtired": 4413,
      "Ġmile": 4414,
      "ision": 4415,
      "Ġfears": 4416,
      "lling": 4417,
      "Ġdaughters": 4418,
      "Ġstretched": 4419,
      "rob": 4420,
      "Ġdecl": 4421,
      "Ġdebt": 4422,
      "ulf": 4423,
      "ounded": 4424,
      "Ġkeen": 4425,
      "Into": 4426,
      "Ġcommunic": 4427,
      "Ġcurt": 4428,
      "INE": 4429,
      "ĠUn": 4430,
      "Ġmatters": 4431,
      "Ġinstantly": 4432,
      "Ġcrossed": 4433,
      "Out": 4434,
      "aves": 4435,
      "book": 4436,
      "col": 4437,
      "oned": 4438,
      "Ġdig": 4439,
      "Ġlatter": 4440,
      "Ġnice": 4441,
      "ching": 4442,
      "Ġwash": 4443,
      "quet": 4444,
      "elle": 4445,
      "Ġours": 4446,
      "forth": 4447,
      "Ġwrit": 4448,
      "Ġwrath": 4449,
      "Ġpurse": 4450,
      "Ġamongst": 4451,
      "Ġwalking": 4452,
      "Ġplainly": 4453,
      "ĠBrit": 4454,
      "ĠAntony": 4455,
      "Alas": 4456,
      "Ġparticularly": 4457,
      "Ġrapid": 4458,
      "Ġbachelor": 4459,
      "Ġsacrif": 4460,
      "away": 4461,
      "took": 4462,
      "wixt": 4463,
      "Ġice": 4464,
      "inst": 4465,
      "Ġbab": 4466,
      "itary": 4467,
      "Ġfrequ": 4468,
      "owards": 4469,
      "racted": 4470,
      "uses": 4471,
      "Ġdozen": 4472,
      "oses": 4473,
      "force": 4474,
      "Ġperiod": 4475,
      "Ġflower": 4476,
      "Ġtravel": 4477,
      "fortunate": 4478,
      "Ġgallant": 4479,
      "ibility": 4480,
      "Ġdamsel": 4481,
      "Ġedge": 4482,
      "Ġdeparture": 4483,
      "Ġprepared": 4484,
      "AL": 4485,
      "door": 4486,
      "knight": 4487,
      "put": 4488,
      "Ġtort": 4489,
      "isure": 4490,
      "itiz": 4491,
      "Ġhit": 4492,
      "lead": 4493,
      "Ġformed": 4494,
      "Ġrevere": 4495,
      "ĠHigh": 4496,
      "Ġknife": 4497,
      "Ġshare": 4498,
      "ĠPross": 4499,
      "Ġresult": 4500,
      "Ġguilt": 4501,
      "Ġpresented": 4502,
      "Ġcurse": 4503,
      "supp": 4504,
      "myself": 4505,
      "Ġhumble": 4506,
      "Ġremembered": 4507,
      "Ġslept": 4508,
      "Ġexecution": 4509,
      "ĠWilliam": 4510,
      "ĠFortune": 4511,
      "iner": 4512,
      "Ġwol": 4513,
      "Ġmix": 4514,
      "Ġbill": 4515,
      "isc": 4516,
      "Ġgen": 4517,
      "Ġstairs": 4518,
      "Ġseason": 4519,
      "those": 4520,
      "ĠMay": 4521,
      "Ġshot": 4522,
      "ĠDor": 4523,
      "ĠLong": 4524,
      "istress": 4525,
      "olt": 4526,
      "Ġproved": 4527,
      "Ġraft": 4528,
      "Ġserious": 4529,
      "Ġapparent": 4530,
      "Ġobserve": 4531,
      "eyes": 4532,
      "Ġestate": 4533,
      "Ġacquainted": 4534,
      "Ġdifference": 4535,
      "Ġdelay": 4536,
      "Ġstudy": 4537,
      "Ġconceal": 4538,
      "Ġsighs": 4539,
      "Ġsymp": 4540,
      "Ġtonight": 4541,
      "IS": 4542,
      "Pl": 4543,
      "eous": 4544,
      "oft": 4545,
      "pur": 4546,
      "Ġmild": 4547,
      "Ġfarther": 4548,
      "Ġcop": 4549,
      "Ġdoom": 4550,
      "Ġvoices": 4551,
      "icles": 4552,
      "Ġrace": 4553,
      "Ġwriting": 4554,
      "Ġprepar": 4555,
      "feit": 4556,
      "Ġbringing": 4557,
      "Ġfrown": 4558,
      "Ġforehead": 4559,
      "mony": 4560,
      "ORD": 4561,
      "looked": 4562,
      "Ġordered": 4563,
      "Ġsmooth": 4564,
      "Ġlifted": 4565,
      "counter": 4566,
      "Doth": 4567,
      "iance": 4568,
      "rink": 4569,
      "yre": 4570,
      "Ġaught": 4571,
      "Ġsour": 4572,
      "Ġpick": 4573,
      "ruction": 4574,
      "ics": 4575,
      "ateful": 4576,
      "ĠPumblechook": 4577,
      "arewell": 4578,
      "acc": 4579,
      "cial": 4580,
      "Ġemp": 4581,
      "Ġrecoll": 4582,
      "Ġfools": 4583,
      "Ġjudgment": 4584,
      "Ġuttered": 4585,
      "livered": 4586,
      "CESTER": 4587,
      "Ġhunger": 4588,
      "sha": 4589,
      "rehen": 4590,
      "Ġmass": 4591,
      "Ġbast": 4592,
      "ism": 4593,
      "Ġhorn": 4594,
      "Ġposition": 4595,
      "Ġniece": 4596,
      "Ġstair": 4597,
      "Ġhers": 4598,
      "ĠSee": 4599,
      "ĠLu": 4600,
      "Ġquality": 4601,
      "belie": 4602,
      "ĠOur": 4603,
      "Ġminds": 4604,
      "Ġholds": 4605,
      "Ġtrif": 4606,
      "Ġsleeping": 4607,
      "Ġwithal": 4608,
      "Ġespecially": 4609,
      "Ġimagine": 4610,
      "Ġidle": 4611,
      "Ã¨le": 4612,
      "ĠPlanchet": 4613,
      "Ġexactly": 4614,
      "15": 4615,
      "ED": 4616,
      "gra": 4617,
      "iction": 4618,
      "Ġtail": 4619,
      "Ġwits": 4620,
      "Ġbull": 4621,
      "erves": 4622,
      "Ġder": 4623,
      "Ġpause": 4624,
      "ashed": 4625,
      "Ġgame": 4626,
      "Ġseal": 4627,
      "Ġsav": 4628,
      "using": 4629,
      "ushing": 4630,
      "Ġships": 4631,
      "ĠBesides": 4632,
      "ĠTob": 4633,
      "ĠPal": 4634,
      "Ġworn": 4635,
      "urning": 4636,
      "Ġagreed": 4637,
      "Ġfeared": 4638,
      "Ġprint": 4639,
      "Ġdiscover": 4640,
      "Ġpossessed": 4641,
      "Ġmountains": 4642,
      "Ġnurse": 4643,
      "Ġwidow": 4644,
      "Ġsuspicion": 4645,
      "ae": 4646,
      "ea": 4647,
      "ole": 4648,
      "Ġing": 4649,
      "Ġsand": 4650,
      "Ġfish": 4651,
      "Ġhouses": 4652,
      "Ġpill": 4653,
      "anish": 4654,
      "Ġyonder": 4655,
      "stri": 4656,
      "rove": 4657,
      "arton": 4658,
      "Ġlear": 4659,
      "Ġleisure": 4660,
      "Ġgreatly": 4661,
      "Ġimper": 4662,
      "olle": 4663,
      "Ġbetray": 4664,
      "Ġflame": 4665,
      "Ġattent": 4666,
      "Ġbrothers": 4667,
      "Ġwatching": 4668,
      "between": 4669,
      "Ġparents": 4670,
      "aly": 4671,
      "love": 4672,
      "opp": 4673,
      "Ġmood": 4674,
      "Ġborrow": 4675,
      "Ġheels": 4676,
      "Ġbew": 4677,
      "ented": 4678,
      "Ġconvey": 4679,
      "ordinary": 4680,
      "Ġfeed": 4681,
      "ountain": 4682,
      "Ġswell": 4683,
      "upid": 4684,
      "Being": 4685,
      "Ġdistress": 4686,
      "Ġtriumph": 4687,
      "Ġpossession": 4688,
      "Ġmeeting": 4689,
      "Ġaccompl": 4690,
      "Ġlimbs": 4691,
      "Ġpursued": 4692,
      "something": 4693,
      "ĠManette": 4694,
      "Ġremembrance": 4695,
      "Ġstyle": 4696,
      "ĠToboso": 4697,
      "Both": 4698,
      "bes": 4699,
      "cr": 4700,
      "cer": 4701,
      "maid": 4702,
      "phe": 4703,
      "pret": 4704,
      "Ġtied": 4705,
      "Ġowe": 4706,
      "Ġmill": 4707,
      "Ġlac": 4708,
      "Ġren": 4709,
      "Ġstern": 4710,
      "illy": 4711,
      "ĠMancha": 4712,
      "Ġjest": 4713,
      "Those": 4714,
      "acity": 4715,
      "Ġdesign": 4716,
      "lease": 4717,
      "Ġserv": 4718,
      "Ġattack": 4719,
      "Ġaddressed": 4720,
      "Ġpoints": 4721,
      "ĠSpain": 4722,
      "Ġdifficulty": 4723,
      "ervantes": 4724,
      "uced": 4725,
      "inite": 4726,
      "Ġwretch": 4727,
      "reason": 4728,
      "Ġcell": 4729,
      "Ġcook": 4730,
      "Ġlater": 4731,
      "Ġpage": 4732,
      "Ġnaked": 4733,
      "Ġgun": 4734,
      "roach": 4735,
      "Ġsees": 4736,
      "pey": 4737,
      "ĠWinter": 4738,
      "ĠRoman": 4739,
      "fulness": 4740,
      "ĠNever": 4741,
      "Ġremains": 4742,
      "Ġnights": 4743,
      "Ġturns": 4744,
      "Ġyounger": 4745,
      "Ġsupport": 4746,
      "ĠThus": 4747,
      "Ġfamiliar": 4748,
      "uriosity": 4749,
      "apple": 4750,
      "Ġcrowns": 4751,
      "Ġmurm": 4752,
      "Ġpapers": 4753,
      "ĠBrutus": 4754,
      "Ġadventures": 4755,
      "ithee": 4756,
      "BU": 4757,
      "IT": 4758,
      "ium": 4759,
      "vest": 4760,
      "Ġaunt": 4761,
      "Ġwra": 4762,
      "Ġod": 4763,
      "itated": 4764,
      "ora": 4765,
      "Ġcher": 4766,
      "Ġpier": 4767,
      "Ġpisto": 4768,
      "three": 4769,
      "Ġlend": 4770,
      "Through": 4771,
      "Ġassure": 4772,
      "Ġrecord": 4773,
      "Ġfalling": 4774,
      "Ġplays": 4775,
      "Ġopening": 4776,
      "Ġswords": 4777,
      "Ġapproached": 4778,
      "Ġexperience": 4779,
      "uzz": 4780,
      "Ġfiend": 4781,
      "don": 4782,
      "either": 4783,
      "rs": 4784,
      "same": 4785,
      "Ġbag": 4786,
      "Ġcrying": 4787,
      "ese": 4788,
      "Ġyellow": 4789,
      "Ġsole": 4790,
      "Ġsaved": 4791,
      "Ġsacred": 4792,
      "Ġshirt": 4793,
      "eless": 4794,
      "elope": 4795,
      "ĠPocket": 4796,
      "aret": 4797,
      "Ġlikewise": 4798,
      "beaut": 4799,
      "Ġwherein": 4800,
      "Ġperil": 4801,
      "Ġdesired": 4802,
      "Ġwaters": 4803,
      "Ġhappen": 4804,
      "Ġwinds": 4805,
      "shire": 4806,
      "Ġdiscourse": 4807,
      "chant": 4808,
      "arnay": 4809,
      "ĠAnselmo": 4810,
      "Ġcourtesy": 4811,
      "Ġprinces": 4812,
      "Ġforgotten": 4813,
      "uliar": 4814,
      "ICHARD": 4815,
      "Qu": 4816,
      "aul": 4817,
      "culiar": 4818,
      "want": 4819,
      "Ġmaint": 4820,
      "itz": 4821,
      "Ġpainted": 4822,
      "omin": 4823,
      "imate": 4824,
      "Ġstuff": 4825,
      "Ġstretch": 4826,
      "Ġstorm": 4827,
      "key": 4828,
      "ilos": 4829,
      "ĠHam": 4830,
      "Ġwilling": 4831,
      "ically": 4832,
      "Ġspark": 4833,
      "Ġado": 4834,
      "Ġbox": 4835,
      "Ġsuffered": 4836,
      "Ġdirected": 4837,
      "Ġlaws": 4838,
      "Ġfaults": 4839,
      "Ġlaughing": 4840,
      "Ġavoid": 4841,
      "Ġhigher": 4842,
      "Des": 4843,
      "pes": 4844,
      "enelope": 4845,
      "Ġhollow": 4846,
      "ĠIV": 4847,
      "Ġgathered": 4848,
      "ldom": 4849,
      "Ġreve": 4850,
      "Ġvow": 4851,
      "hant": 4852,
      "empl": 4853,
      "ĠJuli": 4854,
      "Whom": 4855,
      "Ġplot": 4856,
      "Ġplant": 4857,
      "Ġrule": 4858,
      "Ġmischief": 4859,
      "Ġmadame": 4860,
      "Ġlistening": 4861,
      "Ġdefend": 4862,
      "Ġpatient": 4863,
      "ĠAnton": 4864,
      "Ġproceeded": 4865,
      "Ġauthority": 4866,
      "better": 4867,
      "GL": 4868,
      "lance": 4869,
      "sur": 4870,
      "spe": 4871,
      "Ġer": 4872,
      "Ġtent": 4873,
      "Ġgather": 4874,
      "still": 4875,
      "child": 4876,
      "Ġwept": 4877,
      "Ġknave": 4878,
      "Ġlovers": 4879,
      "Ġabroad": 4880,
      "ĠGive": 4881,
      "aches": 4882,
      "Ġfever": 4883,
      "Ġspect": 4884,
      "Ġtrump": 4885,
      "Ġrude": 4886,
      "Ġgrasp": 4887,
      "Ġasking": 4888,
      "ĠStreet": 4889,
      "Ġsteel": 4890,
      "Ġconvinced": 4891,
      "ND": 4892,
      "fax": 4893,
      "mond": 4894,
      "Ġwont": 4895,
      "Ġpace": 4896,
      "Ġrejo": 4897,
      "ĠFernando": 4898,
      "ĠRICHARD": 4899,
      "Ġarmy": 4900,
      "Ġwax": 4901,
      "Ġnative": 4902,
      "Ġsecure": 4903,
      "Ġcrime": 4904,
      "Ġworked": 4905,
      "Ġfalls": 4906,
      "hamber": 4907,
      "Ġstead": 4908,
      "Ġdisposition": 4909,
      "Hold": 4910,
      "Lord": 4911,
      "char": 4912,
      "iver": 4913,
      "uce": 4914,
      "wood": 4915,
      "half": 4916,
      "Ġmag": 4917,
      "Ġbought": 4918,
      "Ġlit": 4919,
      "Ġlamp": 4920,
      "cean": 4921,
      "Ġweap": 4922,
      "urally": 4923,
      "things": 4924,
      "ĠMars": 4925,
      "ĠLothario": 4926,
      "ists": 4927,
      "Ġrushed": 4928,
      "Ġpeas": 4929,
      "Without": 4930,
      "Ġrooms": 4931,
      "Ġmonster": 4932,
      "Ġvex": 4933,
      "appear": 4934,
      "break": 4935,
      "Speak": 4936,
      "once": 4937,
      "anied": 4938,
      "ctions": 4939,
      "Ġleap": 4940,
      "Ġlov": 4941,
      "Ġcomr": 4942,
      "Ġrans": 4943,
      "Ġqual": 4944,
      "Ġpron": 4945,
      "berg": 4946,
      "ĠQu": 4947,
      "Ġcalls": 4948,
      "young": 4949,
      "comfort": 4950,
      "Ġkeeps": 4951,
      "Ġmasters": 4952,
      "Ġdistant": 4953,
      "ĠVen": 4954,
      "Ġaware": 4955,
      "Ġdepth": 4956,
      "Ġrequired": 4957,
      "Ġkissed": 4958,
      "Ġdreams": 4959,
      "Ġresolution": 4960,
      "Ġinquir": 4961,
      "Ġwedding": 4962,
      "Ġcredit": 4963,
      "Ġexistence": 4964,
      "Ulysses": 4965,
      "brought": 4966,
      "bury": 4967,
      "cus": 4968,
      "cond": 4969,
      "ev": 4970,
      "having": 4971,
      "haca": 4972,
      "Ġfreed": 4973,
      "onseigneur": 4974,
      "Ġcere": 4975,
      "arl": 4976,
      "step": 4977,
      "alt": 4978,
      "Ġvoy": 4979,
      "ortion": 4980,
      "earing": 4981,
      "Ġdisapp": 4982,
      "Ġimage": 4983,
      "Ġbeggar": 4984,
      "Ġentrance": 4985,
      "Ġrust": 4986,
      "Ġprey": 4987,
      "Ġreturning": 4988,
      "Ġfriendship": 4989,
      "Ġexpressed": 4990,
      "Ġcharm": 4991,
      "Ġsounds": 4992,
      "Ġmaids": 4993,
      "Ġmaiden": 4994,
      "Ġjoined": 4995,
      "Ġmidst": 4996,
      "Ġwhisper": 4997,
      "Ġintelligence": 4998,
      "OP": 4999,
      "Sp": 5000,
      "pond": 5001,
      "ym": 5002,
      "Ġachie": 5003,
      "cknow": 5004,
      "usc": 5005,
      "ĠShall": 5006,
      "nton": 5007,
      "ĠTro": 5008,
      "ĠCan": 5009,
      "Ġblank": 5010,
      "Ġfeatures": 5011,
      "Ġchain": 5012,
      "Ġdeserve": 5013,
      "Ġended": 5014,
      "Ġcommend": 5015,
      "Ġfully": 5016,
      "Ġsteep": 5017,
      "AND": 5018,
      "Ġawake": 5019,
      "Ġtongues": 5020,
      "minence": 5021,
      "Ġangel": 5022,
      "UR": 5023,
      "aith": 5024,
      "dain": 5025,
      "jud": 5026,
      "ĠZ": 5027,
      "Ġtest": 5028,
      "Ġtaught": 5029,
      "ref": 5030,
      "Ġbuck": 5031,
      "Ġthither": 5032,
      "rived": 5033,
      "order": 5034,
      "ĠCy": 5035,
      "Ġarrest": 5036,
      "ĠJust": 5037,
      "Ġsmiling": 5038,
      "Ġretired": 5039,
      "Ġmistake": 5040,
      "Ġfaithful": 5041,
      "Ġadvance": 5042,
      "Ġunderstanding": 5043,
      "Ġesteem": 5044,
      "OUCESTER": 5045,
      "Ġrelief": 5046,
      "Ere": 5047,
      "afe": 5048,
      "too": 5049,
      "Ġmult": 5050,
      "Ġinward": 5051,
      "Ġrender": 5052,
      "ads": 5053,
      "Ġweather": 5054,
      "Ġstout": 5055,
      "urance": 5056,
      "Ġdelivered": 5057,
      "Ġvig": 5058,
      "Ġwholly": 5059,
      "ĠCatherine": 5060,
      "olog": 5061,
      "ĠFl": 5062,
      "Ġgreatness": 5063,
      "Ġclock": 5064,
      "Ġdesires": 5065,
      "erent": 5066,
      "Ġbelief": 5067,
      "Ġaddition": 5068,
      "Ġsentence": 5069,
      "Ġlandlord": 5070,
      "Ġstraw": 5071,
      "Ġcircle": 5072,
      "Ġcreatures": 5073,
      "ĠAdÃ¨le": 5074,
      "Ġmourn": 5075,
      "CUS": 5076,
      "Ind": 5077,
      "UI": 5078,
      "foot": 5079,
      "hind": 5080,
      "mitted": 5081,
      "overy": 5082,
      "pent": 5083,
      "sy": 5084,
      "tra": 5085,
      "Ġwet": 5086,
      "Ġmars": 5087,
      "orough": 5088,
      "Ġthirst": 5089,
      "Ġyard": 5090,
      "idently": 5091,
      "Ġforty": 5092,
      "Ġyourselves": 5093,
      "Ġwheel": 5094,
      "ĠHouse": 5095,
      "emple": 5096,
      "Ġquoth": 5097,
      "Ġencour": 5098,
      "ĠEury": 5099,
      "Ġmayst": 5100,
      "Ġbrown": 5101,
      "Ġobsc": 5102,
      "coming": 5103,
      "Ġmerit": 5104,
      "Ġgrowing": 5105,
      "hands": 5106,
      "Ġmodest": 5107,
      "ĠLucie": 5108,
      "Ġviolent": 5109,
      "Ġmalice": 5110,
      "Ġforbid": 5111,
      "Ġdesperate": 5112,
      "Ed": 5113,
      "IST": 5114,
      "Under": 5115,
      "five": 5116,
      "oon": 5117,
      "poss": 5118,
      "tt": 5119,
      "zed": 5120,
      "Ġacknow": 5121,
      "Ġsimp": 5122,
      "Ġtoil": 5123,
      "Ġgross": 5124,
      "Ġdeem": 5125,
      "alley": 5126,
      "osen": 5127,
      "ĠCarton": 5128,
      "Ġcompe": 5129,
      "Ġwhenever": 5130,
      "ĠPy": 5131,
      "Ġfaire": 5132,
      "olonel": 5133,
      "Ġcloth": 5134,
      "Ġflood": 5135,
      "Ġparted": 5136,
      "Ġrepent": 5137,
      "Ġsetting": 5138,
      "Ġguest": 5139,
      "Ġdistinct": 5140,
      "Ġmoving": 5141,
      "Ġworking": 5142,
      "suff": 5143,
      "Ġtrick": 5144,
      "Ġsurround": 5145,
      "Ġcaused": 5146,
      "Ġdeeply": 5147,
      "Ġinterrupt": 5148,
      "Ġexample": 5149,
      "Ġofficers": 5150,
      "Ġpulled": 5151,
      "satisf": 5152,
      "Ġsympath": 5153,
      "Ad": 5154,
      "fect": 5155,
      "luck": 5156,
      "table": 5157,
      "yer": 5158,
      "Ġarose": 5159,
      "Ġwing": 5160,
      "reck": 5161,
      "Ġmat": 5162,
      "Ġtow": 5163,
      "Ġnay": 5164,
      "Ġforgive": 5165,
      "Ġwaste": 5166,
      "Ġaspect": 5167,
      "rier": 5168,
      "ĠAh": 5169,
      "thee": 5170,
      "emb": 5171,
      "ĠTake": 5172,
      "Ġlofty": 5173,
      "ĠCon": 5174,
      "ĠLove": 5175,
      "ĠGard": 5176,
      "Ġscar": 5177,
      "Ġswall": 5178,
      "Ġtrain": 5179,
      "Within": 5180,
      "Ġkindly": 5181,
      "Ġfollows": 5182,
      "Ġbestow": 5183,
      "Ġlively": 5184,
      "Ġminister": 5185,
      "Ġvision": 5186,
      "atson": 5187,
      "runcher": 5188,
      "chair": 5189,
      "Ġprofound": 5190,
      "Ġfields": 5191,
      "Ġthirty": 5192,
      "Ġfatal": 5193,
      "Ġtransl": 5194,
      "Ġdescribed": 5195,
      "Ġevents": 5196,
      "Ġinformation": 5197,
      "viour": 5198,
      "Ġcompassion": 5199,
      "Ġsplend": 5200,
      "GLOUCESTER": 5201,
      "called": 5202,
      "iate": 5203,
      "life": 5204,
      "tr": 5205,
      "Ġvers": 5206,
      "âĢĵ": 5207,
      "Ġcure": 5208,
      "Ġhol": 5209,
      "Ġconj": 5210,
      "emois": 5211,
      "ician": 5212,
      "Ġthinks": 5213,
      "Ġcontempt": 5214,
      "cles": 5215,
      "ometimes": 5216,
      "Ġintrodu": 5217,
      "Ġlights": 5218,
      "Ġpurcha": 5219,
      "ifferent": 5220,
      "Ġpointed": 5221,
      "Ġwrongs": 5222,
      "Unto": 5223,
      "Ġcircumstance": 5224,
      "Ġenvy": 5225,
      "Ġdisgrace": 5226,
      "seemed": 5227,
      "emoiselle": 5228,
      "AG": 5229,
      "Monsieur": 5230,
      "Milady": 5231,
      "fam": 5232,
      "follow": 5233,
      "present": 5234,
      "water": 5235,
      "yard": 5236,
      "Ġtide": 5237,
      "enough": 5238,
      "Ġhind": 5239,
      "Ġpear": 5240,
      "Ġpressed": 5241,
      "aning": 5242,
      "omen": 5243,
      "omach": 5244,
      "Ġgown": 5245,
      "lection": 5246,
      "Ġreward": 5247,
      "illes": 5248,
      "geon": 5249,
      "Ġdoctor": 5250,
      "ĠBl": 5251,
      "ĠDapple": 5252,
      "ĠDarnay": 5253,
      "ĠPenelope": 5254,
      "Ġspl": 5255,
      "Ġpeculiar": 5256,
      "Ġobed": 5257,
      "Ġsurely": 5258,
      "ĠAnge": 5259,
      "Ġfreely": 5260,
      "Ġcorre": 5261,
      "Ġhurry": 5262,
      "against": 5263,
      "Ġgaze": 5264,
      "ĠNorth": 5265,
      "Ġapartment": 5266,
      "opsle": 5267,
      "expected": 5268,
      "Ġdignity": 5269,
      "Nothing": 5270,
      "TER": 5271,
      "bow": 5272,
      "vation": 5273,
      "inc": 5274,
      "Ġwhilst": 5275,
      "Ġgodd": 5276,
      "Ġhandkerchief": 5277,
      "ĠFran": 5278,
      "ĠRos": 5279,
      "Ġprompt": 5280,
      "Still": 5281,
      "Ġmarked": 5282,
      "ointment": 5283,
      "Ġconsiderable": 5284,
      "Ġhoped": 5285,
      "Ġsalt": 5286,
      "Ġimportance": 5287,
      "Ġaccompany": 5288,
      "Ġconsequence": 5289,
      "natural": 5290,
      "ĠFairfax": 5291,
      "18": 5292,
      "Te": 5293,
      "Ġtread": 5294,
      "ina": 5295,
      "Ġwert": 5296,
      "Ġcitiz": 5297,
      "ashing": 5298,
      "ashes": 5299,
      "always": 5300,
      "Ġsell": 5301,
      "essie": 5302,
      "ĠSund": 5303,
      "ĠHector": 5304,
      "inda": 5305,
      "ĠDiana": 5306,
      "ĠCardinal": 5307,
      "ĠCervantes": 5308,
      "ĠCruncher": 5309,
      "ĠRue": 5310,
      "Ġremind": 5311,
      "Ġhonor": 5312,
      "Ġcarrying": 5313,
      "Ġafford": 5314,
      "Ġchest": 5315,
      "Ġhighly": 5316,
      "Ġtreacher": 5317,
      "Ġhorror": 5318,
      "prise": 5319,
      "Ġpriest": 5320,
      "Ġforeign": 5321,
      "Ġescap": 5322,
      "worthy": 5323,
      "ĠBefore": 5324,
      "Ġarrival": 5325,
      "Ġburden": 5326,
      "Ġkneel": 5327,
      "ronic": 5328,
      "Ġreckoned": 5329,
      "Ġsuggest": 5330,
      "ĠAntonio": 5331,
      "Sweet": 5332,
      "lished": 5333,
      "net": 5334,
      "po": 5335,
      "ped": 5336,
      "sl": 5337,
      "twas": 5338,
      "itive": 5339,
      "Ġfought": 5340,
      "Ġling": 5341,
      "atign": 5342,
      "Ġthief": 5343,
      "Ġgained": 5344,
      "Ġstoop": 5345,
      "Ġseldom": 5346,
      "Ġdearest": 5347,
      "Ġliv": 5348,
      "Ġvir": 5349,
      "Ġvast": 5350,
      "Ġrash": 5351,
      "Ġjump": 5352,
      "Ġard": 5353,
      "Ġencounter": 5354,
      "ĠEven": 5355,
      "Ġresumed": 5356,
      "Ġcommitted": 5357,
      "Ġwanting": 5358,
      "Ġboast": 5359,
      "Stand": 5360,
      "Ġvalue": 5361,
      "Ġveil": 5362,
      "Ġconstant": 5363,
      "ustomed": 5364,
      "Ġpractice": 5365,
      "Ġpolit": 5366,
      "Ġadmiration": 5367,
      "Ġelder": 5368,
      "Ġsufficient": 5369,
      "Each": 5370,
      "Love": 5371,
      "Pray": 5372,
      "RESS": 5373,
      "find": 5374,
      "fold": 5375,
      "Ġsen": 5376,
      "Ġsaint": 5377,
      "Ġbount": 5378,
      "oring": 5379,
      "Ġcuriosity": 5380,
      "asy": 5381,
      "atrice": 5382,
      "Ġgle": 5383,
      "Ġgent": 5384,
      "Ġascend": 5385,
      "Ġnoticed": 5386,
      "herself": 5387,
      "antic": 5388,
      "ĠAthen": 5389,
      "told": 5390,
      "Ġamid": 5391,
      "Ġknowed": 5392,
      "ĠEminence": 5393,
      "hips": 5394,
      "ranged": 5395,
      "Ġcomprehend": 5396,
      "soci": 5397,
      "Ġemperor": 5398,
      "Ġdisturb": 5399,
      "Ġstrain": 5400,
      "ĠYes": 5401,
      "ĠAnother": 5402,
      "Ġgreet": 5403,
      "Ġprofession": 5404,
      "Ġnecessity": 5405,
      "Ġevidence": 5406,
      "Ġremarked": 5407,
      "Ġenchanted": 5408,
      "Ġtrembling": 5409,
      "Ġsubstance": 5410,
      "cir": 5411,
      "fing": 5412,
      "gone": 5413,
      "leness": 5414,
      "ns": 5415,
      "Ġwave": 5416,
      "Ġbon": 5417,
      "Ġfain": 5418,
      "edro": 5419,
      "Ġcord": 5420,
      "Ġhuge": 5421,
      "Ġlam": 5422,
      "aries": 5423,
      "Ġpil": 5424,
      "asions": 5425,
      "urbed": 5426,
      "ilar": 5427,
      "ĠSat": 5428,
      "Ġshoes": 5429,
      "eping": 5430,
      "umes": 5431,
      "Ġremedy": 5432,
      "Ġaccident": 5433,
      "anything": 5434,
      "Ġsuffering": 5435,
      "Ġdriven": 5436,
      "Ġcomfortable": 5437,
      "Ġestab": 5438,
      "Ġsensible": 5439,
      "iamond": 5440,
      "Ġdirectly": 5441,
      "horse": 5442,
      "Ġcombat": 5443,
      "ĠGeorge": 5444,
      "othea": 5445,
      "ISTRESS": 5446,
      "MISTRESS": 5447,
      "done": 5448,
      "Ġtim": 5449,
      "ornton": 5450,
      "Ġchat": 5451,
      "Ġcli": 5452,
      "Ġtomb": 5453,
      "arily": 5454,
      "Ġinsp": 5455,
      "Ġbefall": 5456,
      "sey": 5457,
      "arded": 5458,
      "ĠHave": 5459,
      "ĠAND": 5460,
      "ĠTemple": 5461,
      "Ġlocked": 5462,
      "ĠWatson": 5463,
      "Ġexerc": 5464,
      "Ġgoodly": 5465,
      "Ġrope": 5466,
      "Ġdispl": 5467,
      "ĠReed": 5468,
      "Ġflow": 5469,
      "Ġrepresent": 5470,
      "Ġglorious": 5471,
      "Ġsmiled": 5472,
      "Ġattended": 5473,
      "ivid": 5474,
      "Ġregret": 5475,
      "Ġdecided": 5476,
      "Ġclearly": 5477,
      "Ġsituation": 5478,
      "however": 5479,
      "Ġbanished": 5480,
      "Ġengage": 5481,
      "Ġcomplex": 5482,
      "Ġexplain": 5483,
      "Ġpersuade": 5484,
      "lotte": 5485,
      "Ġgoddess": 5486,
      "Two": 5487,
      "ais": 5488,
      "bbed": 5489,
      "eg": 5490,
      "ground": 5491,
      "lter": 5492,
      "lady": 5493,
      "mother": 5494,
      "upp": 5495,
      "vous": 5496,
      "orse": 5497,
      "Ġpaint": 5498,
      "Ġham": 5499,
      "Ġrelig": 5500,
      "Ġmend": 5501,
      "Ġweeks": 5502,
      "Ġstation": 5503,
      "Ġhadn": 5504,
      "uss": 5505,
      "ĠSal": 5506,
      "ĠSam": 5507,
      "ĠAre": 5508,
      "top": 5509,
      "ulse": 5510,
      "lace": 5511,
      "Ġunfortunate": 5512,
      "Ġrush": 5513,
      "ode": 5514,
      "Ġbrings": 5515,
      "neg": 5516,
      "Ġswore": 5517,
      "ĠIthaca": 5518,
      "many": 5519,
      "Ġhousekeeper": 5520,
      "Ġsmiles": 5521,
      "Ġwaves": 5522,
      "Ġdistingu": 5523,
      "Ġmov": 5524,
      "Ġtreason": 5525,
      "Ġutmost": 5526,
      "III": 5527,
      "Ġprovided": 5528,
      "Ġvarious": 5529,
      "ĠGuards": 5530,
      "Ġoccupied": 5531,
      "Ġbodies": 5532,
      "Ġransom": 5533,
      "Ġvoyage": 5534,
      "First": 5535,
      "ded": 5536,
      "hem": 5537,
      "hearted": 5538,
      "Ġsink": 5539,
      "Ġsire": 5540,
      "Ġthrice": 5541,
      "lex": 5542,
      "Ġstomach": 5543,
      "Ġdoll": 5544,
      "Ġshock": 5545,
      "Ġshining": 5546,
      "lict": 5547,
      "Ġnearer": 5548,
      "ĠWould": 5549,
      "Ġabhor": 5550,
      "Ġrasc": 5551,
      "Ġarch": 5552,
      "acious": 5553,
      "Ġdisgu": 5554,
      "Ġfeather": 5555,
      "Ġdaylight": 5556,
      "Ġreputation": 5557,
      "Ġplague": 5558,
      "Ġretire": 5559,
      "Ġmarch": 5560,
      "Ġgiant": 5561,
      "Ġguess": 5562,
      "Ġconfusion": 5563,
      "Ġnaturally": 5564,
      "Ġsweat": 5565,
      "plex": 5566,
      "Ġbusy": 5567,
      "Ġprayer": 5568,
      "Ġawa": 5569,
      "Ġstayed": 5570,
      "Ġextrem": 5571,
      "Ġbeloved": 5572,
      "Ġtroubled": 5573,
      "Ġcorrupt": 5574,
      "world": 5575,
      "ardenio": 5576,
      "Ġdevoted": 5577,
      "board": 5578,
      "Ġtorment": 5579,
      "Ġaccompanied": 5580,
      "Ġastonishment": 5581,
      "eptune": 5582,
      "Ġproduced": 5583,
      "broke": 5584,
      "SeÃ±or": 5585,
      "Ġrenown": 5586,
      "uscinda": 5587,
      "Made": 5588,
      "Rem": 5589,
      "awn": 5590,
      "dig": 5591,
      "Ġwives": 5592,
      "hamed": 5593,
      "habit": 5594,
      "Ġfoe": 5595,
      "Ġpig": 5596,
      "Ġpipe": 5597,
      "Ġinformed": 5598,
      "Ġissu": 5599,
      "Ġupstairs": 5600,
      "Ġmanif": 5601,
      "osure": 5602,
      "ica": 5603,
      "Ġloath": 5604,
      "ĠWopsle": 5605,
      "ĠPedro": 5606,
      "Ġprosper": 5607,
      "Ġflock": 5608,
      "Ġimpression": 5609,
      "Ġcharged": 5610,
      "ogue": 5611,
      "Ġskin": 5612,
      "Ġstronger": 5613,
      "Ġawful": 5614,
      "twenty": 5615,
      "cannot": 5616,
      "Ġduenn": 5617,
      "Ġhighest": 5618,
      "Ġgifts": 5619,
      "whether": 5620,
      "gentleman": 5621,
      "utenberg": 5622,
      "ilosop": 5623,
      "Besides": 5624,
      "Lest": 5625,
      "Mine": 5626,
      "Roc": 5627,
      "cur": 5628,
      "det": 5629,
      "eep": 5630,
      "gress": 5631,
      "prom": 5632,
      "piece": 5633,
      "sent": 5634,
      "Ġmud": 5635,
      "Ġmagn": 5636,
      "iture": 5637,
      "Ġlately": 5638,
      "ids": 5639,
      "Ġdece": 5640,
      "Ġoutward": 5641,
      "Ġaband": 5642,
      "Ġride": 5643,
      "ability": 5644,
      "Ġwherefore": 5645,
      "Ġplenty": 5646,
      "Ġarmed": 5647,
      "Ġcommission": 5648,
      "Ġtrave": 5649,
      "Ġpowerful": 5650,
      "Ġmistaken": 5651,
      "Ġstrongly": 5652,
      "Ġlawful": 5653,
      "Ġcapable": 5654,
      "course": 5655,
      "Ġprincess": 5656,
      "Ġprincip": 5657,
      "Ġpunishment": 5658,
      "Ġdawn": 5659,
      "Ġventure": 5660,
      "atignolle": 5661,
      "Buck": 5662,
      "UM": 5663,
      "apt": 5664,
      "far": 5665,
      "wa": 5666,
      "Ġtight": 5667,
      "Ġwag": 5668,
      "erred": 5669,
      "Ġcrew": 5670,
      "Ġdru": 5671,
      "Ġpot": 5672,
      "ĠIng": 5673,
      "atched": 5674,
      "Ġhap": 5675,
      "stone": 5676,
      "addle": 5677,
      "Ġstat": 5678,
      "ĠAg": 5679,
      "ulate": 5680,
      "Ġmanage": 5681,
      "ĠTheir": 5682,
      "ĠEm": 5683,
      "Ġrocks": 5684,
      "Ġprocess": 5685,
      "ĠJack": 5686,
      "Ġclim": 5687,
      "Ġretreat": 5688,
      "Ġends": 5689,
      "Ġpreced": 5690,
      "Ġprefer": 5691,
      "Ġwanton": 5692,
      "Ġcheck": 5693,
      "Ġcurrent": 5694,
      "Ġoccurred": 5695,
      "Ġdrops": 5696,
      "bourn": 5697,
      "Ġgalley": 5698,
      "Ġconcealed": 5699,
      "Ġenchant": 5700,
      "Ġdaily": 5701,
      "Ġleaning": 5702,
      "Ġvanqu": 5703,
      "aeus": 5704,
      "Lo": 5705,
      "bot": 5706,
      "moment": 5707,
      "Ġacted": 5708,
      "rels": 5709,
      "Ġfountain": 5710,
      "Ġhaunt": 5711,
      "irty": 5712,
      "vert": 5713,
      "Ġassemb": 5714,
      "urity": 5715,
      "rog": 5716,
      "Ġorn": 5717,
      "oused": 5718,
      "asted": 5719,
      "Ġleague": 5720,
      "ryver": 5721,
      "Ġalter": 5722,
      "olved": 5723,
      "Ġremove": 5724,
      "Ġresist": 5725,
      "Ġbreed": 5726,
      "Ġlighted": 5727,
      "ceiv": 5728,
      "izzy": 5729,
      "Ġcareless": 5730,
      "ĠAnne": 5731,
      "Ġexcited": 5732,
      "Ġliege": 5733,
      "Ġfalsehood": 5734,
      "Ġrelations": 5735,
      "Unless": 5736,
      "Ġweakness": 5737,
      "Ġargument": 5738,
      "Ġboots": 5739,
      "Ġuneasy": 5740,
      "Eng": 5741,
      "Jane": 5742,
      "fav": 5743,
      "safe": 5744,
      "ws": 5745,
      "yet": 5746,
      "Ġwake": 5747,
      "Ġodd": 5748,
      "inging": 5749,
      "Ġdared": 5750,
      "Ġlaughter": 5751,
      "Ġthread": 5752,
      "ird": 5753,
      "Ġreign": 5754,
      "Ġmeas": 5755,
      "raced": 5756,
      "ĠSil": 5757,
      "Ġshield": 5758,
      "liest": 5759,
      "ĠHad": 5760,
      "ĠTwo": 5761,
      "laus": 5762,
      "Ġlock": 5763,
      "ĠCap": 5764,
      "ĠCastle": 5765,
      "Ġexcess": 5766,
      "ortal": 5767,
      "Ġmoreover": 5768,
      "agree": 5769,
      "Ġrot": 5770,
      "Ġsomebody": 5771,
      "ornfield": 5772,
      "Ġspecial": 5773,
      "necess": 5774,
      "Ġseeming": 5775,
      "Ġrecovered": 5776,
      "Ġcursed": 5777,
      "ival": 5778,
      "changed": 5779,
      "Ġhighness": 5780,
      "Ġsinging": 5781,
      "Ġsingular": 5782,
      "Ġawhile": 5783,
      "Ġdispleas": 5784,
      "Ġtea": 5785,
      "Ġgenerally": 5786,
      "umbers": 5787,
      "Ġsubjects": 5788,
      "Ġequally": 5789,
      "Ġshadows": 5790,
      "Ġinstrument": 5791,
      "Ġjudgement": 5792,
      "Ġimportant": 5793,
      "Ġcabin": 5794,
      "Ġabsolutely": 5795,
      "Ġceased": 5796,
      "Ġsacrifice": 5797,
      "Indeed": 5798,
      "Bl": 5799,
      "Br": 5800,
      "KE": 5801,
      "Me": 5802,
      "list": 5803,
      "morning": 5804,
      "pres": 5805,
      "sil": 5806,
      "ux": 5807,
      "wife": 5808,
      "Ġtap": 5809,
      "Ġmaj": 5810,
      "Ġdumb": 5811,
      "Ġhed": 5812,
      "Ġheap": 5813,
      "lying": 5814,
      "Ġstol": 5815,
      "people": 5816,
      "ĠSuch": 5817,
      "ĠHarry": 5818,
      "ĠDid": 5819,
      "Ġdisdain": 5820,
      "Ġchap": 5821,
      "Ġcompar": 5822,
      "Ġeveryone": 5823,
      "Ġappet": 5824,
      "compl": 5825,
      "Ġfairly": 5826,
      "licity": 5827,
      "Ġdeadly": 5828,
      "Ġsilk": 5829,
      "Ġhorrible": 5830,
      "ĠStill": 5831,
      "Ġcarefully": 5832,
      "Ġregular": 5833,
      "Ġvisage": 5834,
      "headed": 5835,
      "Ġsaddle": 5836,
      "Ġleading": 5837,
      "blood": 5838,
      "ĠAlc": 5839,
      "Ġimagination": 5840,
      "Ġmidnight": 5841,
      "Ġpersuaded": 5842,
      "Ġconclusion": 5843,
      "Ġunfold": 5844,
      "Ġsucceeded": 5845,
      "ĠLouis": 5846,
      "Ġsavage": 5847,
      "Ġfreedom": 5848,
      "ĠGardiner": 5849,
      "AB": 5850,
      "Could": 5851,
      "GER": 5852,
      "King": 5853,
      "cies": 5854,
      "daughter": 5855,
      "gon": 5856,
      "ias": 5857,
      "mark": 5858,
      "posed": 5859,
      "yes": 5860,
      "Ġmant": 5861,
      "Ġfed": 5862,
      "Ġfil": 5863,
      "Ġfulf": 5864,
      "Ġdat": 5865,
      "Ġloo": 5866,
      "anch": 5867,
      "Ġhaz": 5868,
      "Ġgently": 5869,
      "left": 5870,
      "ether": 5871,
      "Ġreven": 5872,
      "Ġrealm": 5873,
      "Ġrecomm": 5874,
      "Ġstain": 5875,
      "Ġsack": 5876,
      "Ġshoot": 5877,
      "Ġloyal": 5878,
      "Ġfailed": 5879,
      "olation": 5880,
      "Ġshouldst": 5881,
      "ĠEn": 5882,
      "acles": 5883,
      "Ġbrains": 5884,
      "Ġclasp": 5885,
      "ĠNay": 5886,
      "Ġtrun": 5887,
      "Ġcontempl": 5888,
      "Ġbreaking": 5889,
      "Ġfinds": 5890,
      "Ġshowing": 5891,
      "Ġdischar": 5892,
      "Ġlaying": 5893,
      "Ġplaying": 5894,
      "Ġprize": 5895,
      "Ġclosely": 5896,
      "velop": 5897,
      "uries": 5898,
      "ĠRomeo": 5899,
      "Ġeleg": 5900,
      "ĠClaud": 5901,
      "Ġbehaviour": 5902,
      "Ġjewel": 5903,
      "Ġstaircase": 5904,
      "Just": 5905,
      "Meth": 5906,
      "Poor": 5907,
      "best": 5908,
      "cast": 5909,
      "doubt": 5910,
      "ris": 5911,
      "vre": 5912,
      "Ã´": 5913,
      "Ġwrought": 5914,
      "Ġoak": 5915,
      "Ġbla": 5916,
      "arger": 5917,
      "ann": 5918,
      "Ġwast": 5919,
      "advent": 5920,
      "Ġashamed": 5921,
      "Ġdeceived": 5922,
      "Ġsubt": 5923,
      "usted": 5924,
      "Ġaltogether": 5925,
      "Ġoffend": 5926,
      "ĠOld": 5927,
      "Ġsche": 5928,
      "Ġlightning": 5929,
      "Ġmoments": 5930,
      "Ġrefuse": 5931,
      "ANUS": 5932,
      "Ġbreathe": 5933,
      "Ġdefence": 5934,
      "themselves": 5935,
      "worth": 5936,
      "ĠSpanish": 5937,
      "Ġthrone": 5938,
      "Ġprivile": 5939,
      "Ġbeaten": 5940,
      "Ġanxiety": 5941,
      "Ġagreeable": 5942,
      "Ġadopt": 5943,
      "ĠSunday": 5944,
      "ived": 5945,
      "ino": 5946,
      "Ġbree": 5947,
      "Ġcart": 5948,
      "Ġlun": 5949,
      "omp": 5950,
      "uts": 5951,
      "idge": 5952,
      "Ġrenew": 5953,
      "Ġwhip": 5954,
      "riot": 5955,
      "Ġstage": 5956,
      "ĠMore": 5957,
      "ĠSh": 5958,
      "liber": 5959,
      "ols": 5960,
      "Ġarrange": 5961,
      "Ġroll": 5962,
      "Ġbrook": 5963,
      "Ġfriendly": 5964,
      "Ġimpr": 5965,
      "Ġchin": 5966,
      "Ġchim": 5967,
      "Ġconscious": 5968,
      "soon": 5969,
      "Ġinfinite": 5970,
      "phin": 5971,
      "Ġrequire": 5972,
      "Ġroads": 5973,
      "Ġhanged": 5974,
      "Ġslaught": 5975,
      "strong": 5976,
      "Ġoaths": 5977,
      "Ġneighbourhood": 5978,
      "Ġblessing": 5979,
      "ĠMusketeer": 5980,
      "Ġdeclare": 5981,
      "Ġextraordinary": 5982,
      "ĠDorothea": 5983,
      "10": 5984,
      "Athos": 5985,
      "chamber": 5986,
      "dys": 5987,
      "rown": 5988,
      "ront": 5989,
      "wit": 5990,
      "walk": 5991,
      "Ã§": 5992,
      "erous": 5993,
      "Ġdiamond": 5994,
      "Ġlance": 5995,
      "Ġlap": 5996,
      "Ġhes": 5997,
      "Ġpor": 5998,
      "Ġpos": 5999,
      "Ġpop": 6000,
      "atory": 6001,
      "ĠMart": 6002,
      "roup": 6003,
      "Ġload": 6004,
      "ĠColonel": 6005,
      "elcome": 6006,
      "Ġsomeone": 6007,
      "Think": 6008,
      "high": 6009,
      "Ġchast": 6010,
      "Ġtells": 6011,
      "Ġglo": 6012,
      "Ġcontro": 6013,
      "Ġchosen": 6014,
      "ĠKate": 6015,
      "ĠKnight": 6016,
      "days": 6017,
      "Ġshortly": 6018,
      "Ġdisposed": 6019,
      "Ġinsult": 6020,
      "Ġgrows": 6021,
      "Ġrelated": 6022,
      "zeal": 6023,
      "Another": 6024,
      "strous": 6025,
      "everything": 6026,
      "Ġvictory": 6027,
      "Ġprepare": 6028,
      "Ġendeavour": 6029,
      "Ġjealousy": 6030,
      "ĠScot": 6031,
      "Pr": 6032,
      "RE": 6033,
      "boy": 6034,
      "del": 6035,
      "pen": 6036,
      "twere": 6037,
      "via": 6038,
      "zing": 6039,
      "Ġtorn": 6040,
      "Ġalike": 6041,
      "Ġsland": 6042,
      "rer": 6043,
      "Ġocean": 6044,
      "Ġfoes": 6045,
      "Ġflies": 6046,
      "Ġdrank": 6047,
      "Ġnaught": 6048,
      "athed": 6049,
      "chilles": 6050,
      "Ġeating": 6051,
      "ourt": 6052,
      "Ġsevere": 6053,
      "rah": 6054,
      "Ġshine": 6055,
      "Ġshop": 6056,
      "Ġliber": 6057,
      "ĠWhile": 6058,
      "Ġfav": 6059,
      "Ġuns": 6060,
      "Ġseeking": 6061,
      "ĠJew": 6062,
      "ĠRoom": 6063,
      "ertes": 6064,
      "Ġwhereof": 6065,
      "ĠĠĠ": 6066,
      "Ġbegins": 6067,
      "Ġintended": 6068,
      "Ġpursue": 6069,
      "izing": 6070,
      "Ġsummon": 6071,
      "Ġesc": 6072,
      "Ġflying": 6073,
      "Ġportion": 6074,
      "Ġpunish": 6075,
      "Ġviolence": 6076,
      "Ġmessenger": 6077,
      "Ġhidden": 6078,
      "rimaud": 6079,
      "Ġgratitude": 6080,
      "Tom": 6081,
      "Very": 6082,
      "garet": 6083,
      "ipped": 6084,
      "near": 6085,
      "poor": 6086,
      "rather": 6087,
      "ww": 6088,
      "Ġerror": 6089,
      "Ġsway": 6090,
      "ishes": 6091,
      "ators": 6092,
      "Ġecho": 6093,
      "idings": 6094,
      "Ġnotes": 6095,
      "herlock": 6096,
      "rock": 6097,
      "Ġhadst": 6098,
      "usual": 6099,
      "ĠHal": 6100,
      "emned": 6101,
      "ico": 6102,
      "Ġlevel": 6103,
      "agues": 6104,
      "Ġspy": 6105,
      "Ġunb": 6106,
      "assed": 6107,
      "Ġdiscl": 6108,
      "Ġadvers": 6109,
      "Ġrepose": 6110,
      "Ġtroop": 6111,
      "Ġcoast": 6112,
      "Ġreader": 6113,
      "Ġfortunate": 6114,
      "Ġlands": 6115,
      "Ġstrict": 6116,
      "therefore": 6117,
      "Ġgenerous": 6118,
      "Ġcirc": 6119,
      "Ġabsent": 6120,
      "Ġtranqu": 6121,
      "Ġtransp": 6122,
      "Ġsorrows": 6123,
      "Ġmodesty": 6124,
      "Ġvictim": 6125,
      "Ġflew": 6126,
      "Ġastonished": 6127,
      "Ġcease": 6128,
      "Ġdeclared": 6129,
      "Ġbecomes": 6130,
      "Ġmurderer": 6131,
      "Ġcomplexion": 6132,
      "17": 6133,
      "DY": 6134,
      "Dis": 6135,
      "Yea": 6136,
      "care": 6137,
      "liness": 6138,
      "matter": 6139,
      "ov": 6140,
      "olic": 6141,
      "vious": 6142,
      "reci": 6143,
      "itate": 6144,
      "Ġhoney": 6145,
      "Ġlift": 6146,
      "Ġnation": 6147,
      "Ġgay": 6148,
      "Ġuseless": 6149,
      "rick": 6150,
      "urg": 6151,
      "Ġate": 6152,
      "alls": 6153,
      "Ġvows": 6154,
      "ĠBessie": 6155,
      "Ġamuse": 6156,
      "iege": 6157,
      "ĠPe": 6158,
      "oling": 6159,
      "Ġjoint": 6160,
      "Ġquitted": 6161,
      "Ġener": 6162,
      "Ġprospect": 6163,
      "ĠFirst": 6164,
      "Ġdisappeared": 6165,
      "ĠJudge": 6166,
      "Ġpermission": 6167,
      "onsense": 6168,
      "Ġparting": 6169,
      "Ġnorth": 6170,
      "aution": 6171,
      "Ġcrim": 6172,
      "servant": 6173,
      "Ġexped": 6174,
      "ĠStryver": 6175,
      "Ġcharity": 6176,
      "Ġhelped": 6177,
      "Ġinsol": 6178,
      "Ġprisoners": 6179,
      "Ġdrinking": 6180,
      "bbing": 6181,
      "Ġprotest": 6182,
      "Ġbottle": 6183,
      "Ġpitch": 6184,
      "Ġcheerful": 6185,
      "Ġapproaching": 6186,
      "given": 6187,
      "appearance": 6188,
      "DEM": 6189,
      "Farewell": 6190,
      "gener": 6191,
      "hour": 6192,
      "htt": 6193,
      "knew": 6194,
      "post": 6195,
      "inate": 6196,
      "hast": 6197,
      "Ġming": 6198,
      "Ġfer": 6199,
      "Ġfurious": 6200,
      "Ġcla": 6201,
      "Ġpour": 6202,
      "atic": 6203,
      "leave": 6204,
      "Ġweigh": 6205,
      "Ġkins": 6206,
      "Ġshrew": 6207,
      "Ġupper": 6208,
      "Ġlip": 6209,
      "Ġconven": 6210,
      "ĠPom": 6211,
      "ĠLuscinda": 6212,
      "Ġabund": 6213,
      "ĠEx": 6214,
      "Ġdiss": 6215,
      "Ġchall": 6216,
      "Ġowner": 6217,
      "ĠNeptune": 6218,
      "ailing": 6219,
      "Ġhastened": 6220,
      "Ġhonours": 6221,
      "Ġprice": 6222,
      "Ġindign": 6223,
      "Ġvirtues": 6224,
      "Ġprofess": 6225,
      "Ġstole": 6226,
      "Ġfighting": 6227,
      "Ġcloister": 6228,
      "Ġbeasts": 6229,
      "gypt": 6230,
      "Ġrecognised": 6231,
      "Ġdelicate": 6232,
      "husband": 6233,
      "Ġambition": 6234,
      "elix": 6235,
      "ĠLongbourn": 6236,
      "Ġsympathy": 6237,
      "Away": 6238,
      "BER": 6239,
      "Great": 6240,
      "GAR": 6241,
      "equ": 6242,
      "felt": 6243,
      "lour": 6244,
      "line": 6245,
      "vy": 6246,
      "Ġzeal": 6247,
      "itus": 6248,
      "Ġfem": 6249,
      "Ġdies": 6250,
      "Ġhint": 6251,
      "Ġprud": 6252,
      "Ġpuzz": 6253,
      "Ġgest": 6254,
      "Ġforsw": 6255,
      "Ġnotion": 6256,
      "albot": 6257,
      "rab": 6258,
      "thus": 6259,
      "ighted": 6260,
      "ĠMill": 6261,
      "quite": 6262,
      "Ġvice": 6263,
      "Ġvouch": 6264,
      "pper": 6265,
      "ĠBo": 6266,
      "icer": 6267,
      "ĠWest": 6268,
      "Ġamiable": 6269,
      "ĠPha": 6270,
      "ighed": 6271,
      "Ġagony": 6272,
      "Ġtrade": 6273,
      "Ġgrim": 6274,
      "ensive": 6275,
      "common": 6276,
      "Ġwaist": 6277,
      "Ġpresents": 6278,
      "Ġinstinct": 6279,
      "ENGER": 6280,
      "Ġtremble": 6281,
      "Ġoccasions": 6282,
      "lets": 6283,
      "Ġpersonal": 6284,
      "Ġabsurd": 6285,
      "grat": 6286,
      "Ġburnt": 6287,
      "Ġfrost": 6288,
      "Ġprevented": 6289,
      "Ġproclaim": 6290,
      "Ġamazed": 6291,
      "ESSENGER": 6292,
      "Ġrendered": 6293,
      "Ġtorture": 6294,
      "Ġwolf": 6295,
      "CLE": 6296,
      "pse": 6297,
      "outer": 6298,
      "Ġthorough": 6299,
      "Ġug": 6300,
      "irl": 6301,
      "keys": 6302,
      "rod": 6303,
      "Ġseest": 6304,
      "ĠMAR": 6305,
      "Ġsage": 6306,
      "Ġshone": 6307,
      "Ġneat": 6308,
      "icated": 6309,
      "ĠCardenio": 6310,
      "ĠEarl": 6311,
      "ĠRatignolle": 6312,
      "ĠNew": 6313,
      "aida": 6314,
      "Ġobst": 6315,
      "whom": 6316,
      "white": 6317,
      "ĠThornton": 6318,
      "sub": 6319,
      "Ġmadman": 6320,
      "ictor": 6321,
      "Ġreasonable": 6322,
      "Wherein": 6323,
      "Ġjudged": 6324,
      "ĠRoche": 6325,
      "ĠBeatrice": 6326,
      "ĠMargaret": 6327,
      "Ġsafely": 6328,
      "Ġrepeat": 6329,
      "Ġexamined": 6330,
      "Ġprotect": 6331,
      "ĠLucas": 6332,
      "Ġmovement": 6333,
      "Ġevidently": 6334,
      "conscious": 6335,
      "Ġwander": 6336,
      "Ġhungry": 6337,
      "giving": 6338,
      "Ġsuperior": 6339,
      "ENTLE": 6340,
      "Ġobtain": 6341,
      "Ġmystery": 6342,
      "Ġmilk": 6343,
      "Ġconquer": 6344,
      "Ġvirgin": 6345,
      "Ġappetite": 6346,
      "Every": 6347,
      "Whe": 6348,
      "YRA": 6349,
      "bits": 6350,
      "name": 6351,
      "rated": 6352,
      "wear": 6353,
      "Ġtal": 6354,
      "Ġay": 6355,
      "Ġsank": 6356,
      "reen": 6357,
      "Ġox": 6358,
      "Ġbred": 6359,
      "eries": 6360,
      "Ġpaces": 6361,
      "omas": 6362,
      "ĠSYRA": 6363,
      "estor": 6364,
      "Ġvalley": 6365,
      "Ġtherein": 6366,
      "umaeus": 6367,
      "Ġrode": 6368,
      "Ġbrand": 6369,
      "Ġprithee": 6370,
      "behind": 6371,
      "abs": 6372,
      "Ġwhereon": 6373,
      "Ġperpet": 6374,
      "Ġflo": 6375,
      "Ġharsh": 6376,
      "withstanding": 6377,
      "Ġhole": 6378,
      "Ġwarning": 6379,
      "enelaus": 6380,
      "aws": 6381,
      "Ġdiscovery": 6382,
      "Ġhelmet": 6383,
      "ivity": 6384,
      "willing": 6385,
      "Ġcontinue": 6386,
      "grim": 6387,
      "Ġideas": 6388,
      "Ġfinish": 6389,
      "Ġdelighted": 6390,
      "Ġfigures": 6391,
      "Ġthrowing": 6392,
      "passed": 6393,
      "Ġwandering": 6394,
      "Ġdismiss": 6395,
      "Ġfifteen": 6396,
      "Ġslipped": 6397,
      "Ġfleet": 6398,
      "Ġbehalf": 6399,
      "Ġbecoming": 6400,
      "Ġcottage": 6401,
      "CUSE": 6402,
      "Ġverses": 6403,
      "https": 6404,
      "GARET": 6405,
      "ĠSYRACUSE": 6406,
      "DES": 6407,
      "John": 6408,
      "covered": 6409,
      "dark": 6410,
      "gover": 6411,
      "iqu": 6412,
      "oked": 6413,
      "Ã¦": 6414,
      "Ãª": 6415,
      "Ġapt": 6416,
      "Ġsize": 6417,
      "Ġmule": 6418,
      "oraida": 6419,
      "Ġcock": 6420,
      "Ġpicked": 6421,
      "oms": 6422,
      "Ġwhore": 6423,
      "Ġstaff": 6424,
      "illing": 6425,
      "among": 6426,
      "Ġsust": 6427,
      "ĠMonseigneur": 6428,
      "quiet": 6429,
      "ĠHall": 6430,
      "respect": 6431,
      "Ġnephe": 6432,
      "rung": 6433,
      "Ġshaking": 6434,
      "icle": 6435,
      "ĠTy": 6436,
      "olate": 6437,
      "ishop": 6438,
      "Ġplun": 6439,
      "Ġflung": 6440,
      "Ġswine": 6441,
      "Ġhousehold": 6442,
      "orship": 6443,
      "Ġchose": 6444,
      "Ġgrad": 6445,
      "Ġappointed": 6446,
      "Ġapprehen": 6447,
      "Ġtrace": 6448,
      "Ġrecover": 6449,
      "mbers": 6450,
      "Ġinterval": 6451,
      "Ġwonderful": 6452,
      "Ġdrift": 6453,
      "Ġdestruction": 6454,
      "Ġinteresting": 6455,
      "court": 6456,
      "Ġpenet": 6457,
      "Ġmeantime": 6458,
      "contin": 6459,
      "Ġprincely": 6460,
      "Ġignorance": 6461,
      "Ġtreated": 6462,
      "Madame": 6463,
      "LADY": 6464,
      "question": 6465,
      "Ġfolded": 6466,
      "Ġfancied": 6467,
      "Ġstruggle": 6468,
      "ĠHighness": 6469,
      "Ġlearning": 6470,
      "ĠMARGARET": 6471,
      "ENTLEMAN": 6472,
      "COR": 6473,
      "bell": 6474,
      "fire": 6475,
      "lin": 6476,
      "mad": 6477,
      "mod": 6478,
      "oli": 6479,
      "pic": 6480,
      "sus": 6481,
      "tel": 6482,
      "ucted": 6483,
      "Ġmorrow": 6484,
      "Ġfan": 6485,
      "omer": 6486,
      "staff": 6487,
      "Ġeag": 6488,
      "verty": 6489,
      "Ġmeal": 6490,
      "onely": 6491,
      "ĠTalbot": 6492,
      "ĠPage": 6493,
      "Ġrad": 6494,
      "ĠEl": 6495,
      "Ġroot": 6496,
      "account": 6497,
      "Ġbrass": 6498,
      "Ġpoverty": 6499,
      "Ġswim": 6500,
      "Ġcontents": 6501,
      "Ġserpent": 6502,
      "entlemen": 6503,
      "cius": 6504,
      "Ġaccustomed": 6505,
      "Ġhonesty": 6506,
      "Ġgrateful": 6507,
      "plain": 6508,
      "Ġmarble": 6509,
      "Ġbestowed": 6510,
      "Ġdearly": 6511,
      "ĠThree": 6512,
      "Ġcareful": 6513,
      "Ġfourth": 6514,
      "Ġreflection": 6515,
      "Ġcares": 6516,
      "Ã±a": 6517,
      "gging": 6518,
      "Ġheavily": 6519,
      "Only": 6520,
      "Ġsorts": 6521,
      "Ġsoftly": 6522,
      "twixt": 6523,
      "ĠDeath": 6524,
      "ĠMademoiselle": 6525,
      "Ġregarded": 6526,
      "ATRA": 6527,
      "Ġgarments": 6528,
      "ĠProject": 6529,
      "Ġmessage": 6530,
      "Ġemployed": 6531,
      "Ġknocked": 6532,
      "Ġannoy": 6533,
      "Ġphilosop": 6534,
      "Ġmethinks": 6535,
      "ĠBritain": 6536,
      "Ġbaby": 6537,
      "Ġbastard": 6538,
      "OPATRA": 6539,
      "Ġcorrect": 6540,
      "agreeable": 6541,
      "CLEOPATRA": 6542,
      "uit": 6543,
      "Ġrou": 6544,
      "Ġwoes": 6545,
      "Ġtoler": 6546,
      "Ġlan": 6547,
      "Ġincon": 6548,
      "sever": 6549,
      "ander": 6550,
      "ĠAp": 6551,
      "Ġfare": 6552,
      "Ġbliss": 6553,
      "Ġmaybe": 6554,
      "udden": 6555,
      "Ġovercome": 6556,
      "Ġpled": 6557,
      "retion": 6558,
      "Ġflat": 6559,
      "mean": 6560,
      "Ġwomb": 6561,
      "comes": 6562,
      "jected": 6563,
      "Ġpurp": 6564,
      "teous": 6565,
      "Ġsteam": 6566,
      "Ġreflected": 6567,
      "Ġmonstrous": 6568,
      "Ġeaten": 6569,
      "Ġquarters": 6570,
      "consider": 6571,
      "Ġurged": 6572,
      "Ġfiery": 6573,
      "Ġfrightened": 6574,
      "ROM": 6575,
      "Ġobeyed": 6576,
      "ĠTellson": 6577,
      "Ġphr": 6578,
      "Madam": 6579,
      "Ġdishonour": 6580,
      "Ġjewels": 6581,
      "Ġmoral": 6582,
      "Ġfeeble": 6583,
      "APTER": 6584,
      "ustrious": 6585,
      "Ġoriginal": 6586,
      "Ġachieve": 6587,
      "ĠAthens": 6588,
      "ĠIngram": 6589,
      "Ġsubtle": 6590,
      "Marry": 6591,
      "RU": 6592,
      "claim": 6593,
      "four": 6594,
      "ping": 6595,
      "sign": 6596,
      "since": 6597,
      "talk": 6598,
      "Ġtidings": 6599,
      "Ġsan": 6600,
      "Ġsits": 6601,
      "Ġmast": 6602,
      "Ġbind": 6603,
      "erving": 6604,
      "Ġdar": 6605,
      "Ġdame": 6606,
      "Ġdrum": 6607,
      "Ġinher": 6608,
      "Ġstamp": 6609,
      "Ġsoil": 6610,
      "resa": 6611,
      "Ġknot": 6612,
      "Ġvague": 6613,
      "aging": 6614,
      "umn": 6615,
      "Ġhanded": 6616,
      "Ġprover": 6617,
      "Three": 6618,
      "ĠRod": 6619,
      "Ġheartily": 6620,
      "perhaps": 6621,
      "Ġraising": 6622,
      "Ġentering": 6623,
      "Ġhearth": 6624,
      "Ġinstance": 6625,
      "Ġheavenly": 6626,
      "ĠThornfield": 6627,
      "prot": 6628,
      "Ġpossibly": 6629,
      "ials": 6630,
      "CHAPTER": 6631,
      "Ġsatisfy": 6632,
      "Ġprofit": 6633,
      "uffolk": 6634,
      "Ġmouths": 6635,
      "Ġbanish": 6636,
      "Ġbanks": 6637,
      "Ġinjury": 6638,
      "ANTI": 6639,
      "Ġstroke": 6640,
      "Ġdescended": 6641,
      "eanwhile": 6642,
      "ĠCassio": 6643,
      "Between": 6644,
      "Ġservices": 6645,
      "Ġqualities": 6646,
      "ĠSamson": 6647,
      "Ġugly": 6648,
      "ETH": 6649,
      "Long": 6650,
      "MESSENGER": 6651,
      "bu": 6652,
      "dem": 6653,
      "gave": 6654,
      "vance": 6655,
      "word": 6656,
      "Ġtumb": 6657,
      "inn": 6658,
      "Ġma": 6659,
      "ermin": 6660,
      "isher": 6661,
      "oral": 6662,
      "Ġdine": 6663,
      "Ġlosing": 6664,
      "asked": 6665,
      "Ġyards": 6666,
      "Ġbeating": 6667,
      "Ġmead": 6668,
      "urther": 6669,
      "andal": 6670,
      "Ġdew": 6671,
      "Ġshrie": 6672,
      "antity": 6673,
      "ĠAchilles": 6674,
      "ousand": 6675,
      "ĠTimon": 6676,
      "ĠCourt": 6677,
      "Ġalarm": 6678,
      "ago": 6679,
      "Ġunjust": 6680,
      "Ġunluck": 6681,
      "Ġarranged": 6682,
      "Ġbranc": 6683,
      "Ġclos": 6684,
      "Ġclub": 6685,
      "Ġaffli": 6686,
      "Ġsupply": 6687,
      "Ġsounded": 6688,
      "Ġtroubles": 6689,
      "Ġconsideration": 6690,
      "Ġtouching": 6691,
      "Ġbids": 6692,
      "Ġimagined": 6693,
      "Ġexplan": 6694,
      "Ġhideous": 6695,
      "Ġremarkable": 6696,
      "Ġpursuit": 6697,
      "Ġdescribe": 6698,
      "Ġslip": 6699,
      "Ġpeasant": 6700,
      "necessary": 6701,
      "olingbroke": 6702,
      "Ab": 6703,
      "HN": 6704,
      "Having": 6705,
      "LY": 6706,
      "Might": 6707,
      "OHN": 6708,
      "Porthos": 6709,
      "both": 6710,
      "home": 6711,
      "ienced": 6712,
      "mend": 6713,
      "tran": 6714,
      "ua": 6715,
      "inent": 6716,
      "Ġwest": 6717,
      "Ġbal": 6718,
      "Ġbars": 6719,
      "eral": 6720,
      "erman": 6721,
      "erning": 6722,
      "org": 6723,
      "Ġpounds": 6724,
      "Ġnamed": 6725,
      "Ġeast": 6726,
      "Ġwhither": 6727,
      "lier": 6728,
      "ĠBolingbroke": 6729,
      "ospit": 6730,
      "ĠPray": 6731,
      "Ġrang": 6732,
      "Ġperish": 6733,
      "Ġperformed": 6734,
      "Ġchaste": 6735,
      "Ġripe": 6736,
      "ĠNature": 6737,
      "Ġremorse": 6738,
      "interest": 6739,
      "tyard": 6740,
      "Ġattach": 6741,
      "Ġsometime": 6742,
      "Ġdiscern": 6743,
      "Ġindul": 6744,
      "ĠHowever": 6745,
      "Ġpainful": 6746,
      "ĠMarquis": 6747,
      "Ġdenied": 6748,
      "Ġdamned": 6749,
      "Ġduties": 6750,
      "Ġcaptive": 6751,
      "coat": 6752,
      "ĠCharlotte": 6753,
      "Ġwhispered": 6754,
      "Ġhunting": 6755,
      "Ġbenefit": 6756,
      "Edna": 6757,
      "Ġsurrounded": 6758,
      "Telemachus": 6759,
      "Ã´tel": 6760,
      "Ġimprison": 6761,
      "Call": 6762,
      "Char": 6763,
      "Either": 6764,
      "ba": 6765,
      "full": 6766,
      "ral": 6767,
      "sure": 6768,
      "Ġsled": 6769,
      "Ġbowed": 6770,
      "Ġdate": 6771,
      "Ġdancing": 6772,
      "Ġpant": 6773,
      "aned": 6774,
      "Ġgoss": 6775,
      "Ġforms": 6776,
      "Ġassoci": 6777,
      "oops": 6778,
      "already": 6779,
      "Ġanon": 6780,
      "Ġdemon": 6781,
      "Ġnobl": 6782,
      "Ġnodd": 6783,
      "Ġconvent": 6784,
      "arts": 6785,
      "astic": 6786,
      "ĠTar": 6787,
      "ĠCor": 6788,
      "ĠPis": 6789,
      "uments": 6790,
      "Ġunlike": 6791,
      "urns": 6792,
      "ĠGas": 6793,
      "ĠEgypt": 6794,
      "Ġrobe": 6795,
      "ĠJerry": 6796,
      "Ġclass": 6797,
      "Ġpermit": 6798,
      "Ġscore": 6799,
      "Ġwriter": 6800,
      "why": 6801,
      "Ġthroughout": 6802,
      "Ġassurance": 6803,
      "awd": 6804,
      "Ġrecall": 6805,
      "Ġinfam": 6806,
      "Ġwitch": 6807,
      "until": 6808,
      "Ġgrieve": 6809,
      "Ġmarks": 6810,
      "Ġobserving": 6811,
      "Ġadmire": 6812,
      "Ġladder": 6813,
      "Ġadvise": 6814,
      "Ġcrack": 6815,
      "Ġordinary": 6816,
      "Ġeleven": 6817,
      "Ġyielded": 6818,
      "Ġsolid": 6819,
      "Ġinclined": 6820,
      "business": 6821,
      "rumm": 6822,
      "Ġtempest": 6823,
      "Ġcoffee": 6824,
      "Ġgloomy": 6825,
      "ĠGreek": 6826,
      "Ġmaintain": 6827,
      "Ġcomrades": 6828,
      "Ġceremony": 6829,
      "steps": 6830,
      "ĠAngelo": 6831,
      "etherfield": 6832,
      "Ġchimney": 6833,
      "14": 6834,
      "Acc": 6835,
      "DROM": 6836,
      "Fair": 6837,
      "HAM": 6838,
      "bling": 6839,
      "cor": 6840,
      "din": 6841,
      "dest": 6842,
      "eac": 6843,
      "fell": 6844,
      "giana": 6845,
      "mine": 6846,
      "past": 6847,
      "power": 6848,
      "point": 6849,
      "saddle": 6850,
      "taken": 6851,
      "wing": 6852,
      "Ġrom": 6853,
      "Ġben": 6854,
      "Ġlin": 6855,
      "Ġlake": 6856,
      "Ġnim": 6857,
      "Ġnumbers": 6858,
      "Ġgri": 6859,
      "vet": 6860,
      "Ġresemb": 6861,
      "ading": 6862,
      "Ġashes": 6863,
      "Ġstiff": 6864,
      "ursed": 6865,
      "Ġsemb": 6866,
      "ĠSay": 6867,
      "Ġleagues": 6868,
      "Ġusur": 6869,
      "ĠEyre": 6870,
      "Ġblast": 6871,
      "Ġbrows": 6872,
      "Ġchase": 6873,
      "ranger": 6874,
      "Ġflour": 6875,
      "Ġhated": 6876,
      "Ġreproach": 6877,
      "Ġglanced": 6878,
      "Ġharbour": 6879,
      "Ġpleasing": 6880,
      "Ġtrim": 6881,
      "Ġcoarse": 6882,
      "Ġeyeb": 6883,
      "Ġdoubtless": 6884,
      "Ġanswering": 6885,
      "ĠVal": 6886,
      "Ġtriump": 6887,
      "Ġawoke": 6888,
      "Ġbuilt": 6889,
      "yourself": 6890,
      "Ġleaf": 6891,
      "Ġwooden": 6892,
      "Ġrelate": 6893,
      "Ġveins": 6894,
      "Ġfinally": 6895,
      "Ġeduc": 6896,
      "ĠTeresa": 6897,
      "Ġpictures": 6898,
      "person": 6899,
      "Ġbending": 6900,
      "Ġsuspected": 6901,
      "rilliant": 6902,
      "Ġtrumpet": 6903,
      "Ġmultitude": 6904,
      "Ġescaped": 6905,
      "DROMIO": 6906,
      "12": 6907,
      "Im": 6908,
      "IOL": 6909,
      "Ne": 6910,
      "Pe": 6911,
      "PET": 6912,
      "Shakespeare": 6913,
      "bing": 6914,
      "dog": 6915,
      "eans": 6916,
      "faced": 6917,
      "mers": 6918,
      "non": 6919,
      "pir": 6920,
      "speak": 6921,
      "view": 6922,
      "Ġtables": 6923,
      "Ġsed": 6924,
      "Ġsins": 6925,
      "Ġmart": 6926,
      "Ġded": 6927,
      "Ġhears": 6928,
      "Ġpup": 6929,
      "Ġpoured": 6930,
      "Ġpushed": 6931,
      "Ġnarr": 6932,
      "ani": 6933,
      "asing": 6934,
      "Ġinhabit": 6935,
      "omed": 6936,
      "Ġdevice": 6937,
      "lick": 6938,
      "respond": 6939,
      "Ġvac": 6940,
      "ĠBass": 6941,
      "Ġmankind": 6942,
      "ĠTower": 6943,
      "laid": 6944,
      "ĠCar": 6945,
      "Ġalt": 6946,
      "Ġalas": 6947,
      "Ġabuse": 6948,
      "Ġknowest": 6949,
      "ĠGutenberg": 6950,
      "ections": 6951,
      "ĠFelix": 6952,
      "Ġoffended": 6953,
      "Ġperplex": 6954,
      "ollo": 6955,
      "Ġpartly": 6956,
      "Ġscru": 6957,
      "lieve": 6958,
      "Ġlordship": 6959,
      "Ġnewly": 6960,
      "prison": 6961,
      "Ġneeded": 6962,
      "conversation": 6963,
      "keness": 6964,
      "Ġboar": 6965,
      "Ġrefused": 6966,
      "Ġpromises": 6967,
      "william": 6968,
      "letter": 6969,
      "Ġmarket": 6970,
      "Ġleader": 6971,
      "brother": 6972,
      "Ġfavours": 6973,
      "Ġperfection": 6974,
      "IRD": 6975,
      "Ġdressing": 6976,
      "Ġfatig": 6977,
      "ĠĠĠĠĠĠĠĠĠĠĠĠ": 6978,
      "Ġsolitary": 6979,
      "ification": 6980,
      "Ġamazement": 6981,
      "Ġmisfortunes": 6982,
      "friends": 6983,
      "Ġextremely": 6984,
      "emnon": 6985,
      "Ġaffections": 6986,
      "Ġbuilding": 6987,
      "ĠClaudio": 6988,
      "Ġbranches": 6989,
      "Master": 6990,
      "bel": 6991,
      "gent": 6992,
      "ien": 6993,
      "phan": 6994,
      "rors": 6995,
      "rained": 6996,
      "sk": 6997,
      "wed": 6998,
      "heaven": 6999,
      "inqu": 7000,
      "Ġfant": 7001,
      "enes": 7002,
      "Ġpalm": 7003,
      "ato": 7004,
      "Ġhaught": 7005,
      "owl": 7006,
      "idents": 7007,
      "Ġreleas": 7008,
      "herd": 7009,
      "almost": 7010,
      "Ġstuck": 7011,
      "amemnon": 7012,
      "Ġdeceive": 7013,
      "ĠMort": 7014,
      "ĠSometimes": 7015,
      "ĠSuffolk": 7016,
      "Ġvale": 7017,
      "icing": 7018,
      "icular": 7019,
      "Ġgoats": 7020,
      "elest": 7021,
      "Ġexert": 7022,
      "ĠLizzy": 7023,
      "unately": 7024,
      "Ġusually": 7025,
      "ĠGENTLEMAN": 7026,
      "Ġprogress": 7027,
      "irect": 7028,
      "Ġblush": 7029,
      "Ġletting": 7030,
      "ĠRo": 7031,
      "Ġperchance": 7032,
      "Ġcomposed": 7033,
      "Ġbegu": 7034,
      "Ġragged": 7035,
      "Ġrum": 7036,
      "Ġtroth": 7037,
      "Ġtrack": 7038,
      "ĠThough": 7039,
      "Ġstrangers": 7040,
      "Ġexpectation": 7041,
      "Ġcoron": 7042,
      "Ġsquare": 7043,
      "THIRD": 7044,
      "Ġdevils": 7045,
      "Ġinvited": 7046,
      "Ġsecrets": 7047,
      "guish": 7048,
      "Ġguardian": 7049,
      "Ġsettle": 7050,
      "Ġdares": 7051,
      "Ġfurnished": 7052,
      "198": 7053,
      "Ġcompletely": 7054,
      "Ġexceedingly": 7055,
      "ĠPeter": 7056,
      "Ġapparently": 7057,
      "ymph": 7058,
      "Ġexercise": 7059,
      "Ġnephew": 7060,
      "Put": 7061,
      "Read": 7062,
      "True": 7063,
      "eff": 7064,
      "fig": 7065,
      "gest": 7066,
      "lad": 7067,
      "mas": 7068,
      "pons": 7069,
      "times": 7070,
      "Ġtune": 7071,
      "hear": 7072,
      "Ġax": 7073,
      "Ġwench": 7074,
      "Ġsiege": 7075,
      "Ġmorn": 7076,
      "Ġdil": 7077,
      "ara": 7078,
      "Ġplead": 7079,
      "ange": 7080,
      "Ġbeach": 7081,
      "Ġec": 7082,
      "ourn": 7083,
      "Ġsolic": 7084,
      "ifted": 7085,
      "Ġseas": 7086,
      "Ġdeb": 7087,
      "Ġupward": 7088,
      "ulation": 7089,
      "ĠCle": 7090,
      "ĠPart": 7091,
      "ĠLORD": 7092,
      "Ġrout": 7093,
      "auphin": 7094,
      "Ġbrood": 7095,
      "atholic": 7096,
      "ounted": 7097,
      "uding": 7098,
      "Ġrepair": 7099,
      "Ġpeep": 7100,
      "whose": 7101,
      "Ġimpl": 7102,
      "Ġhonoured": 7103,
      "Ġtramp": 7104,
      "Ġrestore": 7105,
      "Ġrestless": 7106,
      "Ġkinds": 7107,
      "Ġguests": 7108,
      "Ġconfirm": 7109,
      "Ġdistressed": 7110,
      "Ġcrimes": 7111,
      "Ġregion": 7112,
      "cript": 7113,
      "Ġbreathing": 7114,
      "Ġdefect": 7115,
      "CHIO": 7116,
      "Ġsends": 7117,
      "Ġadmitted": 7118,
      "whole": 7119,
      "Ġcapital": 7120,
      "Ġobjects": 7121,
      "ĠLaertes": 7122,
      "Ġenjoyed": 7123,
      "Ġconcerning": 7124,
      "glass": 7125,
      "box": 7126,
      "Ġbelly": 7127,
      "Ġverse": 7128,
      "Ġconcluded": 7129,
      "Ġtyran": 7130,
      "sometimes": 7131,
      "ĠXX": 7132,
      "Ġrisen": 7133,
      "Ġcases": 7134,
      "Ġseparate": 7135,
      "occup": 7136,
      "Ġundertake": 7137,
      "Ġtravelling": 7138,
      "Ġmixed": 7139,
      "often": 7140,
      "ĠPalace": 7141,
      "ĠJuliet": 7142,
      "negade": 7143,
      "Ġhedge": 7144,
      "Ġtrunk": 7145,
      "CORIOL": 7146,
      "rummle": 7147,
      "CORIOLANUS": 7148,
      "CKING": 7149,
      "Once": 7150,
      "draw": 7151,
      "sister": 7152,
      "war": 7153,
      "zo": 7154,
      "Ġted": 7155,
      "Ġbru": 7156,
      "Ġcouch": 7157,
      "lle": 7158,
      "Ġdre": 7159,
      "Ġpow": 7160,
      "Ġgroup": 7161,
      "irit": 7162,
      "Ġstool": 7163,
      "aments": 7164,
      "Ġshun": 7165,
      "indeed": 7166,
      "toine": 7167,
      "ulated": 7168,
      "ĠTO": 7169,
      "Ġample": 7170,
      "Ġexcl": 7171,
      "ĠLy": 7172,
      "Ġblest": 7173,
      "ĠJOHN": 7174,
      "ĠRom": 7175,
      "Ġprim": 7176,
      "ĠOnce": 7177,
      "Whilst": 7178,
      "Ġclam": 7179,
      "Ġpolice": 7180,
      "Ġnevertheless": 7181,
      "Ġdeserves": 7182,
      "ignior": 7183,
      "ĠQUI": 7184,
      "Ġwarlike": 7185,
      "Ġfearing": 7186,
      "Ġstring": 7187,
      "Ġdragged": 7188,
      "Ġvisible": 7189,
      "Ġcondemned": 7190,
      "Ġactions": 7191,
      "Ġteacher": 7192,
      "Ġproportion": 7193,
      "Ġadmit": 7194,
      "brary": 7195,
      "Ġinvest": 7196,
      "Ġdining": 7197,
      "umberland": 7198,
      "Ġgriefs": 7199,
      "Ġcommanded": 7200,
      "Ġdamn": 7201,
      "Ġslaves": 7202,
      "Ġdismal": 7203,
      "Ġcomplain": 7204,
      "Ġdegrees": 7205,
      "Ġtyrant": 7206,
      "Ġrisk": 7207,
      "Ġaudience": 7208,
      "Ġimmortal": 7209,
      "Ġassistance": 7210,
      "ĠTurk": 7211,
      "Ġcurtain": 7212,
      "Ġpurchase": 7213,
      "Ġbounty": 7214,
      "Ġdollars": 7215,
      "Ġmagnific": 7216,
      "Ġvanquished": 7217,
      "Ġshrewd": 7218,
      "RUCHIO": 7219,
      "PETRUCHIO": 7220,
      "CKINGHAM": 7221,
      "Alice": 7222,
      "Car": 7223,
      "Mar": 7224,
      "Save": 7225,
      "Too": 7226,
      "bra": 7227,
      "cra": 7228,
      "fellow": 7229,
      "vity": 7230,
      "worship": 7231,
      "Ġess": 7232,
      "Ġbite": 7233,
      "isible": 7234,
      "Ġcattle": 7235,
      "Ġhue": 7236,
      "idora": 7237,
      "aling": 7238,
      "ama": 7239,
      "Ġanguish": 7240,
      "Ġsuck": 7241,
      "ĠMarch": 7242,
      "Ġsails": 7243,
      "ilio": 7244,
      "ulgar": 7245,
      "ĠDauphin": 7246,
      "ĠTime": 7247,
      "Ġexha": 7248,
      "Ġunkind": 7249,
      "oler": 7250,
      "oles": 7251,
      "Ġquantity": 7252,
      "Ġprodig": 7253,
      "forward": 7254,
      "neath": 7255,
      "Ġdesir": 7256,
      "Ġdeserved": 7257,
      "Ġbetwixt": 7258,
      "Ġhatred": 7259,
      "manner": 7260,
      "Ġpleasures": 7261,
      "ifference": 7262,
      "tingu": 7263,
      "Ġbeds": 7264,
      "ĠVictor": 7265,
      "Ġsunk": 7266,
      "Ġcharms": 7267,
      "Ġcharming": 7268,
      "Ġelsewhere": 7269,
      "tisidora": 7270,
      "Ġcondemn": 7271,
      "prop": 7272,
      "Ġleads": 7273,
      "Ġadmired": 7274,
      "chaeans": 7275,
      "Ġsquires": 7276,
      "Ġcreated": 7277,
      "reshold": 7278,
      "engers": 7279,
      "Ġdespite": 7280,
      "ĠOnly": 7281,
      "Ġcolours": 7282,
      "Ġexplained": 7283,
      "Ġenterprise": 7284,
      "Ġwandered": 7285,
      "Ġinclination": 7286,
      "Ġbleeding": 7287,
      "Ġfurniture": 7288,
      "Ġdemanded": 7289,
      "Ġmourning": 7290,
      "Ġridic": 7291,
      "rified": 7292,
      "Ġpistoles": 7293,
      "ĠZoraida": 7294,
      "Ġacknowled": 7295,
      "Hear": 7296,
      "mir": 7297,
      "Ġtur": 7298,
      "Ġtame": 7299,
      "Ġwip": 7300,
      "Ġoars": 7301,
      "Ġtore": 7302,
      "Ġdom": 7303,
      "Ġlonely": 7304,
      "Ġpub": 7305,
      "Ġnest": 7306,
      "atre": 7307,
      "stant": 7308,
      "irmed": 7309,
      "Ġwashed": 7310,
      "Ġstor": 7311,
      "Ġsevent": 7312,
      "thur": 7313,
      "throw": 7314,
      "ĠMen": 7315,
      "ilus": 7316,
      "ushes": 7317,
      "ĠSol": 7318,
      "Ġconvers": 7319,
      "ĠTra": 7320,
      "Ġtheirs": 7321,
      "ĠPri": 7322,
      "ĠGrimaud": 7323,
      "Ġencl": 7324,
      "ĠRich": 7325,
      "orns": 7326,
      "Ġflames": 7327,
      "Ġscr": 7328,
      "Ġpeer": 7329,
      "Ġbackward": 7330,
      "Ġsets": 7331,
      "Ġattached": 7332,
      "Ġintend": 7333,
      "Ġsirs": 7334,
      "Ġconfident": 7335,
      "shop": 7336,
      "lication": 7337,
      "Ġconditions": 7338,
      "Ġhorseback": 7339,
      "Ġgallery": 7340,
      "Ġarrive": 7341,
      "Ġdelightful": 7342,
      "errantry": 7343,
      "mediate": 7344,
      "OLUS": 7345,
      "Ġstirred": 7346,
      "Ġconvict": 7347,
      "Ġsimilar": 7348,
      "Ġprotection": 7349,
      "boat": 7350,
      "Ġslee": 7351,
      "Ġcruelty": 7352,
      "Ġneighbours": 7353,
      "Ġmirth": 7354,
      "arras": 7355,
      "pleasure": 7356,
      "Ġbasin": 7357,
      "ĠClarence": 7358,
      "Ġwondered": 7359,
      "PHOLUS": 7360,
      "Ġweapon": 7361,
      "dyssey": 7362,
      "ANTIPHOLUS": 7363,
      "CK": 7364,
      "IUS": 7365,
      "Know": 7366,
      "Somet": 7367,
      "WARD": 7368,
      "cal": 7369,
      "creat": 7370,
      "camp": 7371,
      "dep": 7372,
      "ference": 7373,
      "gn": 7374,
      "rand": 7375,
      "vill": 7376,
      "Ġouter": 7377,
      "Ġwink": 7378,
      "Ġsang": 7379,
      "reak": 7380,
      "Ġoil": 7381,
      "Ġbone": 7382,
      "itating": 7383,
      "Ġdun": 7384,
      "Ġdang": 7385,
      "Ġple": 7386,
      "Ġnonsense": 7387,
      "anio": 7388,
      "Ġink": 7389,
      "Ġthie": 7390,
      "Ġgru": 7391,
      "Ġrent": 7392,
      "Ġash": 7393,
      "ria": 7394,
      "rial": 7395,
      "alted": 7396,
      "alstaff": 7397,
      "iform": 7398,
      "Ġdeaf": 7399,
      "thousand": 7400,
      "ĠMor": 7401,
      "ĠMal": 7402,
      "ĠHoly": 7403,
      "Ġconject": 7404,
      "Ġtheme": 7405,
      "ems": 7406,
      "ording": 7407,
      "ĠCal": 7408,
      "Ġgoather": 7409,
      "ĠWas": 7410,
      "Ġexchange": 7411,
      "ĠPaul": 7412,
      "ational": 7413,
      "Ġspur": 7414,
      "Ġque": 7415,
      "udes": 7416,
      "ĠNetherfield": 7417,
      "anca": 7418,
      "ĠItaly": 7419,
      "Ġraven": 7420,
      "Ġfathers": 7421,
      "Ġendured": 7422,
      "Ġpreserve": 7423,
      "Ġgrind": 7424,
      "ension": 7425,
      "Ġrestored": 7426,
      "Ġtraces": 7427,
      "Ġdiscretion": 7428,
      "Ġpointing": 7429,
      "Ġstriking": 7430,
      "enny": 7431,
      "idding": 7432,
      "Ġfavourite": 7433,
      "Ġpaying": 7434,
      "Ġdirections": 7435,
      "country": 7436,
      "saying": 7437,
      "seeing": 7438,
      "Ġdivers": 7439,
      "Ġimpatient": 7440,
      "feeling": 7441,
      "Christ": 7442,
      "Ġreverence": 7443,
      "Ġcopy": 7444,
      "BUCKINGHAM": 7445,
      "ĠHamlet": 7446,
      "Ġmanifest": 7447,
      "Ġescort": 7448,
      "Ġlinen": 7449,
      "Cont": 7450,
      "Hast": 7451,
      "ITH": 7452,
      "Joe": 7453,
      "Keep": 7454,
      "OT": 7455,
      "OST": 7456,
      "call": 7457,
      "cold": 7458,
      "ipping": 7459,
      "making": 7460,
      "oors": 7461,
      "trou": 7462,
      "turned": 7463,
      "yr": 7464,
      "Ġvel": 7465,
      "Ġfret": 7466,
      "Ġhy": 7467,
      "armed": 7468,
      "Ġpang": 7469,
      "ases": 7470,
      "Ġhabits": 7471,
      "Ġgla": 7472,
      "leans": 7473,
      "Ġet": 7474,
      "Ġreality": 7475,
      "ills": 7476,
      "amon": 7477,
      "rage": 7478,
      "raction": 7479,
      "ĠMenelaus": 7480,
      "pel": 7481,
      "licy": 7482,
      "Ġvap": 7483,
      "ulars": 7484,
      "ĠCir": 7485,
      "Ġgover": 7486,
      "ĠWH": 7487,
      "urely": 7488,
      "Ġthanked": 7489,
      "ĠGreat": 7490,
      "ĠED": 7491,
      "ĠEumaeus": 7492,
      "Ġrolled": 7493,
      "Ġblock": 7494,
      "resses": 7495,
      "ixed": 7496,
      "began": 7497,
      "Ġwherever": 7498,
      "Ġplate": 7499,
      "Ġplans": 7500,
      "ĠNothing": 7501,
      "Ġlonged": 7502,
      "Ġlonging": 7503,
      "Ġcourtyard": 7504,
      "Ġintim": 7505,
      "Ġdisturbed": 7506,
      "Ġtraged": 7507,
      "Ġtricks": 7508,
      "Ġsurvey": 7509,
      "Ġfourteen": 7510,
      "obser": 7511,
      "ĠDoÃ±a": 7512,
      "Ġbarren": 7513,
      "understand": 7514,
      "hope": 7515,
      "lerval": 7516,
      "ĠSpitz": 7517,
      "Ġproceeding": 7518,
      "Ġfacts": 7519,
      "Ġschol": 7520,
      "Ġinquire": 7521,
      "Ġcomplaint": 7522,
      "Ġgranted": 7523,
      "Ġentertained": 7524,
      "Ġentertainment": 7525,
      "Ġhills": 7526,
      "Ġneglect": 7527,
      "Ġbeams": 7528,
      "Among": 7529,
      "Ġimpatience": 7530,
      "Ġinvention": 7531,
      "robin": 7532,
      "Ġlackey": 7533,
      "Ġpronounced": 7534,
      "Ġobedience": 7535,
      "Ġpilgrim": 7536,
      "Ã§ois": 7537,
      "Ġsanct": 7538,
      "Ġunlucky": 7539,
      "ĠGascon": 7540,
      "Ġtedious": 7541,
      "Dear": 7542,
      "Henry": 7543,
      "hur": 7544,
      "ially": 7545,
      "low": 7546,
      "lay": 7547,
      "oard": 7548,
      "wers": 7549,
      "Ġwot": 7550,
      "Ġmater": 7551,
      "Ġbury": 7552,
      "Ġfits": 7553,
      "Ġfitted": 7554,
      "Ġfires": 7555,
      "Ġfrank": 7556,
      "llen": 7557,
      "Ġpred": 7558,
      "Ġpressing": 7559,
      "Ġpomp": 7560,
      "ĠIN": 7561,
      "etch": 7562,
      "Ġreceiving": 7563,
      "Ġdeck": 7564,
      "rawn": 7565,
      "estic": 7566,
      "ĠHast": 7567,
      "Ġnearest": 7568,
      "ĠAged": 7569,
      "ĠAustri": 7570,
      "Ġvault": 7571,
      "lab": 7572,
      "Ġunivers": 7573,
      "Ġblunt": 7574,
      "Ġspear": 7575,
      "return": 7576,
      "Ġscour": 7577,
      "Ġscattered": 7578,
      "anche": 7579,
      "Ġrais": 7580,
      "Ġresc": 7581,
      "Ġimpress": 7582,
      "Ġconfused": 7583,
      "avy": 7584,
      "Ġcleared": 7585,
      "Ġforthwith": 7586,
      "Ġruns": 7587,
      "Ġextent": 7588,
      "ĠChurch": 7589,
      "Ġwondering": 7590,
      "Ġdriving": 7591,
      "Ġprovide": 7592,
      "Ġremaining": 7593,
      "Ġsufferings": 7594,
      "Ġearnestly": 7595,
      "acques": 7596,
      "Ġeldest": 7597,
      "Ġincrease": 7598,
      "Ġcentre": 7599,
      "Ġwithdrew": 7600,
      "Ġsource": 7601,
      "Ġfairest": 7602,
      "ividual": 7603,
      "Ġornament": 7604,
      "adventure": 7605,
      "ĠPompey": 7606,
      "Ġfemale": 7607,
      "ĠPhaeac": 7608,
      "arrasco": 7609,
      "13": 7610,
      "Old": 7611,
      "bited": 7612,
      "cross": 7613,
      "ipp": 7614,
      "miss": 7615,
      "money": 7616,
      "mouth": 7617,
      "sir": 7618,
      "wl": 7619,
      "Ġape": 7620,
      "Ġawe": 7621,
      "inction": 7622,
      "Ġsouth": 7623,
      "Ġsilly": 7624,
      "Ġbul": 7625,
      "enet": 7626,
      "Ġcove": 7627,
      "Ġlamb": 7628,
      "Ġnymph": 7629,
      "utor": 7630,
      "Ġrecei": 7631,
      "adv": 7632,
      "advantage": 7633,
      "Ġwhist": 7634,
      "Ġstupid": 7635,
      "Ġhero": 7636,
      "Ġdey": 7637,
      "ĠMe": 7638,
      "ĠMistress": 7639,
      "quin": 7640,
      "ĠHim": 7641,
      "Ġwillingly": 7642,
      "ruly": 7643,
      "Ġspr": 7644,
      "Ġcanoe": 7645,
      "others": 7646,
      "Ġsomewhere": 7647,
      "Ġroses": 7648,
      "Ġproject": 7649,
      "open": 7650,
      "Ġunderneath": 7651,
      "Ġputs": 7652,
      "Ġaccent": 7653,
      "Ġgets": 7654,
      "ĠThy": 7655,
      "ERV": 7656,
      "Ġdoubts": 7657,
      "Ġsubd": 7658,
      "Ġclever": 7659,
      "Ġfortnight": 7660,
      "Ġinfant": 7661,
      "Ġoccur": 7662,
      "Ġstrife": 7663,
      "Ġdispatch": 7664,
      "Ġproposed": 7665,
      "Ġyea": 7666,
      "Ġdetails": 7667,
      "Ġcraft": 7668,
      "Ġstopping": 7669,
      "Ġmodern": 7670,
      "Ġdevotion": 7671,
      "Ġsolitude": 7672,
      "Ġgarland": 7673,
      "rigue": 7674,
      "Ġleaned": 7675,
      "ydney": 7676,
      "Ġmirror": 7677,
      "Ġmissed": 7678,
      "Ġfurnish": 7679,
      "Ġaccepted": 7680,
      "199": 7681,
      "Ġceiling": 7682,
      "Ġangels": 7683,
      "ĠPhil": 7684,
      "lasting": 7685,
      "Ġanimal": 7686,
      "Ġbridge": 7687,
      "Ġconnected": 7688,
      "Ġfrequent": 7689,
      "Ġfrequently": 7690,
      "children": 7691,
      "ĠTroj": 7692,
      "Ġhazard": 7693,
      "Methinks": 7694,
      "Ġslaughter": 7695,
      "ATHER": 7696,
      "Ret": 7697,
      "UT": 7698,
      "ares": 7699,
      "sleep": 7700,
      "towards": 7701,
      "ugg": 7702,
      "whel": 7703,
      "women": 7704,
      "Ġtie": 7705,
      "inence": 7706,
      "Ġward": 7707,
      "Ġsne": 7708,
      "Ġmute": 7709,
      "Ġbust": 7710,
      "Ġbath": 7711,
      "Ġlux": 7712,
      "anna": 7713,
      "entered": 7714,
      "Ġforge": 7715,
      "alty": 7716,
      "Ġsting": 7717,
      "Ġdem": 7718,
      "Ġdevour": 7719,
      "rait": 7720,
      "ĠMer": 7721,
      "ĠMil": 7722,
      "Ġsheet": 7723,
      "quar": 7724,
      "quire": 7725,
      "resently": 7726,
      "Ġlikeness": 7727,
      "uls": 7728,
      "emper": 7729,
      "ĠDes": 7730,
      "ĠDrummle": 7731,
      "Ġlog": 7732,
      "isten": 7733,
      "uming": 7734,
      "Ġabode": 7735,
      "Ġunw": 7736,
      "Ġuncertain": 7737,
      "Ġuniform": 7738,
      "earth": 7739,
      "Ġroused": 7740,
      "Ġroar": 7741,
      "Ġblot": 7742,
      "Ġblown": 7743,
      "Ġprime": 7744,
      "Ġpolicy": 7745,
      "ĠNe": 7746,
      "returned": 7747,
      "Ġeverywhere": 7748,
      "deem": 7749,
      "death": 7750,
      "answer": 7751,
      "Ġaccess": 7752,
      "Ġattract": 7753,
      "Ġtrad": 7754,
      "soever": 7755,
      "Ġmarvel": 7756,
      "Ġrested": 7757,
      "Ġgraces": 7758,
      "Ġemer": 7759,
      "Ġhappily": 7760,
      "Ġfollowers": 7761,
      "Ġaffected": 7762,
      "Ġdiscont": 7763,
      "Ġbeauteous": 7764,
      "ucats": 7765,
      "Ġcertainty": 7766,
      "Ġkilling": 7767,
      "Ġdeparted": 7768,
      "Ġdetermin": 7769,
      "Ġpatron": 7770,
      "Ġbounds": 7771,
      "charac": 7772,
      "Ġinvisible": 7773,
      "Ġconsidering": 7774,
      "Ġdivided": 7775,
      "Ġburned": 7776,
      "Ġdestiny": 7777,
      "ĠChristians": 7778,
      "Although": 7779,
      "Ġcharacters": 7780,
      "ĠProvis": 7781,
      "Ġgazed": 7782,
      "Ġeagerly": 7783,
      "struck": 7784,
      "Ġincreased": 7785,
      "ĠCassius": 7786,
      "Ġorigin": 7787,
      "Ġgenius": 7788,
      "Ġaccomplished": 7789,
      "Ġrascal": 7790,
      "Ġscheme": 7791,
      "ĠMartius": 7792,
      "Ġeagle": 7793,
      "ĠEDWARD": 7794,
      "Many": 7795,
      "Pardon": 7796,
      "cest": 7797,
      "cite": 7798,
      "god": 7799,
      "ii": 7800,
      "large": 7801,
      "raint": 7802,
      "ta": 7803,
      "taking": 7804,
      "wild": 7805,
      "words": 7806,
      "Ġwig": 7807,
      "Ġmul": 7808,
      "Ġbud": 7809,
      "Ġbatt": 7810,
      "Ġbench": 7811,
      "Ġfile": 7812,
      "Ġtoken": 7813,
      "Ġlou": 7814,
      "Ġpite": 7815,
      "Ġnon": 7816,
      "Ġthigh": 7817,
      "sters": 7818,
      "iron": 7819,
      "rily": 7820,
      "along": 7821,
      "Ġdeliber": 7822,
      "Ġsung": 7823,
      "Ġnob": 7824,
      "ĠHar": 7825,
      "Ġconverse": 7826,
      "ĠDem": 7827,
      "ordered": 7828,
      "ĠWind": 7829,
      "reath": 7830,
      "ĠPort": 7831,
      "ĠLat": 7832,
      "Ġunexpected": 7833,
      "Ġrow": 7834,
      "Ġjoke": 7835,
      "Ġages": 7836,
      "Ġrogue": 7837,
      "Ġflint": 7838,
      "Ġglow": 7839,
      "deep": 7840,
      "Myself": 7841,
      "Ġmarvell": 7842,
      "Ġapply": 7843,
      "iano": 7844,
      "Ġrecon": 7845,
      "ĠThose": 7846,
      "Ġaddressing": 7847,
      "ĠVI": 7848,
      "ĠVer": 7849,
      "Ġexpense": 7850,
      "Ġcloset": 7851,
      "Ġactually": 7852,
      "ĠHerm": 7853,
      "Ġcrowned": 7854,
      "archive": 7855,
      "Ġembarr": 7856,
      "Ġhenceforth": 7857,
      "does": 7858,
      "Ġtemple": 7859,
      "ĠPrin": 7860,
      "Ġentreated": 7861,
      "Ġislands": 7862,
      "ĠLeon": 7863,
      "Ġcompliment": 7864,
      "ĠPercy": 7865,
      "Ġrelieve": 7866,
      "Ġdwelling": 7867,
      "carried": 7868,
      "Ġshouted": 7869,
      "window": 7870,
      "Ġfuneral": 7871,
      "Ġclerk": 7872,
      "Ġbabe": 7873,
      "Ġprecise": 7874,
      "Perhaps": 7875,
      "Ġtrifle": 7876,
      "BURY": 7877,
      "Ġarrested": 7878,
      "Ġabandoned": 7879,
      "veloped": 7880,
      "Ġthoroughly": 7881,
      "Ġsemblance": 7882,
      "Jim": 7883,
      "Much": 7884,
      "OF": 7885,
      "OW": 7886,
      "Scho": 7887,
      "black": 7888,
      "dro": 7889,
      "fin": 7890,
      "jax": 7891,
      "lim": 7892,
      "nel": 7893,
      "try": 7894,
      "tree": 7895,
      "wy": 7896,
      "Ġtext": 7897,
      "Ġaven": 7898,
      "Ġbrilliant": 7899,
      "Ġcuck": 7900,
      "Ġcards": 7901,
      "Ġtoss": 7902,
      "Ġdaring": 7903,
      "Ġthrive": 7904,
      "Ġgn": 7905,
      "ential": 7906,
      "ros": 7907,
      "ilies": 7908,
      "ilities": 7909,
      "Ġshelter": 7910,
      "ĠSw": 7911,
      "ĠSic": 7912,
      "ĠSherlock": 7913,
      "Ġnobles": 7914,
      "antime": 7915,
      "Ġknitting": 7916,
      "ĠBel": 7917,
      "ĠBank": 7918,
      "elp": 7919,
      "Ġjack": 7920,
      "orner": 7921,
      "Ġpersec": 7922,
      "Ġscream": 7923,
      "perfect": 7924,
      "Ġbegg": 7925,
      "Heaven": 7926,
      "clothes": 7927,
      "Ġimpro": 7928,
      "Ġcho": 7929,
      "Ġharness": 7930,
      "Ġattribut": 7931,
      "Ġmarrying": 7932,
      "Ġkindred": 7933,
      "Ġdistribut": 7934,
      "short": 7935,
      "Ġtrib": 7936,
      "Ġhumbly": 7937,
      "Ġinfer": 7938,
      "Ġlanded": 7939,
      "ĠAntoine": 7940,
      "Ġconducted": 7941,
      "Ġtowns": 7942,
      "eryton": 7943,
      "Ġbreaks": 7944,
      "Ġterm": 7945,
      "Ġbadly": 7946,
      "prof": 7947,
      "ORTH": 7948,
      "Ġfastened": 7949,
      "Ġinvitation": 7950,
      "Ġembraced": 7951,
      "Ġirr": 7952,
      "Ġeffects": 7953,
      "Ġenjoyment": 7954,
      "Ġhitherto": 7955,
      "Ġcontented": 7956,
      "Ġinstruct": 7957,
      "Ġlimb": 7958,
      "countenance": 7959,
      "smith": 7960,
      "Ġrelieved": 7961,
      "Ġfrightful": 7962,
      "Ġcollected": 7963,
      "Ġprocur": 7964,
      "Ġrobbed": 7965,
      "Ġendeavoured": 7966,
      "Ġlodging": 7967,
      "Ġpaused": 7968,
      "Ġarguments": 7969,
      "Ġpoetry": 7970,
      "Ġgait": 7971,
      "Ġdestroyed": 7972,
      "Ġreflections": 7973,
      "believe": 7974,
      "beautiful": 7975,
      "comfortable": 7976,
      "Ġdepths": 7977,
      "ĠFlore": 7978,
      "Ġsplendid": 7979,
      "Ġchallenge": 7980,
      "Ġphrase": 7981,
      "Ġgossip": 7982,
      "ĠRichmond": 7983,
      "ĠAustria": 7984,
      "Cons": 7985,
      "REN": 7986,
      "SI": 7987,
      "fact": 7988,
      "honour": 7989,
      "nes": 7990,
      "till": 7991,
      "tend": 7992,
      "ugh": 7993,
      "Ġsings": 7994,
      "hair": 7995,
      "Ġbay": 7996,
      "itch": 7997,
      "Ġfest": 7998,
      "enba": 7999,
      "Ġtooth": 8000,
      "Ġtower": 8001,
      "Ġhiding": 8002,
      "Ġlent": 8003,
      "Ġpan": 8004,
      "Ġpound": 8005,
      "Ġgap": 8006,
      "verted": 8007,
      "ado": 8008,
      "Ġnotwithstanding": 8009,
      "alone": 8010,
      "ams": 8011,
      "ifer": 8012,
      "Ġseed": 8013,
      "raight": 8014,
      "Ġsuits": 8015,
      "usions": 8016,
      "ĠSar": 8017,
      "ĠSomer": 8018,
      "Ġupright": 8019,
      "Ġliqu": 8020,
      "ĠAchaeans": 8021,
      "ĠArobin": 8022,
      "Ġvi": 8023,
      "Ġvulgar": 8024,
      "ĠBas": 8025,
      "akened": 8026,
      "Ġlocks": 8027,
      "Ġfac": 8028,
      "Ġaloft": 8029,
      "onday": 8030,
      "ĠEPH": 8031,
      "Ġtwain": 8032,
      "avement": 8033,
      "Ġbranch": 8034,
      "Ġhereafter": 8035,
      "forced": 8036,
      "ĠNestor": 8037,
      "Ġscandal": 8038,
      "Ġswept": 8039,
      "Ġplac": 8040,
      "Ġglit": 8041,
      "Ġaccused": 8042,
      "Ġchide": 8043,
      "ensible": 8044,
      "Ġappare": 8045,
      "Ġkeeper": 8046,
      "exam": 8047,
      "except": 8048,
      "Ġchanges": 8049,
      "mense": 8050,
      "Ġcrit": 8051,
      "Ġrecalled": 8052,
      "aval": 8053,
      "Ġcheese": 8054,
      "Ġreadily": 8055,
      "Ġbedroom": 8056,
      "Ġmonument": 8057,
      "ernal": 8058,
      "Ġvisited": 8059,
      "Ġgrounds": 8060,
      "ĠArg": 8061,
      "Ġstrive": 8062,
      "Ġindifferent": 8063,
      "Ġpretended": 8064,
      "formation": 8065,
      "Ġadvised": 8066,
      "ESUS": 8067,
      "remember": 8068,
      "guard": 8069,
      "ooping": 8070,
      "Ġsickness": 8071,
      "ĠLeb": 8072,
      "ĠseÃ±ora": 8073,
      "Ġhateful": 8074,
      "Ġurge": 8075,
      "Ġrevol": 8076,
      "Ġfirmly": 8077,
      "Ġshepherds": 8078,
      "Ġbelonged": 8079,
      "Ġmurdered": 8080,
      "Ġobtained": 8081,
      "ĠGeorgiana": 8082,
      "Ġphysician": 8083,
      "Ġconcerned": 8084,
      "Ġmotive": 8085,
      "Ġefforts": 8086,
      "ĠUncle": 8087,
      "Ġprinted": 8088,
      "peyson": 8089,
      "Ġodds": 8090,
      "Ġmarshes": 8091,
      "Ġcitizens": 8092,
      "circumst": 8093,
      "Ġtravelled": 8094,
      "Ġprivilege": 8095,
      "Ġenergy": 8096,
      "Ġgesture": 8097,
      "Ġlantern": 8098,
      "Ġvelvet": 8099,
      "character": 8100,
      "Schoenba": 8101,
      "ĠSomerset": 8102,
      "ĠEPHESUS": 8103,
      "Schoenbaum": 8104,
      "23": 8105,
      "About": 8106,
      "Bring": 8107,
      "DU": 8108,
      "Him": 8109,
      "Res": 8110,
      "aved": 8111,
      "bon": 8112,
      "each": 8113,
      "gate": 8114,
      "mid": 8115,
      "six": 8116,
      "uel": 8117,
      "va": 8118,
      "var": 8119,
      "inia": 8120,
      "erate": 8121,
      "isk": 8122,
      "itute": 8123,
      "enard": 8124,
      "Ġcig": 8125,
      "Ġtot": 8126,
      "llable": 8127,
      "Ġhospit": 8128,
      "Ġlane": 8129,
      "Ġlaz": 8130,
      "Ġnum": 8131,
      "aten": 8132,
      "Ġthreshold": 8133,
      "Ġyoke": 8134,
      "Ġge": 8135,
      "leh": 8136,
      "ete": 8137,
      "Ġfors": 8138,
      "Ġrear": 8139,
      "Ġwhit": 8140,
      "Ġweeds": 8141,
      "Ġstab": 8142,
      "Ġstaring": 8143,
      "ĠSouth": 8144,
      "Ġlibrary": 8145,
      "Ġamount": 8146,
      "Ġexalted": 8147,
      "ĠLanc": 8148,
      "Ġarise": 8149,
      "Ġfeature": 8150,
      "Ġoffering": 8151,
      "begin": 8152,
      "aper": 8153,
      "Ġperceiving": 8154,
      "Ġchains": 8155,
      "Ġremote": 8156,
      "lessly": 8157,
      "Ġaccus": 8158,
      "Ġaccuse": 8159,
      "Ġconsolation": 8160,
      "play": 8161,
      "Ġrightly": 8162,
      "Ġcoin": 8163,
      "Ġcounted": 8164,
      "Ġslay": 8165,
      "Ġslumber": 8166,
      "Ġhastily": 8167,
      "Ġdiscus": 8168,
      "Ġsleeps": 8169,
      "ĠArch": 8170,
      "cribed": 8171,
      "Ġpraises": 8172,
      "Ġconstantly": 8173,
      "LET": 8174,
      "Ġinstruments": 8175,
      "Ġfetched": 8176,
      "ĠOrleans": 8177,
      "Ġeagerness": 8178,
      "Ġemployment": 8179,
      "Ġpolite": 8180,
      "Ġlodge": 8181,
      "Enter": 8182,
      "Ġsuggested": 8183,
      "Ġtrembled": 8184,
      "utenant": 8185,
      "Ġconnection": 8186,
      "Ġlackeys": 8187,
      "Ġinquiry": 8188,
      "Ġsimply": 8189,
      "satisfied": 8190,
      "Ġdeceit": 8191,
      "Ġprincipal": 8192,
      "Ġrotten": 8193,
      "ĠAlcinous": 8194,
      "Ġadopted": 8195,
      "Ġsummoned": 8196,
      "ĠApollo": 8197,
      "Ġexplanation": 8198,
      "Ġhaughty": 8199,
      "ĠLebrun": 8200,
      "AS": 8201,
      "DER": 8202,
      "Fie": 8203,
      "Faith": 8204,
      "Get": 8205,
      "Gentlemen": 8206,
      "Rep": 8207,
      "Turn": 8208,
      "date": 8209,
      "fa": 8210,
      "few": 8211,
      "lorn": 8212,
      "ships": 8213,
      "voice": 8214,
      "wine": 8215,
      "Ġaut": 8216,
      "Ġscept": 8217,
      "rene": 8218,
      "Ġbald": 8219,
      "itan": 8220,
      "Ġcri": 8221,
      "Ġcens": 8222,
      "Ġcush": 8223,
      "Ġhom": 8224,
      "Ġnerv": 8225,
      "Ġnails": 8226,
      "ana": 8227,
      "Ġgor": 8228,
      "lebr": 8229,
      "stal": 8230,
      "imag": 8231,
      "utter": 8232,
      "Ġrecomp": 8233,
      "Ġmelt": 8234,
      "Ġwears": 8235,
      "rift": 8236,
      "hern": 8237,
      "ifying": 8238,
      "Ġken": 8239,
      "Ġdeer": 8240,
      "ĠMerc": 8241,
      "Ġbutter": 8242,
      "Ġsheets": 8243,
      "Ġshines": 8244,
      "ĠAlex": 8245,
      "Ġvant": 8246,
      "Ġleather": 8247,
      "ĠChe": 8248,
      "ĠWales": 8249,
      "Ġamiss": 8250,
      "Ġabst": 8251,
      "Ġunwilling": 8252,
      "Ġrat": 8253,
      "Ġagitation": 8254,
      "ptain": 8255,
      "Ġsomehow": 8256,
      "Ġhandle": 8257,
      "ĠRep": 8258,
      "ĠOct": 8259,
      "Ġimpe": 8260,
      "Ġperforce": 8261,
      "Ġrail": 8262,
      "Ġpassages": 8263,
      "Ġseriously": 8264,
      "Ġcommit": 8265,
      "Ġcommence": 8266,
      "Ġassumed": 8267,
      "Ġchang": 8268,
      "fortune": 8269,
      "Ġmoist": 8270,
      "Ġillustrious": 8271,
      "Ġsteady": 8272,
      "Ġskirt": 8273,
      "Ġearthly": 8274,
      "ĠArthur": 8275,
      "month": 8276,
      "Ġbargain": 8277,
      "Ġcorrespond": 8278,
      "import": 8279,
      "ĠAlas": 8280,
      "Ġinterested": 8281,
      "placed": 8282,
      "Ġconviction": 8283,
      "Ġvisitor": 8284,
      "Ġevident": 8285,
      "Ġattempted": 8286,
      "Ġdescription": 8287,
      "Ġbitterly": 8288,
      "Ġventured": 8289,
      "Ġprobable": 8290,
      "pleasant": 8291,
      "particular": 8292,
      "Ġinnocence": 8293,
      "Ġproduce": 8294,
      "Ġintentions": 8295,
      "Ġcivility": 8296,
      "Ġreverend": 8297,
      "Ġaccomplish": 8298,
      "beauty": 8299,
      "Ġreminded": 8300,
      "Ġhammer": 8301,
      "ĠAgamemnon": 8302,
      "Ġenchantment": 8303,
      "Ġgradually": 8304,
      "Ġapprehension": 8305,
      "uddenly": 8306,
      "elestial": 8307,
      "ĠRomans": 8308,
      "Ġnobility": 8309,
      "ĠLancaster": 8310,
      "App": 8311,
      "Full": 8312,
      "GE": 8313,
      "La": 8314,
      "LAND": 8315,
      "Sha": 8316,
      "Set": 8317,
      "aired": 8318,
      "bring": 8319,
      "cry": 8320,
      "ease": 8321,
      "gen": 8322,
      "hundred": 8323,
      "joice": 8324,
      "por": 8325,
      "pair": 8326,
      "Ġtax": 8327,
      "Ġwither": 8328,
      "Ġmould": 8329,
      "Ġbri": 8330,
      "Ġfog": 8331,
      "Ġdot": 8332,
      "Ġdagger": 8333,
      "ĠhÃ´tel": 8334,
      "Ġnought": 8335,
      "othed": 8336,
      "sell": 8337,
      "stead": 8338,
      "uther": 8339,
      "Ġascertain": 8340,
      "hers": 8341,
      "Ġstable": 8342,
      "Ġsex": 8343,
      "ands": 8344,
      "ĠMel": 8345,
      "ĠMonday": 8346,
      "ilia": 8347,
      "Ġwheels": 8348,
      "Ġshift": 8349,
      "Ġnovel": 8350,
      "ĠHuck": 8351,
      "ĠHaving": 8352,
      "Ġlikes": 8353,
      "Ġliking": 8354,
      "Ġorphan": 8355,
      "ĠBast": 8356,
      "ĠCatholic": 8357,
      "ĠPat": 8358,
      "ĠLow": 8359,
      "Ġaboard": 8360,
      "Ġunnatural": 8361,
      "Ġworm": 8362,
      "Ġcannon": 8363,
      "Ġquench": 8364,
      "ĠFalstaff": 8365,
      "ĠJan": 8366,
      "reek": 8367,
      "Ġspell": 8368,
      "Ġscared": 8369,
      "Ġkeys": 8370,
      "cloth": 8371,
      "Ġapolog": 8372,
      "Ġcourteous": 8373,
      "Ġbreeding": 8374,
      "Ġgild": 8375,
      "Ġgraves": 8376,
      "Ġfairy": 8377,
      "Ġtrail": 8378,
      "Ġtraitors": 8379,
      "Ġsupported": 8380,
      "ĠUpon": 8381,
      "Ġwalks": 8382,
      "azin": 8383,
      "Ġacts": 8384,
      "Ġstrikes": 8385,
      "Ġdeeper": 8386,
      "Ġbreathed": 8387,
      "bridge": 8388,
      "Ġkisses": 8389,
      "ĠAltisidora": 8390,
      "Ġsixty": 8391,
      "office": 8392,
      "Ġparlour": 8393,
      "Ġthrong": 8394,
      "Ġstirring": 8395,
      "Ġavail": 8396,
      "Ġexamine": 8397,
      "Ġenchanters": 8398,
      "Ġvanished": 8399,
      "Ġwarmth": 8400,
      "Ġgroan": 8401,
      "Ġgazing": 8402,
      "Ġintellect": 8403,
      "Ġenvious": 8404,
      "Ġcrept": 8405,
      "Ġwondrous": 8406,
      "Ġprevail": 8407,
      "pril": 8408,
      "Ġmethod": 8409,
      "Ġsufficiently": 8410,
      "oquenard": 8411,
      "knights": 8412,
      "Ġhorns": 8413,
      "Ġweapons": 8414,
      "Ġinterrupted": 8415,
      "Ġtreachery": 8416,
      "Ġreligion": 8417,
      "Ġdispleasure": 8418,
      "Ġmantle": 8419,
      "ĠScotland": 8420,
      "Ġliberal": 8421,
      "Ġfavor": 8422,
      "Ġpuzzled": 8423,
      "Whether": 8424,
      "1987": 8425,
      "Ġprocurator": 8426,
      "Ha": 8427,
      "Imp": 8428,
      "Lady": 8429,
      "Makes": 8430,
      "SC": 8431,
      "bas": 8432,
      "drink": 8433,
      "folk": 8434,
      "port": 8435,
      "position": 8436,
      "sch": 8437,
      "wonder": 8438,
      "Ġiv": 8439,
      "Ġident": 8440,
      "Ġtick": 8441,
      "Ġafore": 8442,
      "Ġahead": 8443,
      "inos": 8444,
      "incl": 8445,
      "inning": 8446,
      "hable": 8447,
      "Ġmak": 8448,
      "eration": 8449,
      "itution": 8450,
      "enchan": 8451,
      "Ġcelestial": 8452,
      "Ġdamp": 8453,
      "Ġdirty": 8454,
      "Ġducats": 8455,
      "Ġlimp": 8456,
      "Ġlarger": 8457,
      "Ġpark": 8458,
      "Ġpush": 8459,
      "Ġgoose": 8460,
      "street": 8461,
      "strange": 8462,
      "chus": 8463,
      "Ġrenegade": 8464,
      "urope": 8465,
      "aine": 8466,
      "raph": 8467,
      "ĠSpeak": 8468,
      "ĠApril": 8469,
      "Ġven": 8470,
      "Ġvest": 8471,
      "Ġcongrat": 8472,
      "ousquet": 8473,
      "eled": 8474,
      "else": 8475,
      "Ġexile": 8476,
      "Ġabide": 8477,
      "Ġunp": 8478,
      "Ġray": 8479,
      "Ġratt": 8480,
      "Ġshallow": 8481,
      "ĠRivers": 8482,
      "Ġclad": 8483,
      "Ġclown": 8484,
      "Ġchambers": 8485,
      "Ġrab": 8486,
      "Ġrav": 8487,
      "dead": 8488,
      "Ġresidence": 8489,
      "Ġolder": 8490,
      "Ġimpulse": 8491,
      "Ġconsult": 8492,
      "Ġpurple": 8493,
      "Ġchecked": 8494,
      "undle": 8495,
      "ĠThomas": 8496,
      "Ġneedle": 8497,
      "Ġneedful": 8498,
      "STI": 8499,
      "Ġuseful": 8500,
      "Ġeasier": 8501,
      "Ġsummit": 8502,
      "Ġcontinually": 8503,
      "prov": 8504,
      "Ġrespectable": 8505,
      "Ġestim": 8506,
      "Ġchairs": 8507,
      "Ġtenderness": 8508,
      "arers": 8509,
      "Ġexcellence": 8510,
      "Ġvanity": 8511,
      "Ġexecuted": 8512,
      "mighty": 8513,
      "Ġdoublet": 8514,
      "emberley": 8515,
      "Ġbasket": 8516,
      "occasion": 8517,
      "2005": 8518,
      "Ġantic": 8519,
      "Ġwithdraw": 8520,
      "Ġcounterfeit": 8521,
      "ĠLucius": 8522,
      "Ġpillow": 8523,
      "Ġbetrayed": 8524,
      "Ġintroduced": 8525,
      "Ġbonnet": 8526,
      "Tomorrow": 8527,
      "Ġadversary": 8528,
      "Ġforsworn": 8529,
      "Ġperpetual": 8530,
      "Ġswineherd": 8531,
      "ĠTarquin": 8532,
      "Ġeducation": 8533,
      "Ġreleased": 8534,
      "Ġashore": 8535,
      "ousqueton": 8536,
      "DON": 8537,
      "Follow": 8538,
      "Mark": 8539,
      "dy": 8540,
      "iving": 8541,
      "lest": 8542,
      "ma": 8543,
      "mund": 8544,
      "sol": 8545,
      "uable": 8546,
      "years": 8547,
      "ĠÃ": 8548,
      "Ġtar": 8549,
      "Ġtum": 8550,
      "Ġwreck": 8551,
      "Ġmission": 8552,
      "isz": 8553,
      "isons": 8554,
      "Ġcage": 8555,
      "Ġdaz": 8556,
      "esinos": 8557,
      "semble": 8558,
      "stre": 8559,
      "Ġonward": 8560,
      "Ġnoted": 8561,
      "Ġstained": 8562,
      "Ġstub": 8563,
      "illo": 8564,
      "Ġisle": 8565,
      "Ġherald": 8566,
      "Ġseize": 8567,
      "Ġkin": 8568,
      "ĠSERV": 8569,
      "Ġshoe": 8570,
      "allow": 8571,
      "Ġvine": 8572,
      "ĠDie": 8573,
      "ĠDuchess": 8574,
      "Ġunusual": 8575,
      "Ġbloom": 8576,
      "ache": 8577,
      "Ġoffices": 8578,
      "Ġpoets": 8579,
      "Ġimmediate": 8580,
      "Ġimmense": 8581,
      "Ġrig": 8582,
      "Ġrival": 8583,
      "neither": 8584,
      "Ġpartner": 8585,
      "Ġcompare": 8586,
      "Ġrags": 8587,
      "Ġglancing": 8588,
      "meet": 8589,
      "Ġrespons": 8590,
      "Ġruff": 8591,
      "Ġimped": 8592,
      "Ġconsist": 8593,
      "Ġintimate": 8594,
      "Ġanswers": 8595,
      "Ġcarpet": 8596,
      "show": 8597,
      "shine": 8598,
      "awyer": 8599,
      "attention": 8600,
      "Ġelbow": 8601,
      "Ġdoubted": 8602,
      "Ġsubs": 8603,
      "Ġsentiment": 8604,
      "liza": 8605,
      "Ġactive": 8606,
      "Ġsadness": 8607,
      "appro": 8608,
      "econd": 8609,
      "Ġcrave": 8610,
      "Ġcouncil": 8611,
      "handkerchief": 8612,
      "disc": 8613,
      "Ġgladly": 8614,
      "Ġundo": 8615,
      "Ġundone": 8616,
      "Ġsensations": 8617,
      "Ġparticulars": 8618,
      "compan": 8619,
      "Ġavo": 8620,
      "Ġconceit": 8621,
      "Ġinquired": 8622,
      "Ġexecute": 8623,
      "Ġgroans": 8624,
      "Ġmiracle": 8625,
      "Ġoccupation": 8626,
      "Ġannounced": 8627,
      "ĠPhili": 8628,
      "Ġconsequently": 8629,
      "Ġcalcul": 8630,
      "ĠLouvre": 8631,
      "Ġtempted": 8632,
      "Ġingen": 8633,
      "Ġmurmured": 8634,
      "Ġwrapped": 8635,
      "ĠVenus": 8636,
      "Ġconjure": 8637,
      "Ġsplit": 8638,
      "ĠNorthumberland": 8639,
      "Ġjumped": 8640,
      "Ġestablish": 8641,
      "Ġestablished": 8642,
      "Ġdisguise": 8643,
      "Ġduennas": 8644,
      "Ġelegant": 8645,
      "Ġgloves": 8646,
      "Ġcontrol": 8647,
      "Ġmingled": 8648,
      "Ġkinsman": 8649,
      "Ġtriumphant": 8650,
      "Ġaltar": 8651,
      "Ġgoverness": 8652,
      "ĠPhaeacians": 8653,
      "Came": 8654,
      "Has": 8655,
      "Muskete": 8656,
      "SA": 8657,
      "Seem": 8658,
      "UN": 8659,
      "Up": 8660,
      "ban": 8661,
      "bound": 8662,
      "balt": 8663,
      "fit": 8664,
      "free": 8665,
      "hon": 8666,
      "lar": 8667,
      "mist": 8668,
      "rade": 8669,
      "sort": 8670,
      "sum": 8671,
      "sound": 8672,
      "tre": 8673,
      "uary": 8674,
      "wish": 8675,
      "warn": 8676,
      "Ġterr": 8677,
      "Ġsine": 8678,
      "rece": 8679,
      "recy": 8680,
      "Ġbough": 8681,
      "Ġbidding": 8682,
      "isbury": 8683,
      "oner": 8684,
      "Ġdain": 8685,
      "Ġlions": 8686,
      "Ġpi": 8687,
      "Ġhal": 8688,
      "Ġhaw": 8689,
      "leg": 8690,
      "Ġforlorn": 8691,
      "Ġwasted": 8692,
      "Ġreception": 8693,
      "Ġrejoice": 8694,
      "alus": 8695,
      "alian": 8696,
      "url": 8697,
      "Ġsus": 8698,
      "ĠMess": 8699,
      "ĠMark": 8700,
      "ĠMoors": 8701,
      "ĠMeryton": 8702,
      "ilful": 8703,
      "Ġnoon": 8704,
      "Ġlicent": 8705,
      "Ġvass": 8706,
      "Ġvoid": 8707,
      "Ġshapes": 8708,
      "osal": 8709,
      "ĠTitus": 8710,
      "Ġloaf": 8711,
      "ooks": 8712,
      "ooked": 8713,
      "ĠCupid": 8714,
      "ĠCoquenard": 8715,
      "unch": 8716,
      "Ġarrow": 8717,
      "ĠGerman": 8718,
      "Ġanywhere": 8719,
      "ptuous": 8720,
      "ĠFord": 8721,
      "Ġdislike": 8722,
      "Ġadieu": 8723,
      "Ġwrink": 8724,
      "Ġcontained": 8725,
      "Ġsmart": 8726,
      "Ġeverlasting": 8727,
      "civil": 8728,
      "ĠKent": 8729,
      "Ġbreach": 8730,
      "ifford": 8731,
      "Ġhoriz": 8732,
      "angled": 8733,
      "Ġsincere": 8734,
      "Ġmonarch": 8735,
      "atching": 8736,
      "Ġextended": 8737,
      "cription": 8738,
      "Ġsignal": 8739,
      "Ġincident": 8740,
      "Ġsending": 8741,
      "Ġinvol": 8742,
      "Ġhangs": 8743,
      "Ġobjection": 8744,
      "doing": 8745,
      "Ġbanquet": 8746,
      "ĠProt": 8747,
      "Ġspoil": 8748,
      "Ġthankful": 8749,
      "pended": 8750,
      "Ġoccasionally": 8751,
      "Ġpenit": 8752,
      "Ġyielding": 8753,
      "Ġshores": 8754,
      "Ġoblig": 8755,
      "Ġrevolt": 8756,
      "ĠPericles": 8757,
      "evening": 8758,
      "Ġpockets": 8759,
      "Ġcounsels": 8760,
      "Ġstreams": 8761,
      "cules": 8762,
      "Ġforbear": 8763,
      "Ġuneasiness": 8764,
      "minded": 8765,
      "Ġdrowned": 8766,
      "Ġcommunication": 8767,
      "Ġsteadily": 8768,
      "Ġmagic": 8769,
      "ĠTroilus": 8770,
      "Ġobscure": 8771,
      "Ġsimplicity": 8772,
      "Ġdistinctly": 8773,
      "Ġpearl": 8774,
      "Ġpigs": 8775,
      "Ġhaply": 8776,
      "delight": 8777,
      "rockleh": 8778,
      "Ġpurposes": 8779,
      "Ġinherit": 8780,
      "dinner": 8781,
      "Ġeyebrows": 8782,
      "ĠPriam": 8783,
      "Ġthieves": 8784,
      "Ġmarvellous": 8785,
      "Ġdainty": 8786,
      "rocklehurst": 8787,
      "Find": 8788,
      "Twas": 8789,
      "VAL": 8790,
      "bag": 8791,
      "bear": 8792,
      "bishop": 8793,
      "groom": 8794,
      "lor": 8795,
      "sight": 8796,
      "spr": 8797,
      "town": 8798,
      "treat": 8799,
      "true": 8800,
      "Ġtig": 8801,
      "Ġtales": 8802,
      "received": 8803,
      "reement": 8804,
      "oup": 8805,
      "itively": 8806,
      "Ġcard": 8807,
      "lla": 8808,
      "Ġpavement": 8809,
      "eter": 8810,
      "Ġrelish": 8811,
      "Ġrelease": 8812,
      "rich": 8813,
      "Ġstories": 8814,
      "Ġalle": 8815,
      "ĠMant": 8816,
      "ĠMag": 8817,
      "Ġsall": 8818,
      "ĠSEN": 8819,
      "Ġdove": 8820,
      "ĠHence": 8821,
      "ĠHold": 8822,
      "Ġwills": 8823,
      "ĠArab": 8824,
      "blem": 8825,
      "aste": 8826,
      "aston": 8827,
      "Ġextingu": 8828,
      "ĠPo": 8829,
      "Ġunion": 8830,
      "Ġrays": 8831,
      "olks": 8832,
      "olph": 8833,
      "ĠGar": 8834,
      "ĠJacques": 8835,
      "Ġdescent": 8836,
      "ignant": 8837,
      "Ġscant": 8838,
      "Ġscience": 8839,
      "Ġbegging": 8840,
      "intell": 8841,
      "Ġraging": 8842,
      "Ġpassions": 8843,
      "Ġbacks": 8844,
      "dec": 8845,
      "ighbour": 8846,
      "close": 8847,
      "Ġserves": 8848,
      "Ġreserved": 8849,
      "Ġobvious": 8850,
      "cipl": 8851,
      "Ġgiants": 8852,
      "Ġemotion": 8853,
      "Ġhappier": 8854,
      "ulties": 8855,
      "Ġguards": 8856,
      "Ġfarmer": 8857,
      "Ġwail": 8858,
      "expl": 8859,
      "Ġdrag": 8860,
      "avinia": 8861,
      "Ġcurses": 8862,
      "ENE": 8863,
      "Ġsweetest": 8864,
      "Ġdoubtful": 8865,
      "Ġsubmit": 8866,
      "Ġsteed": 8867,
      "Ġregions": 8868,
      "bye": 8869,
      "Ġindividual": 8870,
      "Ġobservation": 8871,
      "eye": 8872,
      "Ġexpecting": 8873,
      "ONA": 8874,
      "grateful": 8875,
      "ĠEnglishman": 8876,
      "OLY": 8877,
      "Ġconclude": 8878,
      "gyman": 8879,
      "Ġcandles": 8880,
      "ridor": 8881,
      "Ġbelonging": 8882,
      "Ġpetition": 8883,
      "Ġneglected": 8884,
      "Ġstockings": 8885,
      "Ġcoffin": 8886,
      "Ġvolunt": 8887,
      "married": 8888,
      "Ġlearnt": 8889,
      "ĠVenice": 8890,
      "Ġfairer": 8891,
      "ĠFranÃ§ois": 8892,
      "Ġsenseless": 8893,
      "Ġslander": 8894,
      "Ġabundance": 8895,
      "Ġrouse": 8896,
      "Ġpledge": 8897,
      "Ġnervous": 8898,
      "Ġvantage": 8899,
      "Ant": 8900,
      "BAR": 8901,
      "Ca": 8902,
      "Meanwhile": 8903,
      "Next": 8904,
      "Rome": 8905,
      "Unt": 8906,
      "cried": 8907,
      "fat": 8908,
      "further": 8909,
      "hist": 8910,
      "los": 8911,
      "mpt": 8912,
      "sla": 8913,
      "swer": 8914,
      "uity": 8915,
      "welt": 8916,
      "ye": 8917,
      "inions": 8918,
      "inations": 8919,
      "Ġwipe": 8920,
      "Ġslack": 8921,
      "erity": 8922,
      "orable": 8923,
      "Ġcrest": 8924,
      "arms": 8925,
      "Ġyell": 8926,
      "stud": 8927,
      "idius": 8928,
      "urse": 8929,
      "Ġherd": 8930,
      "Ġsofa": 8931,
      "cken": 8932,
      "Ġseats": 8933,
      "thrown": 8934,
      "ĠMic": 8935,
      "ĠMac": 8936,
      "ĠMason": 8937,
      "Ġdole": 8938,
      "Ġshru": 8939,
      "ĠAunt": 8940,
      "Ġconceived": 8941,
      "Ġconceive": 8942,
      "ĠBill": 8943,
      "ĠBour": 8944,
      "onela": 8945,
      "lag": 8946,
      "ĠClerval": 8947,
      "ĠLike": 8948,
      "unction": 8949,
      "Ġunseen": 8950,
      "Ġunworthy": 8951,
      "oled": 8952,
      "Ġcanon": 8953,
      "agement": 8954,
      "Ġperj": 8955,
      "Ġpermitted": 8956,
      "inted": 8957,
      "Ġrapt": 8958,
      "Ġreserve": 8959,
      "lesome": 8960,
      "Ġrules": 8961,
      "Its": 8962,
      "Ġtrades": 8963,
      "Ġtroops": 8964,
      "getting": 8965,
      "Ġrestrain": 8966,
      "Ġapplied": 8967,
      "Behold": 8968,
      "Ġconfound": 8969,
      "Ġconference": 8970,
      "exper": 8971,
      "fortunately": 8972,
      "Ġhasty": 8973,
      "Ġtribe": 8974,
      "Ġtribut": 8975,
      "Ġprayed": 8976,
      "Stay": 8977,
      "Ġhairs": 8978,
      "Ġdecay": 8979,
      "Ġcorpse": 8980,
      "ORT": 8981,
      "Ġgraceful": 8982,
      "ĠAntinous": 8983,
      "Ġcrystal": 8984,
      "Ġstudied": 8985,
      "Ġexplo": 8986,
      "Ġbowels": 8987,
      "ĠLucrece": 8988,
      "Ġreaching": 8989,
      "Ġbells": 8990,
      "fordshire": 8991,
      "Ġstrokes": 8992,
      "Ġexperienced": 8993,
      "Cannot": 8994,
      "ENTINE": 8995,
      "thinking": 8996,
      "umphrey": 8997,
      "ĠClifford": 8998,
      "express": 8999,
      "Ġbridle": 9000,
      "Ġvolume": 9001,
      "ĠWhite": 9002,
      "Ġwolves": 9003,
      "Ġcellar": 9004,
      "ITI": 9005,
      "truth": 9006,
      "finger": 9007,
      "Ġinspired": 9008,
      "Remember": 9009,
      "Ġdrums": 9010,
      "Ġnodded": 9011,
      "Ġaxe": 9012,
      "Ġmagnificent": 9013,
      "Ġdangers": 9014,
      "Ġgoatherd": 9015,
      "ĠCirce": 9016,
      "VALENTINE": 9017,
      "26": 9018,
      "Gu": 9019,
      "None": 9020,
      "Odyssey": 9021,
      "dread": 9022,
      "eches": 9023,
      "fri": 9024,
      "fashion": 9025,
      "mistress": 9026,
      "zes": 9027,
      "Ġaug": 9028,
      "inv": 9029,
      "inated": 9030,
      "Ġwrest": 9031,
      "Ġmale": 9032,
      "Ġbawd": 9033,
      "Ġbundle": 9034,
      "erness": 9035,
      "itself": 9036,
      "itement": 9037,
      "Ġfaster": 9038,
      "onze": 9039,
      "Ġcro": 9040,
      "Ġlashes": 9041,
      "Ġnigh": 9042,
      "anth": 9043,
      "ĠIm": 9044,
      "Ġhack": 9045,
      "Ġhail": 9046,
      "Ġbeings": 9047,
      "least": 9048,
      "Ġredeem": 9049,
      "Ġstately": 9050,
      "Ġancest": 9051,
      "Ġsupre": 9052,
      "Ġbutcher": 9053,
      "ĠSy": 9054,
      "Ġlivery": 9055,
      "ĠAway": 9056,
      "icient": 9057,
      "ĠCarrasco": 9058,
      "Ġexhi": 9059,
      "ĠPoly": 9060,
      "ĠLear": 9061,
      "igence": 9062,
      "Ġspared": 9063,
      "Ġriding": 9064,
      "Ġjury": 9065,
      "Ġprolong": 9066,
      "ĠFar": 9067,
      "ĠFather": 9068,
      "Ġtwisted": 9069,
      "Ġclosing": 9070,
      "Young": 9071,
      "aph": 9072,
      "Ġribs": 9073,
      "rete": 9074,
      "ovel": 9075,
      "lessed": 9076,
      "lessness": 9077,
      "arson": 9078,
      "Ġprejud": 9079,
      "Ġchill": 9080,
      "Ġharmony": 9081,
      "Ġgrain": 9082,
      "Ġlasted": 9083,
      "Ġresting": 9084,
      "Ġappla": 9085,
      "Ġappeal": 9086,
      "Ġrights": 9087,
      "Whence": 9088,
      "Ġarticle": 9089,
      "Ġconfessed": 9090,
      "Ġmoves": 9091,
      "Ġeloqu": 9092,
      "ĠVir": 9093,
      "Ġopenly": 9094,
      "Ġregards": 9095,
      "Ġregiment": 9096,
      "Ġwishing": 9097,
      "Ġmerc": 9098,
      "Ġmerchant": 9099,
      "clea": 9100,
      "ĠHero": 9101,
      "ĠHercules": 9102,
      "Ġstriving": 9103,
      "Ġgrieved": 9104,
      "Ġgrievous": 9105,
      "Ġinterview": 9106,
      "Ġwronged": 9107,
      "Ġbarbar": 9108,
      "Ġsadly": 9109,
      "ONE": 9110,
      "grown": 9111,
      "impse": 9112,
      "Ġgallop": 9113,
      "Ġresolve": 9114,
      "Ġcapacity": 9115,
      "Ġcommonly": 9116,
      "William": 9117,
      "afterwards": 9118,
      "Ġlimit": 9119,
      "countered": 9120,
      "Ġreckoning": 9121,
      "ĠOrlick": 9122,
      "ĠProv": 9123,
      "Ġkingdoms": 9124,
      "Ġstarting": 9125,
      "ĠReisz": 9126,
      "Ġthreatened": 9127,
      "Ġcelebr": 9128,
      "Ġfox": 9129,
      "Ġmutual": 9130,
      "Ġfraud": 9131,
      "human": 9132,
      "Ġphysic": 9133,
      "Ġmysterious": 9134,
      "Ġtraveller": 9135,
      "books": 9136,
      "Ġdamsels": 9137,
      "Ġempress": 9138,
      "believed": 9139,
      "ĠPalamon": 9140,
      "Ġconveyed": 9141,
      "Ġdisappointed": 9142,
      "ĠRosings": 9143,
      "Ġcitizen": 9144,
      "Ġascended": 9145,
      "Ġextremity": 9146,
      "Ġissued": 9147,
      "Ġduenna": 9148,
      "Ġbreeze": 9149,
      "Ġexpedition": 9150,
      "Ġnimble": 9151,
      "Peace": 9152,
      "Ġnarrative": 9153,
      "Ġfatigue": 9154,
      "Reads": 9155,
      "wyne": 9156,
      "DUKE": 9157,
      "Ġsupreme": 9158,
      "Ap": 9159,
      "CY": 9160,
      "Hence": 9161,
      "IL": 9162,
      "bac": 9163,
      "dire": 9164,
      "fle": 9165,
      "fair": 9166,
      "faith": 9167,
      "lost": 9168,
      "nzo": 9169,
      "pat": 9170,
      "shad": 9171,
      "tled": 9172,
      "uan": 9173,
      "uated": 9174,
      "Åĵ": 9175,
      "Ġsly": 9176,
      "Ġmuff": 9177,
      "isp": 9178,
      "Ġfence": 9179,
      "orbed": 9180,
      "Ġcities": 9181,
      "Ġliter": 9182,
      "around": 9183,
      "Ġnet": 9184,
      "omb": 9185,
      "omy": 9186,
      "Ġhain": 9187,
      "Ġhaven": 9188,
      "imer": 9189,
      "Ġeg": 9190,
      "adis": 9191,
      "rius": 9192,
      "Ġstag": 9193,
      "urder": 9194,
      "Ġante": 9195,
      "orenzo": 9196,
      "Ġdefe": 9197,
      "raise": 9198,
      "ĠSydney": 9199,
      "Ġshud": 9200,
      "ardolph": 9201,
      "ĠHun": 9202,
      "Ġorb": 9203,
      "Ġknit": 9204,
      "ĠAjax": 9205,
      "ĠBi": 9206,
      "ĠThan": 9207,
      "ĠWITH": 9208,
      "Ġexchanged": 9209,
      "ĠPost": 9210,
      "ĠPoor": 9211,
      "agers": 9212,
      "umps": 9213,
      "umption": 9214,
      "Ġsphere": 9215,
      "Ġjaws": 9216,
      "ĠGrand": 9217,
      "ĠOut": 9218,
      "acked": 9219,
      "opened": 9220,
      "aples": 9221,
      "Ġflash": 9222,
      "Ġcompared": 9223,
      "Ġscatter": 9224,
      "Ġscale": 9225,
      "Ġsmote": 9226,
[...]
