{
  "version": "1.0",
  "truncation": null,
  "padding": null,
  "added_tokens": [
    {
      "id": 0,
      "content": "[PAD]",
      "single_word": false,
      "lstrip": false,
      "rstrip": false,
      "normalized": false,
      "special": true
    },
    {
      "id": 1,
      "content": "[BOS]",
      "single_word": false,
      "lstrip": false,
      "rstrip": false,
      "normalized": false,
      "special": true
    },
    {
      "id": 2,
      "content": "[EOS]",
      "single_word": false,
      "lstrip": false,
      "rstrip": false,
      "normalized": false,
      "special": true
    },
    {
      "id": 3,
      "content": "[UNK]",
      "single_word": false,
      "lstrip": false,
      "rstrip": false,
      "normalized": false,
      "special": true
    }
  ],
  "normalizer": {
    "type": "Sequence",
    "normalizers": [
      {
        "type": "NFKC"
      },
      {
        "type": "Replace",
        "pattern": {
          "String": " "
        },
        "content": " "
      }
    ]
  },
  "pre_tokenizer": {
    "type": "Sequence",
    "pretokenizers": [
      {
        "type": "Digits",
        "individual_digits": false
      },
      {
        "type": "Punctuation",
        "behavior": "Isolated"
      },
      {
        "type": "ByteLevel",
        "add_prefix_space": false,
        "trim_offsets": true,
        "use_regex": true
      }
    ]
  },
  "post_processor": {
    "type": "TemplateProcessing",
    "single": [
      {
        "SpecialToken": {
          "id": "[BOS]",
          "type_id": 0
        }
      },
      {
        "Sequence": {
          "id": "A",
          "type_id": 0
        }
      },
      {
        "SpecialToken": {
          "id": "[EOS]",
          "type_id": 0
        }
      }
    ],
    "pair": [
      {
        "SpecialToken": {
          "id": "[BOS]",
          "type_id": 0
        }
      },
      {
        "Sequence": {
          "id": "A",
          "type_id": 0
        }
      },
      {
        "SpecialToken": {
          "id": "[EOS]",
          "type_id": 0
        }
      },
      {
        "SpecialToken": {
          "id": "[BOS]",
          "type_id": 0
        }
      },
      {
        "Sequence": {
          "id": "B",
          "type_id": 0
        }
      },
      {
        "SpecialToken": {
          "id": "[EOS]",
          "type_id": 0
        }
      }
    ],
    "special_tokens": {
      "[BOS]": {
        "id": "[BOS]",
        "ids": [
          1
        ],
        "tokens": [
          "[BOS]"
        ]
      },
      "[EOS]": {
        "id": "[EOS]",
        "ids": [
          2
        ],
        "tokens": [
          "[EOS]"
        ]
      }
    }
  },
  "decoder": {
    "type": "ByteLevel",
    "add_prefix_space": true,
    "trim_offsets": true,
    "use_regex": true
  },
  "model": {
    "type": "BPE",
    "dropout": null,
    "unk_token": null,
    "continuing_subword_prefix": null,
    "end_of_word_suffix": null,
    "fuse_unk": false,
    "byte_fallback": true,
    "ignore_merges": false,
    "vocab": {
      "[PAD]": 0,
      "[BOS]": 1,
      "[EOS]": 2,
      "[UNK]": 3,
      "!": 4,
      "\"": 5,
      "#": 6,
      "$": 7,
      "%": 8,
      "&": 9,
      "'": 10,
      "(": 11,
      ")": 12,
      "*": 13,
      "+": 14,
      ",": 15,
      "-": 16,
      ".": 17,
      "/": 18,
      "0": 19,
      "1": 20,
      "2": 21,
      "3": 22,
      "4": 23,
      "5": 24,
      "6": 25,
      "7": 26,
      "8": 27,
      "9": 28,
      ":": 29,
      ";": 30,
      "<": 31,
      "=": 32,
      ">": 33,
      "?": 34,
      "@": 35,
      "A": 36,
      "B": 37,
      "C": 38,
      "D": 39,
      "E": 40,
      "F": 41,
      "G": 42,
      "H": 43,
      "I": 44,
      "J": 45,
      "K": 46,
      "L": 47,
      "M": 48,
      "N": 49,
      "O": 50,
      "P": 51,
      "Q": 52,
      "R": 53,
      "S": 54,
      "T": 55,
      "U": 56,
      "V": 57,
      "W": 58,
      "X": 59,
      "Y": 60,
      "Z": 61,
      "[": 62,
      "\\": 63,
      "]": 64,
      "^": 65,
      "_": 66,
      "`": 67,
      "a": 68,
      "b": 69,
      "c": 70,
      "d": 71,
      "e": 72,
      "f": 73,
      "g": 74,
      "h": 75,
      "i": 76,
      "j": 77,
      "k": 78,
      "l": 79,
      "m": 80,
      "n": 81,
      "o": 82,
      "p": 83,
      "q": 84,
      "r": 85,
      "s": 86,
      "t": 87,
      "u": 88,
      "v": 89,
      "w": 90,
      "x": 91,
      "y": 92,
      "z": 93,
      "{": 94,
      "|": 95,
      "}": 96,
      "~": 97,
      "¡": 98,
      "¢": 99,
      "£": 100,
      "¤": 101,
      "¥": 102,
      "¦": 103,
      "§": 104,
      "¨": 105,
      "©": 106,
      "ª": 107,
      "«": 108,
      "¬": 109,
      "®": 110,
      "¯": 111,
      "°": 112,
      "±": 113,
      "²": 114,
      "³": 115,
      "´": 116,
      "µ": 117,
      "¶": 118,
      "·": 119,
      "¸": 120,
      "¹": 121,
      "º": 122,
      "»": 123,
      "¼": 124,
      "½": 125,
      "¾": 126,
      "¿": 127,
      "À": 128,
      "Á": 129,
      "Â": 130,
      "Ã": 131,
      "Ä": 132,
      "Å": 133,
      "Æ": 134,
      "Ç": 135,
      "È": 136,
      "É": 137,
      "Ê": 138,
      "Ë": 139,
      "Ì": 140,
      "Í": 141,
      "Î": 142,
      "Ï": 143,
      "Ð": 144,
      "Ñ": 145,
      "Ò": 146,
      "Ó": 147,
      "Ô": 148,
      "Õ": 149,
      "Ö": 150,
      "×": 151,
      "Ø": 152,
      "Ù": 153,
      "Ú": 154,
      "Û": 155,
      "Ü": 156,
      "Ý": 157,
      "Þ": 158,
      "ß": 159,
      "à": 160,
      "á": 161,
      "â": 162,
      "ã": 163,
      "ä": 164,
      "å": 165,
      "æ": 166,
      "ç": 167,
      "è": 168,
      "é": 169,
      "ê": 170,
      "ë": 171,
      "ì": 172,
      "í": 173,
      "î": 174,
      "ï": 175,
      "ð": 176,
      "ñ": 177,
      "ò": 178,
      "ó": 179,
      "ô": 180,
      "õ": 181,
      "ö": 182,
      "÷": 183,
      "ø": 184,
      "ù": 185,
      "ú": 186,
      "û": 187,
      "ü": 188,
      "ý": 189,
      "þ": 190,
      "ÿ": 191,
      "Ā": 192,
      "ā": 193,
      "Ă": 194,
      "ă": 195,
      "Ą": 196,
      "ą": 197,
      "Ć": 198,
      "ć": 199,
      "Ĉ": 200,
      "ĉ": 201,
      "Ċ": 202,
      "ċ": 203,
      "Č": 204,
      "č": 205,
      "Ď": 206,
      "ď": 207,
      "Đ": 208,
      "đ": 209,
      "Ē": 210,
      "ē": 211,
      "Ĕ": 212,
      "ĕ": 213,
      "Ė": 214,
      "ė": 215,
      "Ę": 216,
      "ę": 217,
      "Ě": 218,
      "ě": 219,
      "Ĝ": 220,
      "ĝ": 221,
      "Ğ": 222,
      "ğ": 223,
      "Ġ": 224,
      "ġ": 225,
      "Ģ": 226,
      "ģ": 227,
      "Ĥ": 228,
      "ĥ": 229,
      "Ħ": 230,
      "ħ": 231,
      "Ĩ": 232,
      "ĩ": 233,
      "Ī": 234,
      "ī": 235,
      "Ĭ": 236,
      "ĭ": 237,
      "Į": 238,
      "į": 239,
      "İ": 240,
      "ı": 241,
      "Ĳ": 242,
      "ĳ": 243,
      "Ĵ": 244,
      "ĵ": 245,
      "Ķ": 246,
      "ķ": 247,
      "ĸ": 248,
      "Ĺ": 249,
      "ĺ": 250,
      "Ļ": 251,
      "ļ": 252,
      "Ľ": 253,
      "ľ": 254,
      "Ŀ": 255,
      "ŀ": 256,
      "Ł": 257,
      "ł": 258,
      "Ń": 259,
      "Ġt": 260,
      "Ġa": 261,
      "he": 262,
      "in": 263,
      "re": 264,
      "Ġthe": 265,
      "Ġo": 266,
      "er": 267,
      "Ġs": 268,
      "at": 269,
      "on": 270,
      "Ġc": 271,
      "en": 272,
      "Ġw": 273,
      "es": 274,
      "nd": 275,
      "is": 276,
      "it": 277,
      "or": 278,
      "Ġp": 279,
      "Ġb": 280,
      "Ġf": 281,
      "al": 282,
      "an": 283,
      "ing": 284,
      "ed": 285,
      "ou": 286,
      "Ġof": 287,
      "Ġin": 288,
      "Ġm": 289,
      "ar": 290,
      "Ġto": 291,
      "Ġand": 292,
      "ic": 293,
      "Ġd": 294,
      "ion": 295,
      "le": 296,
      "ro": 297,
      "as": 298,
      "Ġh": 299,
      "Ġth": 300,
      "ent": 301,
      "il": 302,
      "ct": 303,
      "Ġe": 304,
      "Ġre": 305,
      "ve": 306,
      "Ġl": 307,
      "om": 308,
      "Ġn": 309,
      "st": 310,
      "âĢ": 311,
      "Ġis": 312,
      "Ġbe": 313,
      "ly": 314,
      "se": 315,
      "Ġg": 316,
      "ĠT": 317,
      "ol": 318,
      "et": 319,
      "im": 320,
      "id": 321,
      "ation": 322,
      "ow": 323,
      "ut": 324,
      "ot": 325,
      "ur": 326,
      "Ġy": 327,
      "ce": 328,
      "ch": 329,
      "ra": 330,
      "Ġfor": 331,
      "Ġu": 332,
      "ig": 333,
      "Ġon": 334,
      "Ġthat": 335,
      "Ġst": 336,
      "ĠA": 337,
      "ver": 338,
      "ĠS": 339,
      "ĠI": 340,
      "ir": 341,
      "Ġyou": 342,
      "ay": 343,
      "ĠC": 344,
      "ul": 345,
      "ith": 346,
      "Ġare": 347,
      "Ġas": 348,
      "am": 349,
      "el": 350,
      "her": 351,
      "ad": 352,
      "Ġpro": 353,
      "Ġwith": 354,
      "Ġan": 355,
      "Ġit": 356,
      "Ġcon": 357,
      "if": 358,
      "Ġwh": 359,
      "Ġor": 360,
      "Ġal": 361,
      "od": 362,
      "ter": 363,
      "ge": 364,
      "âĢĻ": 365,
      "Ġhe": 366,
      "th": 367,
      "ĠThe": 368,
      "ĠM": 369,
      "ill": 370,
      "ment": 371,
      "op": 372,
      "ate": 373,
      "ers": 374,
      "ĠP": 375,
      "ess": 376,
      "Ġha": 377,
      "Ġde": 378,
      "ts": 379,
      "ies": 380,
      "ore": 381,
      "Ġex": 382,
      "Ġsu": 383,
      "ab": 384,
      "ke": 385,
      "ect": 386,
      "Ġwe": 387,
      "Ġcom": 388,
      "us": 389,
      "ĠB": 390,
      "ld": 391,
      "ive": 392,
      "ac": 393,
      "ity": 394,
      "um": 395,
      "rom": 396,
      "Ġcan": 397,
      "res": 398,
      "Ġv": 399,
      "ist": 400,
      "est": 401,
      "igh": 402,
      "os": 403,
      "qu": 404,
      "Ġat": 405,
      "ĠH": 406,
      "ain": 407,
      "em": 408,
      "Ġby": 409,
      "ĠW": 410,
      "Ġch": 411,
      "iv": 412,
      "ud": 413,
      "pp": 414,
      "Ġfrom": 415,
      "Ġne": 416,
      "ĠD": 417,
      "and": 418,
      "Ġr": 419,
      "nt": 420,
      "ĠE": 421,
      "Ġwas": 422,
      "Ġse": 423,
      "oc": 424,
      "Ġle": 425,
      "ant": 426,
      "Ġhave": 427,
      "ure": 428,
      "ial": 429,
      "ĠF": 430,
      "un": 431,
      "Ġnot": 432,
      "ĠR": 433,
      "ort": 434,
      "Ġsh": 435,
      "ical": 436,
      "Ġen": 437,
      "Ġsp": 438,
      "art": 439,
      "Ġthis": 440,
      "og": 441,
      "ĠN": 442,
      "The": 443,
      "ri": 444,
      "ĠG": 445,
      "Ġab": 446,
      "Ġwor": 447,
      "ĠL": 448,
      "all": 449,
      "Ġyour": 450,
      "rou": 451,
      "our": 452,
      "ome": 453,
      "ould": 454,
      "ost": 455,
      "gh": 456,
      "Ġus": 457,
      "out": 458,
      "red": 459,
      "ich": 460,
      "Ġpl": 461,
      "du": 462,
      "Ġim": 463,
      "ight": 464,
      "ions": 465,
      "ine": 466,
      "ap": 467,
      "ther": 468,
      "ard": 469,
      "ide": 470,
      "ell": 471,
      "Ġtheir": 472,
      "ear": 473,
      "ag": 474,
      "ated": 475,
      "act": 476,
      "ff": 477,
      "Ġk": 478,
      "Ġwill": 479,
      "ood": 480,
      "age": 481,
      "ak": 482,
      "Ġint": 483,
      "âĢľ": 484,
      "Ġwhe": 485,
      "ast": 486,
      "Ġthey": 487,
      "âĢĿ": 488,
      "pl": 489,
      "ust": 490,
      "ĠO": 491,
      "per": 492,
      "Ġall": 493,
      "Ġmore": 494,
      "ans": 495,
      "pt": 496,
      "00": 497,
      "ec": 498,
      "Ġwhich": 499,
      "ous": 500,
      "ĠU": 501,
      "Ġad": 502,
      "Ġinc": 503,
      "Ġdis": 504,
      "end": 505,
      "ild": 506,
      "Ġdo": 507,
      "ren": 508,
      "iz": 509,
      "cc": 510,
      "Ġcont": 511,
      "ong": 512,
      "ib": 513,
      "ru": 514,
      "Ġhas": 515,
      "vel": 516,
      "ater": 517,
      "Ġcomp": 518,
      "so": 519,
      "ĠIn": 520,
      "ip": 521,
      "Ġres": 522,
      "Ġme": 523,
      "orm": 524,
      "ia": 525,
      "ew": 526,
      "ks": 527,
      "Ġte": 528,
      "ations": 529,
      "able": 530,
      "ĠJ": 531,
      "ind": 532,
      "Ġcl": 533,
      "ake": 534,
      "Ġbut": 535,
      "Ġman": 536,
      "ĠTh": 537,
      "Ġother": 538,
      "ry": 539,
      "ents": 540,
      "ep": 541,
      "ary": 542,
      "oo": 543,
      "ally": 544,
      "ence": 545,
      "reat": 546,
      "ach": 547,
      "Ġso": 548,
      "Ġone": 549,
      "Ġimp": 550,
      "Ġalso": 551,
      "ult": 552,
      "Ġper": 553,
      "ass": 554,
      "ase": 555,
      "are": 556,
      "ance": 557,
      "Ġout": 558,
      "Ġstud": 559,
      "Ġabout": 560,
      "very": 561,
      "au": 562,
      "one": 563,
      "Ġj": 564,
      "ign": 565,
      "av": 566,
      "ress": 567,
      "ace": 568,
      "ice": 569,
      "Ġtim": 570,
      "Ġwho": 571,
      "Ġwere": 572,
      "19": 573,
      "fe": 574,
      "ition": 575,
      "ction": 576,
      "ike": 577,
      "ord": 578,
      "Ġpe": 579,
      "Ġar": 580,
      "Ġthem": 581,
      "Ġun": 582,
      "Ġapp": 583,
      "ack": 584,
      "now": 585,
      "Ġsc": 586,
      "Ġinf": 587,
      "ber": 588,
      "ite": 589,
      "ory": 590,
      "Ġup": 591,
      "ound": 592,
      "Ġev": 593,
      "ens": 594,
      "ame": 595,
      "ish": 596,
      "ire": 597,
      "ĠSt": 598,
      "ors": 599,
      "Ġsy": 600,
      "ose": 601,
      "Ġhis": 602,
      "low": 603,
      "ue": 604,
      "ang": 605,
      "Ġcomm": 606,
      "20": 607,
      "ces": 608,
      "ree": 609,
      "ount": 610,
      "Ġthan": 611,
      "ays": 612,
      "Ġmay": 613,
      "ub": 614,
      "Ġqu": 615,
      "ric": 616,
      "ile": 617,
      "olog": 618,
      "Ġpre": 619,
      "Ġpart": 620,
      "ople": 621,
      "Ġyear": 622,
      "Ġwhen": 623,
      "Ġbec": 624,
      "ĠIt": 625,
      "ie": 626,
      "Ġsome": 627,
      "Ġsa": 628,
      "Ġrec": 629,
      "Ġour": 630,
      "king": 631,
      "Ġhow": 632,
      "ĠK": 633,
      "ough": 634,
      "Ġthere": 635,
      "ings": 636,
      "nder": 637,
      "Ġinto": 638,
      "ail": 639,
      "Ġtime": 640,
      "Ġgo": 641,
      "Ġuse": 642,
      "alth": 643,
      "Ġpeople": 644,
      "Ġbeen": 645,
      "vers": 646,
      "mer": 647,
      "ĠThis": 648,
      "Ġlike": 649,
      "Ġtra": 650,
      "row": 651,
      "rough": 652,
      "Ġknow": 653,
      "Ġcol": 654,
      "ates": 655,
      "Ġbl": 656,
      "Ġover": 657,
      "Ġthese": 658,
      "Ġhel": 659,
      "erv": 660,
      "ause": 661,
      "lud": 662,
      "Ġits": 663,
      "te": 664,
      "ove": 665,
      "Ġag": 666,
      "Ġdif": 667,
      "ll": 668,
      "ĠCh": 669,
      "Ġchild": 670,
      "Ġro": 671,
      "ons": 672,
      "ph": 673,
      "ning": 674,
      "Ġmost": 675,
      "rit": 676,
      "Ġra": 677,
      "rent": 678,
      "Ġneed": 679,
      "Ġhelp": 680,
      "ian": 681,
      "ms": 682,
      "ual": 683,
      "Ġnew": 684,
      "les": 685,
      "Ġif": 686,
      "ond": 687,
      "Ġcons": 688,
      "we": 689,
      "Ġbet": 690,
      "ĠY": 691,
      "Ġact": 692,
      "ool": 693,
      "âĢĵ": 694,
      "Ġtr": 695,
      "velop": 696,
      "ities": 697,
      "lect": 698,
      "ys": 699,
      "Ġunder": 700,
      "irst": 701,
      "tern": 702,
      "ject": 703,
      "Ġacc": 704,
      "ĠV": 705,
      "Ġwhat": 706,
      "ific": 707,
      "Ġhad": 708,
      "ments": 709,
      "stem": 710,
      "Ġdes": 711,
      "ffect": 712,
      "Ġwould": 713,
      "Ġsuch": 714,
      "Ġtw": 715,
      "lic": 716,
      "Ġinclud": 717,
      "ient": 718,
      "ious": 719,
      "Ġany": 720,
      "ook": 721,
      "Ġused": 722,
      "ob": 723,
      "Ġwork": 724,
      "hed": 725,
      "Ġprodu": 726,
      "Ġfe": 727,
      "ating": 728,
      "yp": 729,
      "cess": 730,
      "Ġam": 731,
      "Ġrep": 732,
      "round": 733,
      "ple": 734,
      "ational": 735,
      "Ġmany": 736,
      "Ġdevelop": 737,
      "Ġph": 738,
      "Ġthrough": 739,
      "Ġdi": 740,
      "Ġno": 741,
      "Ġprov": 742,
      "ular": 743,
      "Ġgen": 744,
      "Ġrel": 745,
      "Ġonly": 746,
      "uc": 747,
      "Ġspec": 748,
      "ative": 749,
      "ise": 750,
      "ful": 751,
      "eth": 752,
      "Ġfirst": 753,
      "hen": 754,
      "ov": 755,
      "Ġpr": 756,
      "ath": 757,
      "ced": 758,
      "ics": 759,
      "Ġwater": 760,
      "ĠUn": 761,
      "oth": 762,
      "oin": 763,
      "oss": 764,
      "ĠHe": 765,
      "Ġher": 766,
      "fter": 767,
      "ark": 768,
      "Ġac": 769,
      "Ġoff": 770,
      "Ġdiffe": 771,
      "uring": 772,
      "Ġhealth": 773,
      "Ġadd": 774,
      "Ġind": 775,
      "als": 776,
      "ne": 777,
      "Ġtwo": 778,
      "iss": 779,
      "Ġsystem": 780,
      "old": 781,
      "ife": 782,
      "ble": 783,
      "ange": 784,
      "Ġfl": 785,
      "Ġem": 786,
      "ten": 787,
      "Ġshould": 788,
      "Ġreg": 789,
      "Ġexp": 790,
      "Ġwell": 791,
      "Ġsur": 792,
      "Ġmake": 793,
      "ible": 794,
      "ting": 795,
      "Ġmy": 796,
      "own": 797,
      "In": 798,
      "fore": 799,
      "hat": 800,
      "ram": 801,
      "ased": 802,
      "ures": 803,
      "Ġdec": 804,
      "Ġsm": 805,
      "Ġget": 806,
      "sel": 807,
      "ng": 808,
      "ility": 809,
      "chool": 810,
      "rop": 811,
      "arch": 812,
      "Ġrese": 813,
      "erm": 814,
      "Ġob": 815,
      "ower": 816,
      "Ġrem": 817,
      "rib": 818,
      "Ġyears": 819,
      "wn": 820,
      "Ġcould": 821,
      "Ġass": 822,
      "ract": 823,
      "Ġsupp": 824,
      "ade": 825,
      "Ġatt": 826,
      "ert": 827,
      "Ġlear": 828,
      "Ġhigh": 829,
      "its": 830,
      "hes": 831,
      "âĢĶ": 832,
      "chn": 833,
      "Ġwhere": 834,
      "Ġbu": 835,
      "uch": 836,
      "Ġinv": 837,
      "Ġsaid": 838,
      "ience": 839,
      "ween": 840,
      "ick": 841,
      "Ġco": 842,
      "xt": 843,
      "201": 844,
      "Ġimport": 845,
      "ink": 846,
      "cy": 847,
      "ily": 848,
      "ants": 849,
      "gan": 850,
      "ology": 851,
      "ied": 852,
      "Ġpres": 853,
      "Ġbetween": 854,
      "Ġear": 855,
      "Th": 856,
      "Ġsub": 857,
      "erg": 858,
      "Ġsee": 859,
      "Ġcar": 860,
      "ever": 861,
      "Ġfound": 862,
      "ss": 863,
      "Ġpers": 864,
      "ormation": 865,
      "Ġway": 866,
      "ted": 867,
      "Ġworld": 868,
      "ural": 869,
      "Ġke": 870,
      "Ġlong": 871,
      "Ġthen": 872,
      "Ġnum": 873,
      "Ġvery": 874,
      "Ġinst": 875,
      "Ġexam": 876,
      "Ġtrans": 877,
      "Ġshe": 878,
      "Ġdifferent": 879,
      "ually": 880,
      "ution": 881,
      "aking": 882,
      "ists": 883,
      "Ġjust": 884,
      "Ġform": 885,
      "18": 886,
      "Ġchildren": 887,
      "Ġtyp": 888,
      "Ġdisc": 889,
      "200": 890,
      "meric": 891,
      "land": 892,
      "Ġmed": 893,
      "urn": 894,
      "Ġexper": 895,
      "get": 896,
      "ines": 897,
      "iet": 898,
      "ef": 899,
      "ata": 900,
      "Ġeven": 901,
      "ron": 902,
      "ident": 903,
      "aw": 904,
      "ited": 905,
      "Ġed": 906,
      "Ġbecause": 907,
      "ft": 908,
      "ins": 909,
      "Ġevery": 910,
      "Ġstudents": 911,
      "Ġsim": 912,
      "Ġlar": 913,
      "other": 914,
      "ivers": 915,
      "Ġmod": 916,
      "Ġeffect": 917,
      "Ġafter": 918,
      "Ġinter": 919,
      "Ġincre": 920,
      "vent": 921,
      "ature": 922,
      "ds": 923,
      "Ġdet": 924,
      "Ġfood": 925,
      "Ġhum": 926,
      "Ġcount": 927,
      "Ġcall": 928,
      "ives": 929,
      "oy": 930,
      "iron": 931,
      "Ġtechn": 932,
      "Ġprog": 933,
      "Ġpol": 934,
      "Ġgra": 935,
      "ody": 936,
      "arm": 937,
      "Ġcent": 938,
      "Ġsk": 939,
      "Ġread": 940,
      "ollow": 941,
      "Ġeach": 942,
      "cer": 943,
      "ĠAmeric": 944,
      "Ġthose": 945,
      "Ġimportant": 946,
      "ically": 947,
      "Ġpat": 948,
      "Ġmuch": 949,
      "ict": 950,
      "ness": 951,
      "Ġvar": 952,
      "Ġlife": 953,
      "Ġprocess": 954,
      "Ġcre": 955,
      "tle": 956,
      "Ġsign": 957,
      "ere": 958,
      "ck": 959,
      "ases": 960,
      "10": 961,
      "Ġinformation": 962,
      "Ġart": 963,
      "Ġresp": 964,
      "ues": 965,
      "Ġfind": 966,
      "Ġbeing": 967,
      "ages": 968,
      "led": 969,
      "Ġpub": 970,
      "Ġext": 971,
      "Ġgener": 972,
      "Ġschool": 973,
      "Ġloc": 974,
      "Ġset": 975,
      "Ġche": 976,
      "Ġgood": 977,
      "ĠWe": 978,
      "iew": 979,
      "Ġstudy": 980,
      "ather": 981,
      "omm": 982,
      "Ġmon": 983,
      "Ġfam": 984,
      "ps": 985,
      "Ġgrow": 986,
      "form": 987,
      "Ġhim": 988,
      "Ġown": 989,
      "Ġcommun": 990,
      "ĠIf": 991,
      "Ġcur": 992,
      "Ġfact": 993,
      "ĠThey": 994,
      "ruct": 995,
      "cent": 996,
      "ices": 997,
      "ĠPro": 998,
      "ĠAl": 999,
      "Ġrequ": 1000,
      "Ġsec": 1001,
      "Ġpartic": 1002,
      "Ġlevel": 1003,
      "Ġback": 1004,
      "Ġmade": 1005,
      "con": 1006,
      "the": 1007,
      "Ġdoes": 1008,
      "Ġlead": 1009,
      "Ġgl": 1010,
      "Ġduring": 1011,
      "Ġproble": 1012,
      "Ġav": 1013,
      "viron": 1014,
      "gg": 1015,
      "Ġfollow": 1016,
      "Ġusing": 1017,
      "Ġdep": 1018,
      "Ġent": 1019,
      "Ġdist": 1020,
      "ward": 1021,
      "ize": 1022,
      "Ġdata": 1023,
      "ergy": 1024,
      "Ġsoc": 1025,
      "Ġday": 1026,
      "Ġmin": 1027,
      "Ġperson": 1028,
      "Ġins": 1029,
      "stand": 1030,
      "Ġshow": 1031,
      "ism": 1032,
      "Ġtake": 1033,
      "Ġbefore": 1034,
      "Ġdise": 1035,
      "any": 1036,
      "Ġnow": 1037,
      "read": 1038,
      "Ġstr": 1039,
      "io": 1040,
      "ork": 1041,
      "Ġsame": 1042,
      "oun": 1043,
      "orn": 1044,
      "ection": 1045,
      "Ġsmall": 1046,
      "ĠRe": 1047,
      "ĠAs": 1048,
      "Ġsol": 1049,
      "Ġexpl": 1050,
      "Ġend": 1051,
      "Ġaut": 1052,
      "Ġtreat": 1053,
      "This": 1054,
      "akes": 1055,
      "Ġtoo": 1056,
      "Ġless": 1057,
      "cept": 1058,
      "hers": 1059,
      "ale": 1060,
      "Ġoften": 1061,
      "und": 1062,
      "ized": 1063,
      "ave": 1064,
      "ix": 1065,
      "rain": 1066,
      "Ġresearch": 1067,
      "Ġhand": 1068,
      "Ġboth": 1069,
      "Ġbr": 1070,
      "Ġbody": 1071,
      "ars": 1072,
      "ved": 1073,
      "hip": 1074,
      "vironment": 1075,
      "Ġhist": 1076,
      "Ġris": 1077,
      "omen": 1078,
      "Ġdown": 1079,
      "Ġcomple": 1080,
      "Ġwhile": 1081,
      "Ġlit": 1082,
      "Ġpop": 1083,
      "Ġdef": 1084,
      "Ġaround": 1085,
      "Ġprot": 1086,
      "Ġvis": 1087,
      "Ġref": 1088,
      "ĠFor": 1089,
      "imate": 1090,
      "ĠYou": 1091,
      "ality": 1092,
      "ĠAn": 1093,
      "ĠHow": 1094,
      "Ġmain": 1095,
      "ially": 1096,
      "ince": 1097,
      "Ġca": 1098,
      "ty": 1099,
      "ute": 1100,
      "air": 1101,
      "iel": 1102,
      "vern": 1103,
      "Ġgrou": 1104,
      "day": 1105,
      "ides": 1106,
      "iversity": 1107,
      "Ġdesign": 1108,
      "Ġfun": 1109,
      "ien": 1110,
      "iving": 1111,
      "ished": 1112,
      "Ġpar": 1113,
      "iqu": 1114,
      "Ġagain": 1115,
      "ĠSp": 1116,
      "Ġclass": 1117,
      "der": 1118,
      "self": 1119,
      "Ġserv": 1120,
      "ax": 1121,
      "Ġposs": 1122,
      "Ġcommon": 1123,
      "ock": 1124,
      "dition": 1125,
      "Ġpo": 1126,
      "Ġredu": 1127,
      "ivid": 1128,
      "Ġval": 1129,
      "rol": 1130,
      "Ġnumber": 1131,
      "ĠSc": 1132,
      "Ġactiv": 1133,
      "up": 1134,
      "Ġocc": 1135,
      "iety": 1136,
      "inal": 1137,
      "Ġmust": 1138,
      "ĠCon": 1139,
      "ier": 1140,
      "ger": 1141,
      "Ġplan": 1142,
      "ves": 1143,
      "Ġgreat": 1144,
      "irect": 1145,
      "ĠAr": 1146,
      "Ġelect": 1147,
      "Ġchar": 1148,
      "Ġpower": 1149,
      "Ġstate": 1150,
      "ium": 1151,
      "Ġcare": 1152,
      "ains": 1153,
      "Ġthree": 1154,
      "ids": 1155,
      "Ġcell": 1156,
      "ital": 1157,
      "ury": 1158,
      "ters": 1159,
      "ouse": 1160,
      "ral": 1161,
      "Ġcle": 1162,
      "ull": 1163,
      "oint": 1164,
      "Ġcap": 1165,
      "âĢĺ": 1166,
      "Ġorgan": 1167,
      "000": 1168,
      "ven": 1169,
      "Ġbel": 1170,
      "ex": 1171,
      "Ġbuild": 1172,
      "Ġmem": 1173,
      "Ġdr": 1174,
      "Ġunderstand": 1175,
      "ving": 1176,
      "Ġlearn": 1177,
      "Ġhuman": 1178,
      "Ġallow": 1179,
      "Ġthough": 1180,
      "ĠNew": 1181,
      "cl": 1182,
      "Ġeduc": 1183,
      "Ġeas": 1184,
      "ĠBut": 1185,
      "ĠInd": 1186,
      "Ġaw": 1187,
      "aterial": 1188,
      "reen": 1189,
      "oh": 1190,
      "Ġser": 1191,
      "Ġdid": 1192,
      "Ġstart": 1193,
      "oms": 1194,
      "Ġenergy": 1195,
      "Ġincluding": 1196,
      "gen": 1197,
      "Ġsom": 1198,
      "Ġland": 1199,
      "ross": 1200,
      "Ġop": 1201,
      "acter": 1202,
      "ulation": 1203,
      "de": 1204,
      "Ġstill": 1205,
      "Ġknown": 1206,
      "Ġexample": 1207,
      "Ġcalled": 1208,
      "Ġlarge": 1209,
      "Ġtest": 1210,
      "Ġwant": 1211,
      "Ġcour": 1212,
      "ee": 1213,
      "ash": 1214,
      "Ġdon": 1215,
      "Ġmight": 1216,
      "Ġmet": 1217,
      "ets": 1218,
      "com": 1219,
      "Ġwrit": 1220,
      "Ġenvironment": 1221,
      "ional": 1222,
      "Ġcontin": 1223,
      "anc": 1224,
      "ources": 1225,
      "aj": 1226,
      "ared": 1227,
      "me": 1228,
      "outh": 1229,
      "Ġadv": 1230,
      "Ġcaus": 1231,
      "ĠThere": 1232,
      "Ġsupport": 1233,
      "ering": 1234,
      "Ġbeh": 1235,
      "Ġquest": 1236,
      "Ġpract": 1237,
      "Ġequ": 1238,
      "Ġplace": 1239,
      "Ġdisease": 1240,
      "uss": 1241,
      "Ġest": 1242,
      "Ġfew": 1243,
      "Ġbo": 1244,
      "Ġplay": 1245,
      "Ġhome": 1246,
      "Ġcor": 1247,
      "ults": 1248,
      "itions": 1249,
      "iver": 1250,
      "ries": 1251,
      "Ġright": 1252,
      "15": 1253,
      "Ġgu": 1254,
      "Ġproject": 1255,
      "Ġlook": 1256,
      "ined": 1257,
      "ected": 1258,
      "Ġproduct": 1259,
      "Ġmaterial": 1260,
      "bs": 1261,
      "Ġchange": 1262,
      "line": 1263,
      "It": 1264,
      "els": 1265,
      "Ġret": 1266,
      "ential": 1267,
      "Ġve": 1268,
      "agn": 1269,
      "Ġide": 1270,
      "ording": 1271,
      "Ġblood": 1272,
      "ired": 1273,
      "Ġbre": 1274,
      "ĠAnd": 1275,
      "Ġmat": 1276,
      "illion": 1277,
      "Ġtem": 1278,
      "Ġimpro": 1279,
      "Ġstand": 1280,
      "ah": 1281,
      "Ġsym": 1282,
      "Ġpain": 1283,
      "angu": 1284,
      "Ġben": 1285,
      "Ġbest": 1286,
      "Ġconf": 1287,
      "ĠWh": 1288,
      "Ġwithout": 1289,
      "Ġhere": 1290,
      "Ġconst": 1291,
      "to": 1292,
      "ĠUniversity": 1293,
      "Ġair": 1294,
      "Ġchang": 1295,
      "eng": 1296,
      "What": 1297,
      "Ġpublic": 1298,
      "Ġgovern": 1299,
      "ĠThese": 1300,
      "iven": 1301,
      "raph": 1302,
      "itive": 1303,
      "iod": 1304,
      "Ġmus": 1305,
      "Ġphys": 1306,
      "osed": 1307,
      "Ġpur": 1308,
      "Ġprof": 1309,
      "Ġiss": 1310,
      "ills": 1311,
      "ividual": 1312,
      "Ġappro": 1313,
      "Ġpot": 1314,
      "erest": 1315,
      "arc": 1316,
      "Ġarea": 1317,
      "iness": 1318,
      "Ġinclude": 1319,
      "ĠEng": 1320,
      "Ġbetter": 1321,
      "Ġpass": 1322,
      "ason": 1323,
      "Ġkeep": 1324,
      "Ġlight": 1325,
      "Ġpresent": 1326,
      "ights": 1327,
      "Ġrisk": 1328,
      "lish": 1329,
      "ption": 1330,
      "Ġwomen": 1331,
      "ffic": 1332,
      "orts": 1333,
      "esp": 1334,
      "ertain": 1335,
      "Ġdevelopment": 1336,
      "Ġsit": 1337,
      "Ġeng": 1338,
      "oci": 1339,
      "less": 1340,
      "rence": 1341,
      "12": 1342,
      "ense": 1343,
      "Ġmeth": 1344,
      "Ġold": 1345,
      "Ġwithin": 1346,
      "ination": 1347,
      "Ġcause": 1348,
      "ats": 1349,
      "bers": 1350,
      "erc": 1351,
      "sp": 1352,
      "Ġresult": 1353,
      "Ġanother": 1354,
      "atural": 1355,
      "Ġprogram": 1356,
      "Ġident": 1357,
      "Ġlearning": 1358,
      "ways": 1359,
      "ead": 1360,
      "ource": 1361,
      "Ġimm": 1362,
      "gin": 1363,
      "Ġdirect": 1364,
      "Ġanim": 1365,
      "Ġtre": 1366,
      "Ġsl": 1367,
      "conom": 1368,
      "Ġindividual": 1369,
      "ner": 1370,
      "Ġmeas": 1371,
      "ify": 1372,
      "ior": 1373,
      "ental": 1374,
      "ime": 1375,
      "Ġsay": 1376,
      "rodu": 1377,
      "Ġreport": 1378,
      "sc": 1379,
      "Ġbas": 1380,
      "Ġbecome": 1381,
      "ton": 1382,
      "ration": 1383,
      "ider": 1384,
      "here": 1385,
      "ĠIs": 1386,
      "Ġtop": 1387,
      "Ġlow": 1388,
      "ield": 1389,
      "Ġrest": 1390,
      "inc": 1391,
      "ĠAmerican": 1392,
      "Ġinterest": 1393,
      "orth": 1394,
      "Ġbelie": 1395,
      "use": 1396,
      "Ġdem": 1397,
      "ank": 1398,
      "ote": 1399,
      "ived": 1400,
      "30": 1401,
      "Ġprovide": 1402,
      "ĠDe": 1403,
      "ization": 1404,
      "ered": 1405,
      "Ġthink": 1406,
      "If": 1407,
      "Ġlast": 1408,
      "Ġproper": 1409,
      "ards": 1410,
      "man": 1411,
      "Ġsever": 1412,
      "aren": 1413,
      "Ġdev": 1414,
      "Ġpercent": 1415,
      "17": 1416,
      "ability": 1417,
      "50": 1418,
      "ently": 1419,
      "Ġavail": 1420,
      "Ġhistory": 1421,
      "Ġmeans": 1422,
      "Ġhapp": 1423,
      "Ġfeel": 1424,
      "Ġable": 1425,
      "Ġpos": 1426,
      "Ġaffect": 1427,
      "ris": 1428,
      "rap": 1429,
      "ories": 1430,
      "Ġscient": 1431,
      "Ġant": 1432,
      "Ġplant": 1433,
      "az": 1434,
      "ĠAd": 1435,
      "lished": 1436,
      "Ġearly": 1437,
      "ccess": 1438,
      "We": 1439,
      "icle": 1440,
      "Ġspecies": 1441,
      "Ġcome": 1442,
      "ajor": 1443,
      "Ġsays": 1444,
      "Ġbenef": 1445,
      "ĠWhen": 1446,
      "ĠSh": 1447,
      "Ġopp": 1448,
      "Ġfamily": 1449,
      "ĠPh": 1450,
      "Ġcal": 1451,
      "Ġcontrol": 1452,
      "ified": 1453,
      "Ġmethod": 1454,
      "Ġoccur": 1455,
      "Ġmove": 1456,
      "Ġmark": 1457,
      "ients": 1458,
      "Ġsocial": 1459,
      "ĠRes": 1460,
      "Ġnear": 1461,
      "Ġlet": 1462,
      "Ġmar": 1463,
      "ĠPl": 1464,
      "Ġcurrent": 1465,
      "tain": 1466,
      "Ġlangu": 1467,
      "ological": 1468,
      "eral": 1469,
      "Ġpossible": 1470,
      "Ġthings": 1471,
      "Ġreal": 1472,
      "oid": 1473,
      "Ġcult": 1474,
      "ining": 1475,
      "Ġhead": 1476,
      "ĠEx": 1477,
      "hor": 1478,
      "Ġspe": 1479,
      "Ġwee": 1480,
      "ĠHowever": 1481,
      "eg": 1482,
      "Ġbus": 1483,
      "Ġele": 1484,
      "Ġopen": 1485,
      "Ġanal": 1486,
      "cle": 1487,
      "Ġprevent": 1488,
      "Ġunt": 1489,
      "Ġfore": 1490,
      "Ġdesc": 1491,
      "tt": 1492,
      "Ġmean": 1493,
      "ĠCol": 1494,
      "Ġorder": 1495,
      "Ġcost": 1496,
      "Ġsecond": 1497,
      "ends": 1498,
      "Ġseveral": 1499,
      "amp": 1500,
      "Ġey": 1501,
      "Ġmil": 1502,
      "ission": 1503,
      "ograph": 1504,
      "Ġareas": 1505,
      "Ġperform": 1506,
      "Ġgroup": 1507,
      "Ġindu": 1508,
      "atic": 1509,
      "Ġaddition": 1510,
      "Ġfin": 1511,
      "16": 1512,
      "Ġlist": 1513,
      "Ġname": 1514,
      "ĠTo": 1515,
      "ĠCl": 1516,
      "Ġeconom": 1517,
      "Ġcreat": 1518,
      "ians": 1519,
      "Ġtreatment": 1520,
      "Ġlittle": 1521,
      "Ġaccess": 1522,
      "ern": 1523,
      "Ġsw": 1524,
      "ug": 1525,
      "Ġleg": 1526,
      "Ġhig": 1527,
      "ik": 1528,
      "Ġwar": 1529,
      "ention": 1530,
      "Ġavailable": 1531,
      "Ġtimes": 1532,
      "ator": 1533,
      "be": 1534,
      "ision": 1535,
      "ling": 1536,
      "view": 1537,
      "Ġinvol": 1538,
      "Ġdiff": 1539,
      "Ġoper": 1540,
      "par": 1541,
      "Ġbir": 1542,
      "ĠQ": 1543,
      "ĠUnited": 1544,
      "Ġparticular": 1545,
      "ĠOn": 1546,
      "Ġput": 1547,
      "Ġmajor": 1548,
      "Ġyoung": 1549,
      "Ġel": 1550,
      "Ġprom": 1551,
      "ples": 1552,
      "199": 1553,
      "Wh": 1554,
      "Ġothers": 1555,
      "ocus": 1556,
      "osp": 1557,
      "Ġsince": 1558,
      "Ġagainst": 1559,
      "ĠCan": 1560,
      "Ġhard": 1561,
      "Ġfree": 1562,
      "Ġmonth": 1563,
      "ames": 1564,
      "ope": 1565,
      "aper": 1566,
      "Ġtype": 1567,
      "Ġflow": 1568,
      "Ġinfl": 1569,
      "ogn": 1570,
      "ots": 1571,
      "Ġcountry": 1572,
      "Ġage": 1573,
      "alk": 1574,
      "Ġpost": 1575,
      "ortun": 1576,
      "How": 1577,
      "ething": 1578,
      "Ġbook": 1579,
      "cing": 1580,
      "Ġfour": 1581,
      "Ġrun": 1582,
      "Ġheart": 1583,
      "Ġperiod": 1584,
      "Ġter": 1585,
      "ring": 1586,
      "ane": 1587,
      "Ġmaking": 1588,
      "ateg": 1589,
      "ĠCent": 1590,
      "imes": 1591,
      "Ġfollowing": 1592,
      "ĠTe": 1593,
      "ones": 1594,
      "ina": 1595,
      "Ġproblems": 1596,
      "of": 1597,
      "ooks": 1598,
      "ĠSe": 1599,
      "Ġmen": 1600,
      "Ġfac": 1601,
      "Ġgr": 1602,
      "Ġdel": 1603,
      "Ġproblem": 1604,
      "Ġimpact": 1605,
      "ret": 1606,
      "Ġgovernment": 1607,
      "Ġnatural": 1608,
      "omp": 1609,
      "ĠEn": 1610,
      "Ġbased": 1611,
      "Ġlevels": 1612,
      "Ġlim": 1613,
      "Ġpress": 1614,
      "Ġcomput": 1615,
      "Ġtechnology": 1616,
      "Ġorig": 1617,
      "Ġlaw": 1618,
      "Ġcreate": 1619,
      "Ġcertain": 1620,
      "Ġresearc": 1621,
      "idence": 1622,
      "ended": 1623,
      "Ġconn": 1624,
      "As": 1625,
      "Ġcond": 1626,
      "rist": 1627,
      "Ġturn": 1628,
      "Ġnon": 1629,
      "ole": 1630,
      "There": 1631,
      "aster": 1632,
      "Ġgive": 1633,
      "Ġteac": 1634,
      "ĠNational": 1635,
      "Ġbi": 1636,
      "Ġobject": 1637,
      "Ġpoint": 1638,
      "ĠWhat": 1639,
      "Ġamong": 1640,
      "yd": 1641,
      "ilar": 1642,
      "though": 1643,
      "Ġsignific": 1644,
      "icult": 1645,
      "urop": 1646,
      "Ġfocus": 1647,
      "Ġfre": 1648,
      "une": 1649,
      "ĠBe": 1650,
      "Ġbrain": 1651,
      "Ġrece": 1652,
      "Ġsomething": 1653,
      "Ġfar": 1654,
      "Ġwords": 1655,
      "not": 1656,
      "ances": 1657,
      "uture": 1658,
      "ised": 1659,
      "ests": 1660,
      "ptoms": 1661,
      "Ġbro": 1662,
      "Ġlocal": 1663,
      "Ġindust": 1664,
      "ĠStates": 1665,
      "Ġtoday": 1666,
      "Ġprovid": 1667,
      "Ġcourse": 1668,
      "sy": 1669,
      "ĠWor": 1670,
      "Ġcells": 1671,
      "ox": 1672,
      "br": 1673,
      "Ġlab": 1674,
      "Ġdays": 1675,
      "ably": 1676,
      "Ġess": 1677,
      "Ġstruct": 1678,
      "Ġshort": 1679,
      "Ġconsum": 1680,
      "For": 1681,
      "Ġeducation": 1682,
      "14": 1683,
      "Ġspace": 1684,
      "Ġcancer": 1685,
      "Ġalways": 1686,
      "urther": 1687,
      "over": 1688,
      "Ġuntil": 1689,
      "ĠAt": 1690,
      "Ġcase": 1691,
      "Ġmult": 1692,
      "ately": 1693,
      "Ġlikely": 1694,
      "ours": 1695,
      "atch": 1696,
      "Ġmillion": 1697,
      "Ġalong": 1698,
      "Ġusually": 1699,
      "Ġwhy": 1700,
      "work": 1701,
      "Ġplants": 1702,
      "ape": 1703,
      "Ġsuccess": 1704,
      "ww": 1705,
      "port": 1706,
      "St": 1707,
      "elf": 1708,
      "Ġintern": 1709,
      "Ġvol": 1710,
      "Ġtemper": 1711,
      "Ġdue": 1712,
      "ither": 1713,
      "Ġview": 1714,
      "ĠZ": 1715,
      "int": 1716,
      "Ġneeds": 1717,
      "Ġlanguage": 1718,
      "ĠComm": 1719,
      "Ġpast": 1720,
      "Ġprofess": 1721,
      "Ġfil": 1722,
      "Ġseem": 1723,
      "ont": 1724,
      "Ġtool": 1725,
      "face": 1726,
      "Ġenc": 1727,
      "ledge": 1728,
      "ured": 1729,
      "Ġdra": 1730,
      "Ġrad": 1731,
      "ression": 1732,
      "Ġincrease": 1733,
      "ication": 1734,
      "ploy": 1735,
      "stit": 1736,
      "atory": 1737,
      "urope": 1738,
      "Ġteam": 1739,
      "aps": 1740,
      "obal": 1741,
      "aken": 1742,
      "Ġvir": 1743,
      "oad": 1744,
      "Ġnext": 1745,
      "Ġcomb": 1746,
      "ried": 1747,
      "Ġsystems": 1748,
      "ĠAf": 1749,
      "Ġdeterm": 1750,
      "hem": 1751,
      "Ġtoget": 1752,
      "Ġtogether": 1753,
      "aves": 1754,
      "Ġfunction": 1755,
      "Ġcommunity": 1756,
      "Ġaway": 1757,
      "Ġdeath": 1758,
      "Ġworks": 1759,
      "Ġspecial": 1760,
      "Ġcir": 1761,
      "Ġtry": 1762,
      "ending": 1763,
      "agement": 1764,
      "ĠEar": 1765,
      "Ġdam": 1766,
      "Ġgiven": 1767,
      "Ġassoci": 1768,
      "ecially": 1769,
      "app": 1770,
      "Ġrele": 1771,
      "Ġways": 1772,
      "Ġinvest": 1773,
      "Ġill": 1774,
      "Ġcontain": 1775,
      "sw": 1776,
      "Ġexperience": 1777,
      "Ġeffective": 1778,
      "Ġbehav": 1779,
      "Ġenough": 1780,
      "Ġfuture": 1781,
      "resent": 1782,
      "Ġchem": 1783,
      "ĠGod": 1784,
      "Ġresults": 1785,
      "Ġappear": 1786,
      "etic": 1787,
      "Ġimprove": 1788,
      "bit": 1789,
      "Ġet": 1790,
      "To": 1791,
      "Ġsing": 1792,
      "asing": 1793,
      "Ġsugg": 1794,
      "Ġdifficult": 1795,
      "Ġsignificant": 1796,
      "Ġsure": 1797,
      "hing": 1798,
      "ators": 1799,
      "ged": 1800,
      "Ġbegin": 1801,
      "ique": 1802,
      "Ġnever": 1803,
      "ember": 1804,
      "Ġkey": 1805,
      "Ġworking": 1806,
      "Ġacross": 1807,
      "Ġkind": 1808,
      "icro": 1809,
      "thing": 1810,
      "ĠMed": 1811,
      "ray": 1812,
      "ĠEurope": 1813,
      "11": 1814,
      "aring": 1815,
      "Ġrecord": 1816,
      "ym": 1817,
      "Ġfull": 1818,
      "especially": 1819,
      "oot": 1820,
      "Ġspecific": 1821,
      "Ġmov": 1822,
      "Ġsymptoms": 1823,
      "Ġside": 1824,
      "ĠOr": 1825,
      "olution": 1826,
      "ĠBl": 1827,
      "Ġconditions": 1828,
      "most": 1829,
      "idd": 1830,
      "ĠSo": 1831,
      "Ġstep": 1832,
      "vious": 1833,
      "oney": 1834,
      "pr": 1835,
      "ored": 1836,
      "ĠAll": 1837,
      "por": 1838,
      "Ġleft": 1839,
      "aut": 1840,
      "Ġcolle": 1841,
      "alf": 1842,
      "Ġresearchers": 1843,
      "Ġbusiness": 1844,
      "Ġgoing": 1845,
      "ĠUS": 1846,
      "ode": 1847,
      "Ġabove": 1848,
      "Ġgre": 1849,
      "Ġhouse": 1850,
      "omes": 1851,
      "Ġlater": 1852,
      "inking": 1853,
      "Ġapplic": 1854,
      "Ġstrong": 1855,
      "When": 1856,
      "Ġleast": 1857,
      "Ġbig": 1858,
      "aces": 1859,
      "Ġlive": 1860,
      "aching": 1861,
      "Ġmakes": 1862,
      "Ġtypes": 1863,
      "ruction": 1864,
      "Ġcountries": 1865,
      "Ġcomplete": 1866,
      "Ġhigher": 1867,
      "13": 1868,
      "ilities": 1869,
      "An": 1870,
      "Ġprotect": 1871,
      "Ġchanges": 1872,
      "Ġline": 1873,
      "rug": 1874,
      "ned": 1875,
      "Ġsimilar": 1876,
      "Ġnut": 1877,
      "And": 1878,
      "cul": 1879,
      "Ġskills": 1880,
      "Ġdiscuss": 1881,
      "Ġdig": 1882,
      "ilt": 1883,
      "Ġobs": 1884,
      "eds": 1885,
      "ables": 1886,
      "Ġground": 1887,
      "Ġhaving": 1888,
      "Ġespecially": 1889,
      "pect": 1890,
      "Ġrequire": 1891,
      "Ġscience": 1892,
      "Ġvarious": 1893,
      "ĠAfric": 1894,
      "leep": 1895,
      "Ġnet": 1896,
      "acc": 1897,
      "Ġcr": 1898,
      "for": 1899,
      "mit": 1900,
      "Ġclear": 1901,
      "Ġer": 1902,
      "ooking": 1903,
      "Ġtru": 1904,
      "Ġsens": 1905,
      "Ġamount": 1906,
      "Ġwind": 1907,
      "Ġauthor": 1908,
      "utes": 1909,
      "Ġlot": 1910,
      "arents": 1911,
      "iting": 1912,
      "by": 1913,
      "selves": 1914,
      "bon": 1915,
      "ĠHealth": 1916,
      "Ġcentury": 1917,
      "Ġpopulation": 1918,
      "Ġwr": 1919,
      "ires": 1920,
      "Ġpatients": 1921,
      "Ġrespons": 1922,
      "Ġtell": 1923,
      "Ġchall": 1924,
      "isc": 1925,
      "iation": 1926,
      "Ġcharacter": 1927,
      "25": 1928,
      "Ġsum": 1929,
      "Ġmind": 1930,
      "Ġbelow": 1931,
      "Ġdone": 1932,
      "min": 1933,
      "Ġproducts": 1934,
      "Ġsun": 1935,
      "atures": 1936,
      "ĠFr": 1937,
      "itor": 1938,
      "acy": 1939,
      "Ġactivities": 1940,
      "Ġword": 1941,
      "af": 1942,
      "ott": 1943,
      "ĠChrist": 1944,
      "Ġstory": 1945,
      "let": 1946,
      "Ġnecess": 1947,
      "Ġsal": 1948,
      "Ġcy": 1949,
      "amm": 1950,
      "augh": 1951,
      "Ġask": 1952,
      "ipp": 1953,
      "Ġopt": 1954,
      "ready": 1955,
      "oura": 1956,
      "chie": 1957,
      "Ġmot": 1958,
      "ohn": 1959,
      "ery": 1960,
      "Ġpaper": 1961,
      "duct": 1962,
      "Ġeffects": 1963,
      "You": 1964,
      "Ġreduce": 1965,
      "ormal": 1966,
      "Ġcrit": 1967,
      "Ġphot": 1968,
      "Ġresources": 1969,
      "hern": 1970,
      "Ġens": 1971,
      "Ġfri": 1972,
      "Ġsite": 1973,
      "oman": 1974,
      "overed": 1975,
      "Ġtext": 1976,
      "ung": 1977,
      "Ġwhether": 1978,
      "lement": 1979,
      "ĠEnglish": 1980,
      "oph": 1981,
      "side": 1982,
      "Ġphysical": 1983,
      "Ġdescrib": 1984,
      "ler": 1985,
      "ĠDr": 1986,
      "Ġlower": 1987,
      "Ġexist": 1988,
      "ument": 1989,
      "40": 1990,
      "Ġclimate": 1991,
      "100": 1992,
      "Ġhealthy": 1993,
      "Ġrange": 1994,
      "Ġhowever": 1995,
      "Ġknowledge": 1996,
      "ĠSome": 1997,
      "ĠWith": 1998,
      "Ġseen": 1999,
      "ream": 2000,
      "Ġquality": 2001,
      "Ġonce": 2002,
      "Ġterm": 2003,
      "Ġfall": 2004,
      "Ġloss": 2005,
      "Ġred": 2006,
      "Ġcases": 2007,
      "verage": 2008,
      "ĠWorld": 2009,
      "Ġreally": 2010,
      "Ġz": 2011,
      "Ġskin": 2012,
      "Ġquestions": 2013,
      "Ġmedical": 2014,
      "ĠBrit": 2015,
      "etimes": 2016,
      "Ġarticle": 2017,
      "Ġcity": 2018,
      "ips": 2019,
      "Ġbuilding": 2020,
      "Ġweek": 2021,
      "Ġalready": 2022,
      "Ġprim": 2023,
      "ĠThat": 2024,
      "ils": 2025,
      "ae": 2026,
      "Ġfund": 2027,
      "ges": 2028,
      "earch": 2029,
      "ĠShe": 2030,
      "Ġclose": 2031,
      "Ġcut": 2032,
      "Ġgrowth": 2033,
      "Ġaccording": 2034,
      "ĠWar": 2035,
      "Ġfurther": 2036,
      "Ġsound": 2037,
      "Ġstudies": 2038,
      "Ġconsider": 2039,
      "Ġsubject": 2040,
      "ware": 2041,
      "ety": 2042,
      "Ġstudent": 2043,
      "ley": 2044,
      "Ġreason": 2045,
      "rams": 2046,
      "Ġeff": 2047,
      "Ġflu": 2048,
      "ourn": 2049,
      "NA": 2050,
      "Ġdiet": 2051,
      "Ġwhite": 2052,
      "Ġrecomm": 2053,
      "Ġcontrib": 2054,
      "Ġpolit": 2055,
      "Ġdoct": 2056,
      "ysis": 2057,
      "Ġsimple": 2058,
      "Ġactivity": 2059,
      "fact": 2060,
      "Ġdeveloped": 2061,
      "osis": 2062,
      "Ġsource": 2063,
      "Ġur": 2064,
      "unt": 2065,
      "ird": 2066,
      "fer": 2067,
      "Ġcomes": 2068,
      "Ġdeg": 2069,
      "Ġestab": 2070,
      "Ġproduction": 2071,
      "Ġmaterials": 2072,
      "Ġrole": 2073,
      "pos": 2074,
      "ands": 2075,
      "Ġtoward": 2076,
      "esc": 2077,
      "Ġfive": 2078,
      "Ġgeneral": 2079,
      "edi": 2080,
      "ites": 2081,
      "Ġquestion": 2082,
      "Ġpotential": 2083,
      "oon": 2084,
      "Ġaddress": 2085,
      "Ġparticip": 2086,
      "ĠIntern": 2087,
      "utions": 2088,
      "rel": 2089,
      "ER": 2090,
      "Ġself": 2091,
      "ĠCal": 2092,
      "Ġconcer": 2093,
      "Ġvalue": 2094,
      "Ġbat": 2095,
      "Ġissues": 2096,
      "ency": 2097,
      "Ġansw": 2098,
      "Ġupon": 2099,
      "ĠOne": 2100,
      "Ġevent": 2101,
      "Ġquick": 2102,
      "Ġpred": 2103,
      "Ġgreen": 2104,
      "Ġcollect": 2105,
      "Ġfat": 2106,
      "ĠEarth": 2107,
      "Ġachie": 2108,
      "ĠGo": 2109,
      "ĠStud": 2110,
      "Ġfield": 2111,
      "Ġsurface": 2112,
      "Ġanimals": 2113,
      "Ġopportun": 2114,
      "Ġcreated": 2115,
      "Ġdetail": 2116,
      "Ġbecame": 2117,
      "60": 2118,
      "Ġrepresent": 2119,
      "sh": 2120,
      "amin": 2121,
      "Ġsize": 2122,
      "ĠLe": 2123,
      "Ġfish": 2124,
      "Ġpressure": 2125,
      "oose": 2126,
      "Ġthought": 2127,
      "Ġrecogn": 2128,
      "ann": 2129,
      "ok": 2130,
      "istic": 2131,
      "Ġtradition": 2132,
      "Ġrather": 2133,
      "Ġdog": 2134,
      "Ġliving": 2135,
      "Ġmeet": 2136,
      "Ġglobal": 2137,
      "ained": 2138,
      "like": 2139,
      "Ġblack": 2140,
      "ference": 2141,
      "ening": 2142,
      "Ġann": 2143,
      "rect": 2144,
      "Ġrelations": 2145,
      "ued": 2146,
      "Ġpolic": 2147,
      "Ġonline": 2148,
      "Ġintrodu": 2149,
      "Ġpublished": 2150,
      "Ġwide": 2151,
      "Ġweight": 2152,
      "But": 2153,
      "Ġgas": 2154,
      "ĠIm": 2155,
      "SA": 2156,
      "ĠCar": 2157,
      "Ġwhole": 2158,
      "Ġsitu": 2159,
      "Ġdrug": 2160,
      "Ġlove": 2161,
      "Ġmass": 2162,
      "Ġsingle": 2163,
      "ibr": 2164,
      "Ġreturn": 2165,
      "Ġtaken": 2166,
      "Ġcirc": 2167,
      "Ġhold": 2168,
      "Ġever": 2169,
      "ĠJohn": 2170,
      "Ġactually": 2171,
      "Ġinflu": 2172,
      "Ġcolor": 2173,
      "Ġunderstanding": 2174,
      "Ġpay": 2175,
      "Ġrate": 2176,
      "Ġcondition": 2177,
      "Ġeither": 2178,
      "ibility": 2179,
      "Ġparents": 2180,
      "aim": 2181,
      "Ġexerc": 2182,
      "Ġabs": 2183,
      "ump": 2184,
      "erve": 2185,
      "ales": 2186,
      "Ġgroups": 2187,
      "way": 2188,
      "ĠAmerica": 2189,
      "Ġreading": 2190,
      "Ġcame": 2191,
      "Ġprob": 2192,
      "Ġyet": 2193,
      "urity": 2194,
      "Ġengine": 2195,
      "Ġindic": 2196,
      "Ġstress": 2197,
      "ival": 2198,
      "Ġlay": 2199,
      "iple": 2200,
      "ification": 2201,
      "Ġsent": 2202,
      "Ġneg": 2203,
      "Ġrepl": 2204,
      "idered": 2205,
      "Ġprovides": 2206,
      "Ġmodel": 2207,
      "Al": 2208,
      "ĠSouth": 2209,
      "reme": 2210,
      "ule": 2211,
      "Ġcannot": 2212,
      "Ġsleep": 2213,
      "Ġpractice": 2214,
      "ĠNorth": 2215,
      "ĠGe": 2216,
      "ĠTr": 2217,
      "Ġhalf": 2218,
      "Ġsafe": 2219,
      "str": 2220,
      "ĠDo": 2221,
      "Ġneeded": 2222,
      "Ġstat": 2223,
      "Ġinit": 2224,
      "ĠAss": 2225,
      "Ġsoil": 2226,
      "fficient": 2227,
      "ask": 2228,
      "Ch": 2229,
      "Ġavoid": 2230,
      "Ġability": 2231,
      "Ġemploy": 2232,
      "Ġmedic": 2233,
      "rict": 2234,
      "Ġparts": 2235,
      "Ġchemical": 2236,
      "ivity": 2237,
      "AT": 2238,
      "gest": 2239,
      "Ġfrequ": 2240,
      "Ġcomputer": 2241,
      "eter": 2242,
      "Ġsoft": 2243,
      "Ġrelated": 2244,
      "ĠNe": 2245,
      "Ġver": 2246,
      "Ġfamil": 2247,
      "Ġclean": 2248,
      "aging": 2249,
      "ison": 2250,
      "put": 2251,
      "enn": 2252,
      "ened": 2253,
      "lying": 2254,
      "Ġmoney": 2255,
      "ystem": 2256,
      "Ġcho": 2257,
      "illed": 2258,
      "oll": 2259,
      "Ġconsidered": 2260,
      "Ġla": 2261,
      "rown": 2262,
      "Ġproduce": 2263,
      "Ġsuff": 2264,
      "ging": 2265,
      "ensive": 2266,
      "Ġdoc": 2267,
      "artment": 2268,
      "Ġexperien": 2269,
      "Ġidea": 2270,
      "Ġcoll": 2271,
      "ĠGen": 2272,
      "Ġmarket": 2273,
      "ĠFl": 2274,
      "ush": 2275,
      "Ġwin": 2276,
      "Ġoil": 2277,
      "roll": 2278,
      "Ġcat": 2279,
      "ĠGerm": 2280,
      "80": 2281,
      "pro": 2282,
      "ĠMar": 2283,
      "Ġnature": 2284,
      "Ġtot": 2285,
      "ney": 2286,
      "ĠBy": 2287,
      "Ġalmost": 2288,
      "Ġeasy": 2289,
      "sych": 2290,
      "ĠAust": 2291,
      "ON": 2292,
      "Ġheat": 2293,
      "astic": 2294,
      "Ġstop": 2295,
      "Ġeat": 2296,
      "Ġoffic": 2297,
      "ĠDep": 2298,
      "yn": 2299,
      "Ġprote": 2300,
      "Ġfail": 2301,
      "ervation": 2302,
      "urs": 2303,
      "lease": 2304,
      "Ġarch": 2305,
      "Ġthemselves": 2306,
      "uck": 2307,
      "ublic": 2308,
      "aged": 2309,
      "val": 2310,
      "Ġnational": 2311,
      "eding": 2312,
      "ĠAm": 2313,
      "Ġmonths": 2314,
      "Ġincreased": 2315,
      "Ġassociated": 2316,
      "iol": 2317,
      "Ġevidence": 2318,
      "cient": 2319,
      "Ġtaking": 2320,
      "Ġcop": 2321,
      "Ġpoin": 2322,
      "Ġvide": 2323,
      "ĠSchool": 2324,
      "Ġentire": 2325,
      "ĠAb": 2326,
      "Ġtook": 2327,
      "On": 2328,
      "vere": 2329,
      "Ġfire": 2330,
      "Ġwriting": 2331,
      "Ġmeasure": 2332,
      "Ġbar": 2333,
      "Ġservices": 2334,
      "Ġsuggest": 2335,
      "Ġrequired": 2336,
      "Ġreact": 2337,
      "Ġcontent": 2338,
      "Ġmicro": 2339,
      "abor": 2340,
      "ournal": 2341,
      "wh": 2342,
      "ores": 2343,
      "ront": 2344,
      "arent": 2345,
      "based": 2346,
      "Ġlink": 2347,
      "abet": 2348,
      "Ġinj": 2349,
      "go": 2350,
      "ĠMay": 2351,
      "icles": 2352,
      "Ġport": 2353,
      "Ġhelps": 2354,
      "Ġcauses": 2355,
      "ivil": 2356,
      "Ġlives": 2357,
      "aced": 2358,
      "Ġast": 2359,
      "Ġscientists": 2360,
      "oor": 2361,
      "Ġthing": 2362,
      "Ġcomplex": 2363,
      "âĢ¢": 2364,
      "Ġassess": 2365,
      "Ġbreak": 2366,
      "yle": 2367,
      "Ġhistor": 2368,
      "Ġhours": 2369,
      "Ġshows": 2370,
      "Ġschools": 2371,
      "Ġfoods": 2372,
      "Ġmanagement": 2373,
      "reg": 2374,
      "acks": 2375,
      "Ġbenefits": 2376,
      "ccording": 2377,
      "ections": 2378,
      "Ġcontact": 2379,
      "ows": 2380,
      "mber": 2381,
      "ĠPr": 2382,
      "Ġpopular": 2383,
      "urch": 2384,
      "uel": 2385,
      "Ġthroughout": 2386,
      "aily": 2387,
      "21": 2388,
      "ES": 2389,
      "Ġfru": 2390,
      "Ġfactors": 2391,
      "Ġdom": 2392,
      "Ġdiagn": 2393,
      "Ġfarm": 2394,
      "Ġface": 2395,
      "Ġjob": 2396,
      "Ġtherap": 2397,
      "emic": 2398,
      "Ġdest": 2399,
      "Ġheav": 2400,
      "ma": 2401,
      "Ġenvironmental": 2402,
      "24": 2403,
      "Ġvers": 2404,
      "Ġmembers": 2405,
      "Ġpattern": 2406,
      "Ġbur": 2407,
      "Ġwebs": 2408,
      "ply": 2409,
      "Ġstates": 2410,
      "ze": 2411,
      "Ġpoll": 2412,
      "Ġpersonal": 2413,
      "Ġstrateg": 2414,
      "Ġbring": 2415,
      "hib": 2416,
      "ches": 2417,
      "Ġkids": 2418,
      "gar": 2419,
      "ĠMan": 2420,
      "Ġbacter": 2421,
      "Ġaccount": 2422,
      "Ġce": 2423,
      "Ġtemperature": 2424,
      "yl": 2425,
      "Ġtar": 2426,
      "Ġcaused": 2427,
      "Ġrelationship": 2428,
      "anced": 2429,
      "Ġcarbon": 2430,
      "Ġnecessary": 2431,
      "erous": 2432,
      "ĠGu": 2433,
      "Ġincludes": 2434,
      "Ġvariety": 2435,
      "Ġrecent": 2436,
      "Ġregular": 2437,
      "Ġdesigned": 2438,
      "Ġsat": 2439,
      "ĠCont": 2440,
      "ĠHist": 2441,
      "Ġindustry": 2442,
      "Ġlonger": 2443,
      "ese": 2444,
      "fully": 2445,
      "Ġdisord": 2446,
      "Ġwild": 2447,
      "Ġapproach": 2448,
      "room": 2449,
      "ĠInstit": 2450,
      "iddle": 2451,
      "Ġitself": 2452,
      "Ġregion": 2453,
      "ĠX": 2454,
      "Ġge": 2455,
      "ĠState": 2456,
      "ising": 2457,
      "iction": 2458,
      "ĠAct": 2459,
      "Ġut": 2460,
      "Ġpage": 2461,
      "Ġrights": 2462,
      "ched": 2463,
      "iam": 2464,
      "ĠRep": 2465,
      "aving": 2466,
      "Ġconduct": 2467,
      "Ġspread": 2468,
      "Ġtraining": 2469,
      "epend": 2470,
      "Ġincreasing": 2471,
      "Ġmaintain": 2472,
      "itud": 2473,
      "70": 2474,
      "Ġmodern": 2475,
      "Ġemer": 2476,
      "ences": 2477,
      "Ġbegan": 2478,
      "Ġbuilt": 2479,
      "Ġsix": 2480,
      "rad": 2481,
      "Ġcheck": 2482,
      "Ġcompany": 2483,
      "Ġsuper": 2484,
      "Ġtravel": 2485,
      "ming": 2486,
      "ronic": 2487,
      "Ġeconomic": 2488,
      "ĠComp": 2489,
      "ai": 2490,
      "Ġmor": 2491,
      "Ġvisit": 2492,
      "Ġuses": 2493,
      "rences": 2494,
      "Ġmusic": 2495,
      "ĠResearch": 2496,
      "Ġeye": 2497,
      "chan": 2498,
      "onse": 2499,
      "plic": 2500,
      "Ġinteract": 2501,
      "Ġlif": 2502,
      "ĠCanad": 2503,
      "Ġmatter": 2504,
      "ricult": 2505,
      "Ġpath": 2506,
      "Ġnight": 2507,
      "reng": 2508,
      "Ġsaf": 2509,
      "lands": 2510,
      "Ġelectric": 2511,
      "ĠSoc": 2512,
      "izing": 2513,
      "Ġsense": 2514,
      "Ġpict": 2515,
      "Ġaverage": 2516,
      "olic": 2517,
      "duc": 2518,
      "ules": 2519,
      "Ġprop": 2520,
      "Ġaction": 2521,
      "Ġliter": 2522,
      "Ġencoura": 2523,
      "Ġdeep": 2524,
      "org": 2525,
      "Ġarr": 2526,
      "rought": 2527,
      "Ġshare": 2528,
      "hold": 2529,
      "Ġslow": 2530,
      "ĠAfter": 2531,
      "Ġetc": 2532,
      "Ġdoing": 2533,
      "pts": 2534,
      "ĠScience": 2535,
      "inary": 2536,
      "Ġsurv": 2537,
      "Ġhtt": 2538,
      "Ġindividuals": 2539,
      "Ġwood": 2540,
      "Ġmach": 2541,
      "ober": 2542,
      "Ġbelieve": 2543,
      "ĠWhile": 2544,
      "Ġmeaning": 2545,
      "light": 2546,
      "mon": 2547,
      "new": 2548,
      "ĠYour": 2549,
      "Ġdamage": 2550,
      "Ġservice": 2551,
      "Ġfig": 2552,
      "ene": 2553,
      "Ġpriv": 2554,
      "Ġimage": 2555,
      "Ġearth": 2556,
      "Ġidentify": 2557,
      "oles": 2558,
      "itation": 2559,
      "22": 2560,
      "Ġexc": 2561,
      "ufact": 2562,
      "umb": 2563,
      "Ġbehavior": 2564,
      "Ġste": 2565,
      "Ġsam": 2566,
      "ĠPe": 2567,
      "Ġteachers": 2568,
      "aff": 2569,
      "pid": 2570,
      "apt": 2571,
      "Ġprevious": 2572,
      "Ġstructure": 2573,
      "ume": 2574,
      "amed": 2575,
      "Ġtrue": 2576,
      "ĠQu": 2577,
      "hood": 2578,
      "vey": 2579,
      "issions": 2580,
      "He": 2581,
      "Ġbab": 2582,
      "Ġthreat": 2583,
      "Ġdraw": 2584,
      "sequ": 2585,
      "Ġprograms": 2586,
      "Ġsqu": 2587,
      "lt": 2588,
      "Ġfeet": 2589,
      "Ġexperim": 2590,
      "mb": 2591,
      "Ġdeveloping": 2592,
      "Ġtotal": 2593,
      "Ġsepar": 2594,
      "Ġsafety": 2595,
      "Ġsometimes": 2596,
      "Ġlooking": 2597,
      "AR": 2598,
      "ĠCenter": 2599,
      "Ġveget": 2600,
      "Ġprovided": 2601,
      "Ġsources": 2602,
      "usion": 2603,
      "Ġpositive": 2604,
      "Ġensure": 2605,
      "Ġec": 2606,
      "Ġsust": 2607,
      "Ġanalysis": 2608,
      "ĠYork": 2609,
      "ners": 2610,
      "ulations": 2611,
      "apan": 2612,
      "Ġpoor": 2613,
      "Ġtree": 2614,
      "estern": 2615,
      "Ġtarget": 2616,
      "ades": 2617,
      "Ġrelig": 2618,
      "Ġmethods": 2619,
      "Ġstar": 2620,
      "Ġissue": 2621,
      "ĠCo": 2622,
      "Ġgrowing": 2623,
      "Ġessential": 2624,
      "Ġobserv": 2625,
      "Ġdoesn": 2626,
      "Ġwritten": 2627,
      "aches": 2628,
      "istics": 2629,
      "Ġgetting": 2630,
      "asc": 2631,
      "elling": 2632,
      "inks": 2633,
      "Ġchalleng": 2634,
      "Ġbasic": 2635,
      "Ġago": 2636,
      "ropri": 2637,
      "het": 2638,
      "Ġnormal": 2639,
      "imately": 2640,
      "Ġactive": 2641,
      "Ġharm": 2642,
      "ID": 2643,
      "Ġprec": 2644,
      "Ġcompan": 2645,
      "ounts": 2646,
      "ĠHis": 2647,
      "Ġdeb": 2648,
      "ender": 2649,
      "So": 2650,
      "ength": 2651,
      "Ġremain": 2652,
      "Ġstandard": 2653,
      "Ġvacc": 2654,
      "Ġarg": 2655,
      "Ġregard": 2656,
      "Ġled": 2657,
      "ister": 2658,
      "Ġbooks": 2659,
      "Ġconc": 2660,
      "ls": 2661,
      "Ġdaily": 2662,
      "Ġserious": 2663,
      "Ġshown": 2664,
      "Ġsex": 2665,
      "know": 2666,
      "IN": 2667,
      "ĠKing": 2668,
      "Ġbal": 2669,
      "useum": 2670,
      "Ġwarm": 2671,
      "Ġsomeone": 2672,
      "ellow": 2673,
      "Ġtakes": 2674,
      "Ġeyes": 2675,
      "istance": 2676,
      "Ġtrees": 2677,
      "ĠBritish": 2678,
      "Ġtools": 2679,
      "uge": 2680,
      "eb": 2681,
      "Ġextreme": 2682,
      "Ġpolitical": 2683,
      "itary": 2684,
      "ems": 2685,
      "Ġoutside": 2686,
      "Ġremov": 2687,
      "Ġattention": 2688,
      "Ġnumbers": 2689,
      "Ġsimply": 2690,
      "Ġstreng": 2691,
      "oes": 2692,
      "Ġterms": 2693,
      "Ġcontinue": 2694,
      "Ġsociety": 2695,
      "Ġeasily": 2696,
      "Ġbra": 2697,
      "right": 2698,
      "Ġhyd": 2699,
      "uted": 2700,
      "ĠAustral": 2701,
      "Ġdiseases": 2702,
      "Ġgard": 2703,
      "overy": 2704,
      "abetes": 2705,
      "Ġsolar": 2706,
      "Ġanimal": 2707,
      "Ġcra": 2708,
      "23": 2709,
      "verse": 2710,
      "ederal": 2711,
      "Ġforest": 2712,
      "aling": 2713,
      "Ġanswer": 2714,
      "Ġox": 2715,
      "Ġdispl": 2716,
      "ises": 2717,
      "Ġemot": 2718,
      "Ġsubst": 2719,
      "Ġtur": 2720,
      "lex": 2721,
      "Ġmess": 2722,
      "Ġcorrect": 2723,
      "ĠSu": 2724,
      "Ġdang": 2725,
      "Ġinside": 2726,
      "my": 2727,
      "irm": 2728,
      "ns": 2729,
      "Ġevents": 2730,
      "Ġfem": 2731,
      "Ġsea": 2732,
      "pose": 2733,
      "Ġgreater": 2734,
      "Ġprinc": 2735,
      "hest": 2736,
      "Ġstra": 2737,
      "Ġinvolved": 2738,
      "Ġideas": 2739,
      "Ġforms": 2740,
      "Ġallows": 2741,
      "ancy": 2742,
      "Ġmother": 2743,
      "oring": 2744,
      "ĠPar": 2745,
      "Ġshall": 2746,
      "Ġmanufact": 2747,
      "ustom": 2748,
      "ground": 2749,
      "Ġproduced": 2750,
      "Ġadded": 2751,
      "Ġcamp": 2752,
      "Ġorigin": 2753,
      "bo": 2754,
      "Ġimplement": 2755,
      "Ġdoctor": 2756,
      "minist": 2757,
      "ĠEm": 2758,
      "atives": 2759,
      "joy": 2760,
      "ctions": 2761,
      "lies": 2762,
      "Ġreview": 2763,
      "Ã©": 2764,
      "Ġwall": 2765,
      "Ġsil": 2766,
      "Ġquite": 2767,
      "Ġpatient": 2768,
      "Ġlate": 2769,
      "ials": 2770,
      "Ġposition": 2771,
      "aries": 2772,
      "Ġseries": 2773,
      "Ġstay": 2774,
      "ĠEduc": 2775,
      "Ġcompon": 2776,
      "ban": 2777,
      "Ġunique": 2778,
      "Ġdou": 2779,
      "Ġwaste": 2780,
      "Ġhands": 2781,
      "Ġdetermine": 2782,
      "fect": 2783,
      "alu": 2784,
      "Ġclaim": 2785,
      "Ġbit": 2786,
      "Ġquickly": 2787,
      "Ġthous": 2788,
      "198": 2789,
      "dom": 2790,
      "ĠIndia": 2791,
      "pe": 2792,
      "Ġresponse": 2793,
      "Ġmovement": 2794,
      "ĠPre": 2795,
      "rench": 2796,
      "ĠNo": 2797,
      "ĠInstitute": 2798,
      "Ġrev": 2799,
      "ecause": 2800,
      "Ġinteg": 2801,
      "Ġmedia": 2802,
      "ĠJapan": 2803,
      "hel": 2804,
      "iforn": 2805,
      "Ġviol": 2806,
      "Ġvirus": 2807,
      "Ġvideo": 2808,
      "ino": 2809,
      "rior": 2810,
      "Ġprep": 2811,
      "ĠCount": 2812,
      "Ġsoon": 2813,
      "Ġparticularly": 2814,
      "Ġlog": 2815,
      "Ġfoot": 2816,
      "Ġselect": 2817,
      "Ġspeak": 2818,
      "rated": 2819,
      "ĠMany": 2820,
      "Ġculture": 2821,
      "Ġwebsite": 2822,
      "rs": 2823,
      "Ġoffer": 2824,
      "One": 2825,
      "Ġjoin": 2826,
      "Ġlat": 2827,
      "Ġhumans": 2828,
      "Ġcover": 2829,
      "Ġsmo": 2830,
      "Ġdemon": 2831,
      "Ġhot": 2832,
      "Ġexercise": 2833,
      "Ġtax": 2834,
      "Ġrelative": 2835,
      "ounds": 2836,
      "Ġroad": 2837,
      "Ġcompet": 2838,
      "Ġmagn": 2839,
      "ying": 2840,
      "iable": 2841,
      "Ġstarted": 2842,
      "Ġmechan": 2843,
      "rast": 2844,
      "Ġlack": 2845,
      "set": 2846,
      "Ġteeth": 2847,
      "Ġcommunities": 2848,
      "Ġinstead": 2849,
      "Ġir": 2850,
      "Ġfeed": 2851,
      "Ġrefer": 2852,
      "nov": 2853,
      "where": 2854,
      "Ġtraditional": 2855,
      "Ġdefin": 2856,
      "ached": 2857,
      "Ġinfection": 2858,
      "Ġnews": 2859,
      "eration": 2860,
      "Ġdry": 2861,
      "Ġdistrib": 2862,
      "rim": 2863,
      "ĠII": 2864,
      "Ġfinanc": 2865,
      "Ġbehind": 2866,
      "ifornia": 2867,
      "ĠApp": 2868,
      "Ġcard": 2869,
      "Ġdifference": 2870,
      "With": 2871,
      "Ġhabit": 2872,
      "Ġemb": 2873,
      "Ġsustain": 2874,
      "ography": 2875,
      "Ġoriginal": 2876,
      "ĠPer": 2877,
      "ĠDay": 2878,
      "Ġachieve": 2879,
      "Ġprobably": 2880,
      "ĠChild": 2881,
      "IS": 2882,
      "osing": 2883,
      "Ġnetwork": 2884,
      "Ġminutes": 2885,
      "wor": 2886,
      "arily": 2887,
      "Ġcoun": 2888,
      "Ġwrite": 2889,
      "elt": 2890,
      "ĠEd": 2891,
      "rew": 2892,
      "imum": 2893,
      "Ġfav": 2894,
      "eed": 2895,
      "Ġhor": 2896,
      "ĠMe": 2897,
      "ties": 2898,
      "Ġbreat": 2899,
      "ĠMore": 2900,
      "ĠJew": 2901,
      "alking": 2902,
      "Ġdark": 2903,
      "Ġvit": 2904,
      "idge": 2905,
      "ĠMin": 2906,
      "Ġwent": 2907,
      "Ġtalk": 2908,
      "iot": 2909,
      "omet": 2910,
      "Ġacid": 2911,
      "Ġaff": 2912,
      "Ġmental": 2913,
      "Ġfast": 2914,
      "Ġgot": 2915,
      "Ġtiss": 2916,
      "Ġscientific": 2917,
      "cean": 2918,
      "asons": 2919,
      "Ġincluded": 2920,
      "Ġreported": 2921,
      "cell": 2922,
      "Ġmultiple": 2923,
      "ĠGl": 2924,
      "Ġbad": 2925,
      "ĠMost": 2926,
      "Ġgenerally": 2927,
      "Ġbeaut": 2928,
      "Ġbacteria": 2929,
      "Ġbirth": 2930,
      "uth": 2931,
      "Ġpsych": 2932,
      "ided": 2933,
      "ief": 2934,
      "rition": 2935,
      "ĠCons": 2936,
      "That": 2937,
      "Ġsevere": 2938,
      "Ġcool": 2939,
      "ĠUs": 2940,
      "Ġaccept": 2941,
      "Ġprogress": 2942,
      "isions": 2943,
      "iency": 2944,
      "EM": 2945,
      "Ġcross": 2946,
      "Ġlarger": 2947,
      "anks": 2948,
      "Ġenjoy": 2949,
      "Ġhope": 2950,
      "ĠChina": 2951,
      "Ġpoints": 2952,
      "Ġrespect": 2953,
      "Ġteaching": 2954,
      "ucle": 2955,
      "undred": 2956,
      "ript": 2957,
      "Ġcontains": 2958,
      "ĠPres": 2959,
      "oming": 2960,
      "Ġprimary": 2961,
      "fort": 2962,
      "Ġeating": 2963,
      "uries": 2964,
      "Ġestim": 2965,
      "Ġdocument": 2966,
      "Ġhy": 2967,
      "Ġleaves": 2968,
      "Ġfa": 2969,
      "Ġreflect": 2970,
      "Ġimages": 2971,
      "Ġtri": 2972,
      "enc": 2973,
      "ana": 2974,
      "ĠDepartment": 2975,
      "ĠAc": 2976,
      "Ġaltern": 2977,
      "ĠCalifornia": 2978,
      "mar": 2979,
      "ension": 2980,
      "iques": 2981,
      "Ġtown": 2982,
      "Ġfamilies": 2983,
      "Ġhighly": 2984,
      "Ġdecre": 2985,
      "Ġegg": 2986,
      "ops": 2987,
      "Ġsn": 2988,
      "Ġmom": 2989,
      "Ġful": 2990,
      "Ġperformance": 2991,
      "Ġtend": 2992,
      "rogen": 2993,
      "ĠCO": 2994,
      "gn": 2995,
      "ĠHar": 2996,
      "Ġcritical": 2997,
      "Ġhar": 2998,
      "AN": 2999,
      "Ġsold": 3000,
      "Ġconcent": 3001,
      "haps": 3002,
      "vention": 3003,
      "Ġattack": 3004,
      "ĠInt": 3005,
      "Ġnation": 3006,
      "Ġweb": 3007,
      "Ġforce": 3008,
      "ropriate": 3009,
      "Ġexpect": 3010,
      "gency": 3011,
      "Ġadults": 3012,
      "life": 3013,
      "Ġsugar": 3014,
      "Ġyourself": 3015,
      "Ġextra": 3016,
      "osure": 3017,
      "Ġreve": 3018,
      "Ġcompanies": 3019,
      "Ġconsist": 3020,
      "iece": 3021,
      "Ġdevices": 3022,
      "Ġap": 3023,
      "Ġsupply": 3024,
      "Ġevalu": 3025,
      "Ġuseful": 3026,
      "2012": 3027,
      "ext": 3028,
      "90": 3029,
      "Ġfriends": 3030,
      "term": 3031,
      "Ġsoftware": 3032,
      "ĠWill": 3033,
      "Ġcit": 3034,
      "Ġaud": 3035,
      "ĠHere": 3036,
      "ologies": 3037,
      "By": 3038,
      "ĠEl": 3039,
      "Ġaccur": 3040,
      "Ġadditional": 3041,
      "ĠSec": 3042,
      "Ġinternational": 3043,
      "Ġwa": 3044,
      "ift": 3045,
      "ively": 3046,
      "Ġprotein": 3047,
      "Ġinvestig": 3048,
      "Ġaim": 3049,
      "Ġthus": 3050,
      "Ġcompared": 3051,
      "Ġtherefore": 3052,
      "ĠInf": 3053,
      "OR": 3054,
      "ille": 3055,
      "load": 3056,
      "oud": 3057,
      "resh": 3058,
      "Ġsearch": 3059,
      "Ġleading": 3060,
      "These": 3061,
      "Ġimmedi": 3062,
      "Ġsummer": 3063,
      "Ġpack": 3064,
      "Ġattem": 3065,
      "Ġdirectly": 3066,
      "Ġanaly": 3067,
      "Ġconcept": 3068,
      "Ġtold": 3069,
      "rig": 3070,
      "Ġfront": 3071,
      "cks": 3072,
      "Ġlo": 3073,
      "ĠEuropean": 3074,
      "Ġveh": 3075,
      "Ġrout": 3076,
      "Ġfram": 3077,
      "erson": 3078,
      "dd": 3079,
      "Ġsecurity": 3080,
      "Ġexact": 3081,
      "Ġfeatures": 3082,
      "Ġproced": 3083,
      "Ġtowards": 3084,
      "bor": 3085,
      "coh": 3086,
      "ĠAg": 3087,
      "Ġnegative": 3088,
      "oly": 3089,
      "Ġsaw": 3090,
      "ĠNot": 3091,
      "Ġexpress": 3092,
      "ching": 3093,
      "Ġindepend": 3094,
      "come": 3095,
      "Ġelse": 3096,
      "Ġcustom": 3097,
      "Ġreach": 3098,
      "Ġinstall": 3099,
      "Ġlargest": 3100,
      "ashing": 3101,
      "ĠAfrica": 3102,
      "itude": 3103,
      "ĠLear": 3104,
      "ĠHer": 3105,
      "Ġancient": 3106,
      "Ġspeed": 3107,
      "head": 3108,
      "hens": 3109,
      "197": 3110,
      "Ġcommit": 3111,
      "oe": 3112,
      "Ġcele": 3113,
      "yond": 3114,
      "ibrary": 3115,
      "Ġswe": 3116,
      "Ġgame": 3117,
      "ĠKe": 3118,
      "itis": 3119,
      "Ġmount": 3120,
      "Ġspir": 3121,
      "water": 3122,
      "Ġthinking": 3123,
      "ĠMon": 3124,
      "Ġones": 3125,
      "Ġlost": 3126,
      "Ġheld": 3127,
      "Ġcreating": 3128,
      "Ġgoal": 3129,
      "Ġcolon": 3130,
      "Ġrare": 3131,
      "Ġthird": 3132,
      "Ġi": 3133,
      "Ġcapt": 3134,
      "Ġtable": 3135,
      "ror": 3136,
      "ĠRec": 3137,
      "Ġroom": 3138,
      "Ġfather": 3139,
      "IC": 3140,
      "cles": 3141,
      "ius": 3142,
      "Ġwhose": 3143,
      "Ġcold": 3144,
      "Ġpurpose": 3145,
      "Ġseason": 3146,
      "ulate": 3147,
      "istry": 3148,
      "Ġprojects": 3149,
      "rate": 3150,
      "Ġfit": 3151,
      "Ġbase": 3152,
      "Ġnearly": 3153,
      "Ġcarry": 3154,
      "ĠRead": 3155,
      "Ġcosts": 3156,
      "Ġteacher": 3157,
      "lied": 3158,
      "Ġdead": 3159,
      "Ġpolicy": 3160,
      "Ġhost": 3161,
      "sect": 3162,
      "Ġdiabetes": 3163,
      "EN": 3164,
      "Ġelements": 3165,
      "Ġtests": 3166,
      "Ġlength": 3167,
      "ĠJan": 3168,
      "26": 3169,
      "Ġplanet": 3170,
      "Ġdigital": 3171,
      "Ġmill": 3172,
      "ĠIndian": 3173,
      "ĠDon": 3174,
      "Ġweeks": 3175,
      "uary": 3176,
      "ĠOf": 3177,
      "Ġhundred": 3178,
      "ields": 3179,
      "Ġprotection": 3180,
      "At": 3181,
      "2010": 3182,
      "Ġchoose": 3183,
      "ĠSan": 3184,
      "Ġcode": 3185,
      "Ġtransport": 3186,
      "arr": 3187,
      "Ġhon": 3188,
      "iter": 3189,
      "iers": 3190,
      "Ġlocated": 3191,
      "Ġcred": 3192,
      "Ġtypically": 3193,
      "ĠOther": 3194,
      "ha": 3195,
      "Ġtechniques": 3196,
      "Ġbeginning": 3197,
      "Ex": 3198,
      "na": 3199,
      "Ġhear": 3200,
      "son": 3201,
      "Ġbroad": 3202,
      "Ġdemonstr": 3203,
      "bol": 3204,
      "ipment": 3205,
      "Ġleave": 3206,
      "ĠHistory": 3207,
      "Ġleaders": 3208,
      "Ġfight": 3209,
      "Ġaspect": 3210,
      "outhern": 3211,
      "Ġmemory": 3212,
      "year": 3213,
      "Ġrain": 3214,
      "Ġbul": 3215,
      "ĠSm": 3216,
      "Ġprin": 3217,
      "Ġstri": 3218,
      "atur": 3219,
      "Ġsites": 3220,
      "Ġfinancial": 3221,
      "ĠFrench": 3222,
      "28": 3223,
      "Ġice": 3224,
      "Ġagricult": 3225,
      "idents": 3226,
      "Ġfib": 3227,
      "Ġbott": 3228,
      "While": 3229,
      "ĠInternational": 3230,
      "Ġapplications": 3231,
      "Ġcrop": 3232,
      "Ġimportance": 3233,
      "Ġborn": 3234,
      "Ġseems": 3235,
      "wise": 3236,
      "aught": 3237,
      "Ġgives": 3238,
      "iles": 3239,
      "Ġanything": 3240,
      "Ġrequires": 3241,
      "Ġeverything": 3242,
      "Ġbirds": 3243,
      "ĠArt": 3244,
      "lection": 3245,
      "Ġplaces": 3246,
      "ription": 3247,
      "Ġsurround": 3248,
      "ĠAfrican": 3249,
      "Ġnothing": 3250,
      "194": 3251,
      "Ġquant": 3252,
      "ĠChar": 3253,
      "ĠProg": 3254,
      "Ġsolution": 3255,
      "www": 3256,
      "ĠJu": 3257,
      "ĠServ": 3258,
      "Ġdevice": 3259,
      "Ġfile": 3260,
      "vant": 3261,
      "Ġang": 3262,
      "Ġapplication": 3263,
      "pper": 3264,
      "Ġdiv": 3265,
      "Ġwond": 3266,
      "ED": 3267,
      "Ġmix": 3268,
      "Ġclin": 3269,
      "ĠEducation": 3270,
      "aid": 3271,
      "rial": 3272,
      "Ġrob": 3273,
      "cohol": 3274,
      "Ġfear": 3275,
      "Ġshape": 3276,
      "Ġsituation": 3277,
      "Ġmis": 3278,
      "ĠGra": 3279,
      "ster": 3280,
      "ĠCom": 3281,
      "estic": 3282,
      "ĠAmericans": 3283,
      "itect": 3284,
      "Ġpan": 3285,
      "27": 3286,
      "Ġestablished": 3287,
      "ĠMy": 3288,
      "Ġstru": 3289,
      "aly": 3290,
      "Ġmole": 3291,
      "rees": 3292,
      "Ġweather": 3293,
      "orthern": 3294,
      "Ġprior": 3295,
      "Ġmouth": 3296,
      "ĠRiver": 3297,
      "Ġtheory": 3298,
      "2011": 3299,
      "vest": 3300,
      "Ġhttp": 3301,
      "AS": 3302,
      "Ġcenter": 3303,
      "Ġpet": 3304,
      "Ġinstit": 3305,
      "Ġcurrently": 3306,
      "Ġrecently": 3307,
      "Be": 3308,
      "Ġfuel": 3309,
      "imin": 3310,
      "mosp": 3311,
      "Ġaffected": 3312,
      "inct": 3313,
      "edia": 3314,
      "oday": 3315,
      "Ġbrought": 3316,
      "Ġwinter": 3317,
      "196": 3318,
      "Ġlines": 3319,
      "ĠAnt": 3320,
      "Ġcentral": 3321,
      "Ġreceive": 3322,
      "ĠPart": 3323,
      "Ġfair": 3324,
      "imal": 3325,
      "Ġbecomes": 3326,
      "enge": 3327,
      "Ġopportunity": 3328,
      "Ġremains": 3329,
      "Ġtesting": 3330,
      "Ġefforts": 3331,
      "Ġbenefit": 3332,
      "cial": 3333,
      "IV": 3334,
      "book": 3335,
      "Ġsection": 3336,
      "Ġmonitor": 3337,
      "Ġhimself": 3338,
      "Ġolder": 3339,
      "Ġcommunication": 3340,
      "ĠBar": 3341,
      "Ġtherapy": 3342,
      "ĠOur": 3343,
      "Ġgoes": 3344,
      "rag": 3345,
      "Ġpregn": 3346,
      "PA": 3347,
      "lier": 3348,
      "odies": 3349,
      "Ġrates": 3350,
      "pril": 3351,
      "Ġisn": 3352,
      "Ġwon": 3353,
      "Ġcivil": 3354,
      "used": 3355,
      "Ġprocesses": 3356,
      "Ġimag": 3357,
      "Ġexamples": 3358,
      "Ġscreen": 3359,
      "Ġeveryone": 3360,
      "Ġeth": 3361,
      "ran": 3362,
      "Ġcou": 3363,
      "ĠReg": 3364,
      "Ġalthough": 3365,
      "Ġvalues": 3366,
      "Ġdemand": 3367,
      "Ġdiscovered": 3368,
      "iar": 3369,
      "ĠAssoci": 3370,
      "isms": 3371,
      "wide": 3372,
      "Ġemissions": 3373,
      "mission": 3374,
      "uff": 3375,
      "Ġwoman": 3376,
      "back": 3377,
      "ĠTw": 3378,
      "Ġprofessional": 3379,
      "Ġult": 3380,
      "Ġconstruction": 3381,
      "Ġobjects": 3382,
      "Ġinsp": 3383,
      "Ġlabor": 3384,
      "Ġrecommend": 3385,
      "Ġresponsible": 3386,
      "ĠSw": 3387,
      "Ġremember": 3388,
      "entially": 3389,
      "ĠTra": 3390,
      "Ġtou": 3391,
      "Ġcam": 3392,
      "Ġsteps": 3393,
      "izes": 3394,
      "Ġcalcul": 3395,
      "ĠWest": 3396,
      "ĠCanada": 3397,
      "Ġautom": 3398,
      "ĠTechn": 3399,
      "35": 3400,
      "Ġappropriate": 3401,
      "ĠGree": 3402,
      "Ġblock": 3403,
      "time": 3404,
      "Ġfruit": 3405,
      "cra": 3406,
      "Ġasked": 3407,
      "Ġrich": 3408,
      "ding": 3409,
      "ype": 3410,
      "Ġsmaller": 3411,
      "Ġconnect": 3412,
      "Ġbaby": 3413,
      "att": 3414,
      "Ġlimited": 3415,
      "Ġinteresting": 3416,
      "ĠPark": 3417,
      "aste": 3418,
      "Ġbillion": 3419,
      "Ġmiles": 3420,
      "ords": 3421,
      "Ġequipment": 3422,
      "Ġdeal": 3423,
      "Ġbeg": 3424,
      "tery": 3425,
      "Ġrespond": 3426,
      "Some": 3427,
      "uman": 3428,
      "Ġson": 3429,
      "ĠThen": 3430,
      "illing": 3431,
      "iff": 3432,
      "Ġrapid": 3433,
      "Ġelectr": 3434,
      "ĠFrom": 3435,
      "izations": 3436,
      "Ġthy": 3437,
      "Ġinstru": 3438,
      "Ġmiddle": 3439,
      "Ġdied": 3440,
      "uous": 3441,
      "Ġexplain": 3442,
      "Ġreceived": 3443,
      "rote": 3444,
      "Ġoccurs": 3445,
      "Ġusers": 3446,
      "ĠJes": 3447,
      "IT": 3448,
      "equ": 3449,
      "Ġuser": 3450,
      "Ġteach": 3451,
      "ipl": 3452,
      "ĠFirst": 3453,
      "Ġgir": 3454,
      "Ġcollection": 3455,
      "Ġdecl": 3456,
      "Ġtransl": 3457,
      "Ġplastic": 3458,
      "osition": 3459,
      "ky": 3460,
      "ĠSystem": 3461,
      "Ġnucle": 3462,
      "Ġadj": 3463,
      "amb": 3464,
      "Ġalone": 3465,
      "ĠAug": 3466,
      "Ġpractices": 3467,
      "Ġgarden": 3468,
      "Ġdate": 3469,
      "iant": 3470,
      "Ġcommonly": 3471,
      "ocks": 3472,
      "Ġproviding": 3473,
      "Ġcoast": 3474,
      "eal": 3475,
      "Ġdecision": 3476,
      "Ġpurch": 3477,
      "ĠInc": 3478,
      "Ġcoming": 3479,
      "ĠAlthough": 3480,
      "gery": 3481,
      "Ġgradu": 3482,
      "Ġtrying": 3483,
      "Ġreasons": 3484,
      "Ġexposure": 3485,
      "ĠEngland": 3486,
      "olar": 3487,
      "iful": 3488,
      "Ġclassroom": 3489,
      "Ġworkers": 3490,
      "hemat": 3491,
      "Ġcapac": 3492,
      "Ġbehavi": 3493,
      "2013": 3494,
      "Ġhair": 3495,
      "ĠMus": 3496,
      "Ġadop": 3497,
      "Ġbeyond": 3498,
      "ĠJune": 3499,
      "anish": 3500,
      "ĠMarch": 3501,
      "Ġprivate": 3502,
      "29": 3503,
      "Ġpiece": 3504,
      "Ġcommunic": 3505,
      "ĠOct": 3506,
      "Ġvisual": 3507,
      "Ġconce": 3508,
      "su": 3509,
      "Ġgold": 3510,
      "Ġnutri": 3511,
      "ĠWater": 3512,
      "Ġnorth": 3513,
      "ĠNA": 3514,
      "Ġwatch": 3515,
      "oses": 3516,
      "omy": 3517,
      "ospital": 3518,
      "Ġfriend": 3519,
      "Ġsouth": 3520,
      "Ġsigns": 3521,
      "ĠCounty": 3522,
      "Ġadvant": 3523,
      "ĠDevelop": 3524,
      "Ġrock": 3525,
      "Ġexcept": 3526,
      "Ġtox": 3527,
      "Ġgain": 3528,
      "Ġguid": 3529,
      "Ġvo": 3530,
      "Ġstories": 3531,
      "Ġfresh": 3532,
      "They": 3533,
      "can": 3534,
      "Ġexpected": 3535,
      "ico": 3536,
      "Ġvia": 3537,
      "Ar": 3538,
      "orpor": 3539,
      "Ġperfect": 3540,
      "ĠNow": 3541,
      "Ġstandards": 3542,
      "itable": 3543,
      "Ġscale": 3544,
      "Ġlocation": 3545,
      "Ġcru": 3546,
      "vert": 3547,
      "ĠUse": 3548,
      "Ġmilitary": 3549,
      "Pro": 3550,
      "ĠDav": 3551,
      "Ġunc": 3552,
      "aur": 3553,
      "Ġanx": 3554,
      "ĠCity": 3555,
      "Ġcultural": 3556,
      "cil": 3557,
      "unch": 3558,
      "gy": 3559,
      "rows": 3560,
      "Ġdisplay": 3561,
      "Ġcompletely": 3562,
      "uments": 3563,
      "Ġdrugs": 3564,
      "Ġimmune": 3565,
      "ĠHigh": 3566,
      "Ġking": 3567,
      "Ġgenetic": 3568,
      "ula": 3569,
      "Ġcorn": 3570,
      "ĠInst": 3571,
      "Ġinfluence": 3572,
      "inese": 3573,
      "Ġobtain": 3574,
      "uro": 3575,
      "Ġrules": 3576,
      "ĠRed": 3577,
      "Ġguide": 3578,
      "Ġcitiz": 3579,
      "fess": 3580,
      "Ġmoment": 3581,
      "ĠApril": 3582,
      "bl": 3583,
      "Ġproperty": 3584,
      "Ġdepend": 3585,
      "Ġsave": 3586,
      "ama": 3587,
      "Ġball": 3588,
      "Ġrise": 3589,
      "Ġatmosp": 3590,
      "Ġenh": 3591,
      "All": 3592,
      "house": 3593,
      "Ġep": 3594,
      "Ġnamed": 3595,
      "ĠGreat": 3596,
      "Ġworth": 3597,
      "Ġillness": 3598,
      "Ġten": 3599,
      "Ġfollowed": 3600,
      "ĠSept": 3601,
      "Ġeffort": 3602,
      "Ġstrength": 3603,
      "Ġoverall": 3604,
      "Ġcapital": 3605,
      "ĠGerman": 3606,
      "ashington": 3607,
      "Ġvirt": 3608,
      "Ġfederal": 3609,
      "Ġoffers": 3610,
      "ought": 3611,
      "aters": 3612,
      "ceed": 3613,
      "Ġtit": 3614,
      "Ġvict": 3615,
      "ĠSur": 3616,
      "Ġmention": 3617,
      "Ġstage": 3618,
      "AC": 3619,
      "ica": 3620,
      "ĠDis": 3621,
      "ios": 3622,
      "enty": 3623,
      "Ġbasis": 3624,
      "Ġing": 3625,
      "oration": 3626,
      "Ġinterp": 3627,
      "Ġmilk": 3628,
      "ĠVal": 3629,
      "Ġefficient": 3630,
      "see": 3631,
      "Ġapprox": 3632,
      "Ġeducational": 3633,
      "Ġhous": 3634,
      "eech": 3635,
      "apter": 3636,
      "Ġmiss": 3637,
      "Ġenter": 3638,
      "airs": 3639,
      "ulated": 3640,
      "ĠEven": 3641,
      "Ġblue": 3642,
      "Ġneigh": 3643,
      "Ġchallenges": 3644,
      "Ġplease": 3645,
      "2009": 3646,
      "Ġadminist": 3647,
      "Ġcry": 3648,
      "ira": 3649,
      "Ġdegree": 3650,
      "Ġfinal": 3651,
      "fl": 3652,
      "Ġdidn": 3653,
      "Ġsett": 3654,
      "iny": 3655,
      "Ġbox": 3656,
      "ygen": 3657,
      "Ġmeasures": 3658,
      "arian": 3659,
      "Ġinnov": 3660,
      "Ġjud": 3661,
      "Ġcelebr": 3662,
      "Ġexplore": 3663,
      "Ġelectricity": 3664,
      "Ġpowerful": 3665,
      "Ġacad": 3666,
      "uk": 3667,
      "men": 3668,
      "Ġfindings": 3669,
      "Ġmid": 3670,
      "ocol": 3671,
      "ellig": 3672,
      "bre": 3673,
      "Ġestablish": 3674,
      "ĠJesus": 3675,
      "care": 3676,
      "med": 3677,
      "Ġsuccessful": 3678,
      "Ġeight": 3679,
      "Ġpicture": 3680,
      "rec": 3681,
      "Ġcollabor": 3682,
      "lick": 3683,
      "Ġmoving": 3684,
      "Ġmap": 3685,
      "Ġeconomy": 3686,
      "known": 3687,
      "Ġconstant": 3688,
      "Ġalcohol": 3689,
      "Ġplaced": 3690,
      "Ġopportunities": 3691,
      "ibly": 3692,
      "Ġmuscle": 3693,
      "Ġhuge": 3694,
      "Ġx": 3695,
      "Ġbed": 3696,
      "Ġchance": 3697,
      "500": 3698,
      "itch": 3699,
      "Ġagree": 3700,
      "Ġpatterns": 3701,
      "que": 3702,
      "Ġwalk": 3703,
      "ĠAre": 3704,
      "Ġcontroll": 3705,
      "Ġbone": 3706,
      "ony": 3707,
      "ĠAccording": 3708,
      "ulum": 3709,
      "Ġincreases": 3710,
      "Sh": 3711,
      "Ġproperties": 3712,
      "Ġmachine": 3713,
      "Ġattempt": 3714,
      "Ġabsor": 3715,
      "IL": 3716,
      "ĠMc": 3717,
      "ondon": 3718,
      "ĠEnvironment": 3719,
      "Ġund": 3720,
      "Ġtechnologies": 3721,
      "Un": 3722,
      "Ġnative": 3723,
      "ĠJuly": 3724,
      "Ġinsect": 3725,
      "Ġantib": 3726,
      "Ġconsequ": 3727,
      "Ġdescribed": 3728,
      "era": 3729,
      "Ġstyle": 3730,
      "areness": 3731,
      "Ġgiving": 3732,
      "ĠRuss": 3733,
      "Ġglass": 3734,
      "Ġoptions": 3735,
      "Ġconvers": 3736,
      "Ġillust": 3737,
      "ĠUK": 3738,
      "ĠAlso": 3739,
      "ste": 3740,
      "Ġgave": 3741,
      "lor": 3742,
      "ford": 3743,
      "Here": 3744,
      "pris": 3745,
      "Ġmodels": 3746,
      "more": 3747,
      "Ġassist": 3748,
      "Ġchoice": 3749,
      "ĠMex": 3750,
      "alt": 3751,
      "Ġvision": 3752,
      "ev": 3753,
      "craft": 3754,
      "Ġtopic": 3755,
      "Ġforward": 3756,
      "eces": 3757,
      "off": 3758,
      "Ġcommerc": 3759,
      "Ġmax": 3760,
      "Ġexhib": 3761,
      "Ġanti": 3762,
      "ST": 3763,
      "Ġthou": 3764,
      "Ġnote": 3765,
      "Ġconsumption": 3766,
      "Ġdetails": 3767,
      "Ġmember": 3768,
      "ĠWashington": 3769,
      "Ġspring": 3770,
      "Ġeasier": 3771,
      "ĠChinese": 3772,
      "Ġarchitect": 3773,
      "Ġpoly": 3774,
      "Ġnames": 3775,
      "Ġallowed": 3776,
      "Ġcateg": 3777,
      "Ġshowed": 3778,
      "Ġassign": 3779,
      "ĠEach": 3780,
      "Ġthousands": 3781,
      "2008": 3782,
      "ĠCong": 3783,
      "iate": 3784,
      "Ġversion": 3785,
      "ĠAustralia": 3786,
      "rief": 3787,
      "ham": 3788,
      "Ġtissue": 3789,
      "Ġfully": 3790,
      "ĠMedic": 3791,
      "Ġmo": 3792,
      "reet": 3793,
      "ĠPresident": 3794,
      "Ġfert": 3795,
      "Is": 3796,
      "Ġfamous": 3797,
      "ĠDNA": 3798,
      "iences": 3799,
      "rehens": 3800,
      "Ġcities": 3801,
      "odes": 3802,
      "Ġwrote": 3803,
      "Ġtooth": 3804,
      "Ġformed": 3805,
      "Ġchanged": 3806,
      "iples": 3807,
      "Ġvill": 3808,
      "ensity": 3809,
      "Ġheard": 3810,
      "ero": 3811,
      "Ġdetect": 3812,
      "omb": 3813,
      "udd": 3814,
      "Ġorganization": 3815,
      "Ġdifferences": 3816,
      "asts": 3817,
      "Ġinform": 3818,
      "Why": 3819,
      "Ġmob": 3820,
      "Ġdat": 3821,
      "lin": 3822,
      "Ġcommand": 3823,
      "ĠAugust": 3824,
      "Ġsymbol": 3825,
      "ilos": 3826,
      "Ġreduced": 3827,
      "Ġrunning": 3828,
      "mitted": 3829,
      "yth": 3830,
      "AL": 3831,
      "Ġconflic": 3832,
      "atin": 3833,
      "sec": 3834,
      "ĠChildren": 3835,
      "cember": 3836,
      "Ġspirit": 3837,
      "Ġtrade": 3838,
      "ĠProgram": 3839,
      "lim": 3840,
      "ĠTrans": 3841,
      "Ġdisorder": 3842,
      "Ġiron": 3843,
      "Ġapplied": 3844,
      "Ġlimit": 3845,
      "related": 3846,
      "Ġworked": 3847,
      "ĠPeople": 3848,
      "Ġelement": 3849,
      "aled": 3850,
      "Ġhappen": 3851,
      "ĠCommun": 3852,
      "Ġjournal": 3853,
      "Ġwrong": 3854,
      "Ġcopy": 3855,
      "orage": 3856,
      "Ġder": 3857,
      "ken": 3858,
      "ĠDuring": 3859,
      "ĠBecause": 3860,
      "Ġsequ": 3861,
      "Ġgraph": 3862,
      "Ġremove": 3863,
      "Ġmission": 3864,
      "Ġliqu": 3865,
      "Ġfunctions": 3866,
      "Ġpow": 3867,
      "ĠVir": 3868,
      "zz": 3869,
      "ĠJanuary": 3870,
      "Ġfemale": 3871,
      "ĠFeb": 3872,
      "ĠBo": 3873,
      "irection": 3874,
      "Ġtreated": 3875,
      "Ġlaws": 3876,
      "Ġexec": 3877,
      "Ġitems": 3878,
      "Ġbreast": 3879,
      "Ġgames": 3880,
      "Ġload": 3881,
      "Ġparent": 3882,
      "Ġhistorical": 3883,
      "Ġstrugg": 3884,
      "Ġstaff": 3885,
      "pped": 3886,
      "Ġextremely": 3887,
      "Ġperhaps": 3888,
      "Ġacqu": 3889,
      "Ġresource": 3890,
      "Ġidentified": 3891,
      "bed": 3892,
      "Ġhyp": 3893,
      "abilities": 3894,
      "Ġlegal": 3895,
      "2015": 3896,
      "ĠMuseum": 3897,
      "Ġweak": 3898,
      "Our": 3899,
      "Ġcourt": 3900,
      "ĠLondon": 3901,
      "After": 3902,
      "ĠBi": 3903,
      "Ġlearned": 3904,
      "Ġnutrition": 3905,
      "lege": 3906,
      "ĠSim": 3907,
      "ĠBlack": 3908,
      "uild": 3909,
      "ologist": 3910,
      "ĠSociety": 3911,
      "Ġrule": 3912,
      "Ġgoals": 3913,
      "Ġcomponents": 3914,
      "ux": 3915,
      "Ġmetal": 3916,
      "ĠMod": 3917,
      "Ġbalance": 3918,
      "Ġexcess": 3919,
      "DA": 3920,
      "Ġdistance": 3921,
      "Ġdestro": 3922,
      "Ġearlier": 3923,
      "Ġpromot": 3924,
      "Ġactions": 3925,
      "iring": 3926,
      "Ġletter": 3927,
      "Ġtask": 3928,
      "Ġtemperatures": 3929,
      "ĠLet": 3930,
      "ĠWilliam": 3931,
      "Ġoxygen": 3932,
      "Ġplanning": 3933,
      "Ġreligious": 3934,
      "ĠSince": 3935,
      "Ġhomes": 3936,
      "Ġroot": 3937,
      "Ġple": 3938,
      "45": 3939,
      "ingu": 3940,
      "ET": 3941,
      "amic": 3942,
      "riculum": 3943,
      "Ġunit": 3944,
      "ĠJust": 3945,
      "Ġprice": 3946,
      "Ġapply": 3947,
      "ĠSeptember": 3948,
      "ses": 3949,
      "According": 3950,
      "Ġplans": 3951,
      "Ġpeace": 3952,
      "Ġmal": 3953,
      "ovember": 3954,
      "Ġmath": 3955,
      "Ġcausing": 3956,
      "bur": 3957,
      "Ġfactor": 3958,
      "ĠChristian": 3959,
      "Ġpassed": 3960,
      "ĠGreen": 3961,
      "Ġkid": 3962,
      "Ġpresence": 3963,
      "Ġmedicine": 3964,
      "Ġboard": 3965,
      "inated": 3966,
      "ĠAssociation": 3967,
      "ara": 3968,
      "Ġinstruct": 3969,
      "195": 3970,
      "with": 3971,
      "Ġstore": 3972,
      "Ġchallenge": 3973,
      "ĠEast": 3974,
      "hab": 3975,
      "Ġround": 3976,
      "opy": 3977,
      "Ġflood": 3978,
      "Ġmajority": 3979,
      "Ġstrategies": 3980,
      "ĠInternet": 3981,
      "rick": 3982,
      "Ġoccup": 3983,
      "Ġgets": 3984,
      "Ġready": 3985,
      "Ġexisting": 3986,
      "Ġfix": 3987,
      "Ġtransfer": 3988,
      "Ġeffic": 3989,
      "ĠFound": 3990,
      "aul": 3991,
      "Ġexpand": 3992,
      "Now": 3993,
      "erate": 3994,
      "Ġbecoming": 3995,
      "Ġfigure": 3996,
      "aign": 3997,
      "Ġdecades": 3998,
      "Ġriver": 3999,
      "isl": 4000,
      "Ġsusp": 4001,
      "ĠPat": 4002,
      "Ġexperiences": 4003,
      "char": 4004,
      "rome": 4005,
      "Ġsect": 4006,
      "Res": 4007,
      "icip": 4008,
      "iding": 4009,
      "Ġequal": 4010,
      "Ġfeature": 4011,
      "ĠRoman": 4012,
      "Ph": 4013,
      "Ġban": 4014,
      "Ġappears": 4015,
      "emy": 4016,
      "Ġpartners": 4017,
      "ĠProt": 4018,
      "Ġshap": 4019,
      "Ġorganic": 4020,
      "Ġheavy": 4021,
      "hors": 4022,
      "Ġseeds": 4023,
      "Ġeventually": 4024,
      "Ġformer": 4025,
      "Ġconstruct": 4026,
      "Ġdepression": 4027,
      "Ġdogs": 4028,
      "Ġstream": 4029,
      "ares": 4030,
      "aint": 4031,
      "ube": 4032,
      "ĠPlan": 4033,
      "that": 4034,
      "encies": 4035,
      "ĠOctober": 4036,
      "ĠGovern": 4037,
      "Ġfavor": 4038,
      "Ġattract": 4039,
      "Ġsurvey": 4040,
      "Ġstim": 4041,
      "Ġrepe": 4042,
      "Ġcapacity": 4043,
      "ĠTheir": 4044,
      "Ġtrack": 4045,
      "ĠWeb": 4046,
      "nes": 4047,
      "Ġburn": 4048,
      "Ġmig": 4049,
      "ĠHouse": 4050,
      "Ġnotes": 4051,
      "ifically": 4052,
      "Ġbeautiful": 4053,
      "Ġpen": 4054,
      "Ġcontinued": 4055,
      "Ġrelatively": 4056,
      "Ġcand": 4057,
      "Ġspot": 4058,
      "Ġreports": 4059,
      "Ġregions": 4060,
      "Ġsuggests": 4061,
      "Ġencourage": 4062,
      "ogen": 4063,
      "Ġdri": 4064,
      "Ġnor": 4065,
      "Ġreleased": 4066,
      "Ġspect": 4067,
      "Ġbuy": 4068,
      "ĠBra": 4069,
      "Ġseven": 4070,
      "ĠJournal": 4071,
      "Ġsurgery": 4072,
      "ament": 4073,
      "ĠUN": 4074,
      "2016": 4075,
      "Ġbelief": 4076,
      "36": 4077,
      "Ġdangerous": 4078,
      "iance": 4079,
      "ĠProject": 4080,
      "Ġbottom": 4081,
      "Ġbelieved": 4082,
      "Ġrecommended": 4083,
      "Ġthr": 4084,
      "ĠDecember": 4085,
      "Ġdisorders": 4086,
      "phas": 4087,
      "Ġtrou": 4088,
      "Ġdrive": 4089,
      "rant": 4090,
      "Ġoffice": 4091,
      "Ġhappens": 4092,
      "Ġdrop": 4093,
      "ĠCur": 4094,
      "ĠMr": 4095,
      "EC": 4096,
      "Ġasse": 4097,
      "ĠChurch": 4098,
      "rael": 4099,
      "Ġanxiety": 4100,
      "ĠCoun": 4101,
      "Ġdegrees": 4102,
      "ieces": 4103,
      "ida": 4104,
      "Ġemp": 4105,
      "Ġcontext": 4106,
      "Ġstarting": 4107,
      "Ġvegetables": 4108,
      "oma": 4109,
      "Ġmeat": 4110,
      "edom": 4111,
      "ĠFood": 4112,
      "orge": 4113,
      "Sp": 4114,
      "Ġconservation": 4115,
      "Ġslight": 4116,
      "Ġexperts": 4117,
      "ĠFin": 4118,
      "ĠStudents": 4119,
      "Ġtele": 4120,
      "Ġimmediately": 4121,
      "Ġgeneration": 4122,
      "wards": 4123,
      "Ġocean": 4124,
      "rest": 4125,
      "esign": 4126,
      "do": 4127,
      "2017": 4128,
      "Ġhighest": 4129,
      "Ġreducing": 4130,
      "Ġhour": 4131,
      "Ġsch": 4132,
      "Ġdirection": 4133,
      "ologists": 4134,
      "Ġstructures": 4135,
      "Ġinstance": 4136,
      "Ġfields": 4137,
      "ographic": 4138,
      "Ġutil": 4139,
      "Ġlung": 4140,
      "Ġeggs": 4141,
      "ped": 4142,
      "Ġpollution": 4143,
      "ees": 4144,
      "co": 4145,
      "Ġstatus": 4146,
      "gra": 4147,
      "ĠCour": 4148,
      "Ġtrig": 4149,
      "Ġincome": 4150,
      "Ġsav": 4151,
      "Ġrot": 4152,
      "Ġdie": 4153,
      "Ġiniti": 4154,
      "Ġrelease": 4155,
      "ĠFrance": 4156,
      "Ġbound": 4157,
      "ĠCollege": 4158,
      "iling": 4159,
      "ocr": 4160,
      "Ġcomplic": 4161,
      "bal": 4162,
      "Ġmaster": 4163,
      "ĠSpec": 4164,
      "asion": 4165,
      "ĠNASA": 4166,
      "cking": 4167,
      "force": 4168,
      "Ġapproximately": 4169,
      "Ġrisks": 4170,
      "Ġassessment": 4171,
      "ĠOver": 4172,
      "Ġsetting": 4173,
      "Ġvary": 4174,
      "Ġkn": 4175,
      "Ġupd": 4176,
      "Ġlesson": 4177,
      "ĠPublic": 4178,
      "Ġserve": 4179,
      "Ġinfections": 4180,
      "Ġsolutions": 4181,
      "asks": 4182,
      "However": 4183,
      "ping": 4184,
      "Ġinjury": 4185,
      "cious": 4186,
      "Ġmist": 4187,
      "Ġcovered": 4188,
      "Ġexcell": 4189,
      "Ġbodies": 4190,
      "Ġcarried": 4191,
      "Ġchronic": 4192,
      "anging": 4193,
      "Ġdecisions": 4194,
      "ructure": 4195,
      "Ġlooks": 4196,
      "rie": 4197,
      "olid": 4198,
      "Ġbuildings": 4199,
      "Ġchanging": 4200,
      "Ġchurch": 4201,
      "ĠAng": 4202,
      "change": 4203,
      "75": 4204,
      "Ġresistance": 4205,
      "Ġfine": 4206,
      "Ġdefined": 4207,
      "Ġforces": 4208,
      "Ġcommercial": 4209,
      "ĠSch": 4210,
      "PH": 4211,
      "Ġtechnique": 4212,
      "ruary": 4213,
      "Ġestimated": 4214,
      "Ġden": 4215,
      "erved": 4216,
      "onds": 4217,
      "Ġdoub": 4218,
      "Ġqual": 4219,
      "Ġindustrial": 4220,
      "ogle": 4221,
      "bits": 4222,
      "Ġfeeling": 4223,
      "Ġaware": 4224,
      "ager": 4225,
      "Ġturned": 4226,
      "Ġcitizens": 4227,
      "ros": 4228,
      "ĠWhy": 4229,
      "Ġrequirements": 4230,
      "Ġvul": 4231,
      "Ġrat": 4232,
      "Ġtruth": 4233,
      "osystem": 4234,
      "Ġyellow": 4235,
      "Ġexperiment": 4236,
      "Ġconducted": 4237,
      "Ġalternative": 4238,
      "Ġlov": 4239,
      "ĠAut": 4240,
      "Ġanyone": 4241,
      "Ġnorm": 4242,
      "Ġexactly": 4243,
      "Ġseparate": 4244,
      "Ġurban": 4245,
      "Ġhelping": 4246,
      "cont": 4247,
      "ulf": 4248,
      "Ġprofessor": 4249,
      "Ġcomfort": 4250,
      "ĠMich": 4251,
      "ĠCor": 4252,
      "ĠBr": 4253,
      "Ġsustainable": 4254,
      "Ġsand": 4255,
      "Ġproperly": 4256,
      "Ġgrass": 4257,
      "ĠMary": 4258,
      "works": 4259,
      "Ġinflamm": 4260,
      "met": 4261,
      "ags": 4262,
      "2007": 4263,
      "ĠNovember": 4264,
      "Ġconnected": 4265,
      "Ġcycle": 4266,
      "rab": 4267,
      "Ġadult": 4268,
      "Ġcompar": 4269,
      "Ġspeech": 4270,
      "ĠOnce": 4271,
      "2014": 4272,
      "Ġrecords": 4273,
      "Ġfinding": 4274,
      "elines": 4275,
      "33": 4276,
      "Ġstorage": 4277,
      "2000": 4278,
      "Ġpul": 4279,
      "Ġtrust": 4280,
      "RE": 4281,
      "ternal": 4282,
      "Ġflowers": 4283,
      "Ġsignificantly": 4284,
      "Many": 4285,
      "ĠNet": 4286,
      "Ġpresented": 4287,
      "ĠPol": 4288,
      "Ġevolution": 4289,
      "cular": 4290,
      "Ġpick": 4291,
      "rupt": 4292,
      "Ġradio": 4293,
      "Ġoption": 4294,
      "Ġcombination": 4295,
      "Ġorganizations": 4296,
      "Ġwonder": 4297,
      "Ġpret": 4298,
      "Ġmag": 4299,
      "Ġinvolves": 4300,
      "orial": 4301,
      "ession": 4302,
      "Ġtum": 4303,
      "unction": 4304,
      "Ġwidely": 4305,
      "ĠMiss": 4306,
      "ĠDevelopment": 4307,
      "che": 4308,
      "ĠArch": 4309,
      "Ġmessage": 4310,
      "ĠSpace": 4311,
      "Ġvitamin": 4312,
      "Ġintroduced": 4313,
      "ald": 4314,
      "Ġgrade": 4315,
      "Ġcollege": 4316,
      "resp": 4317,
      "Ġves": 4318,
      "From": 4319,
      "Im": 4320,
      "ĠLaw": 4321,
      "Ġbright": 4322,
      "Ġthick": 4323,
      "Ġisland": 4324,
      "ĠÂ": 4325,
      "iment": 4326,
      "Ġlandsc": 4327,
      "Ġlooked": 4328,
      "Ġhorm": 4329,
      "urt": 4330,
      "tered": 4331,
      "fortun": 4332,
      "Ġmathemat": 4333,
      "Ġesc": 4334,
      "Ġinterested": 4335,
      "Ġmut": 4336,
      "HE": 4337,
      "Ġbackground": 4338,
      "gypt": 4339,
      "Ġmale": 4340,
      "Ġrecy": 4341,
      "Ġchemicals": 4342,
      "Ġhousehold": 4343,
      "ĠIsrael": 4344,
      "uses": 4345,
      "isation": 4346,
      "urance": 4347,
      "Ġconstit": 4348,
      "ĠSpanish": 4349,
      "ĠChe": 4350,
      "Ġpopulations": 4351,
      "No": 4352,
      "ĠProfess": 4353,
      "Ġradiation": 4354,
      "Ġreference": 4355,
      "Ġprofession": 4356,
      "ears": 4357,
      "Ġreality": 4358,
      "ĠInter": 4359,
      "ĠMars": 4360,
      "Ġarm": 4361,
      "Ġseed": 4362,
      "ĠMat": 4363,
      "raw": 4364,
      "Ġblog": 4365,
      "Ġlived": 4366,
      "Ġnovel": 4367,
      "Ġtrib": 4368,
      "Ġbird": 4369,
      "ishing": 4370,
      "Ġmorning": 4371,
      "Ġmanage": 4372,
      "Ġaspects": 4373,
      "eared": 4374,
      "My": 4375,
      "Ġalg": 4376,
      "Ġphysic": 4377,
      "Ġreplace": 4378,
      "Ġwhom": 4379,
      "190": 4380,
      "Ġfrequently": 4381,
      "Ġtour": 4382,
      "Ġclick": 4383,
      "Ġdiscover": 4384,
      "place": 4385,
      "Ġperspect": 4386,
      "lant": 4387,
      "186": 4388,
      "Ġawareness": 4389,
      "ĠGermany": 4390,
      "Ġsexual": 4391,
      "Ġyouth": 4392,
      "Ġacademic": 4393,
      "ressive": 4394,
      "Ġpromote": 4395,
      "Ġclinical": 4396,
      "board": 4397,
      "umn": 4398,
      "othes": 4399,
      "Ġamounts": 4400,
      "Ġpal": 4401,
      "Ġvaccine": 4402,
      "Ġdesp": 4403,
      "Ġhelped": 4404,
      "Ġarticles": 4405,
      "Ġparticipants": 4406,
      "Ġpieces": 4407,
      "aughter": 4408,
      "Ġcomprehens": 4409,
      "Ġcontract": 4410,
      "Ġexposed": 4411,
      "ĠPal": 4412,
      "Ġannual": 4413,
      "olved": 4414,
      "Ġdivid": 4415,
      "Ġmel": 4416,
      "PS": 4417,
      "oke": 4418,
      "apers": 4419,
      "ognitive": 4420,
      "Ġfort": 4421,
      "Ġded": 4422,
      "Ġscen": 4423,
      "Ġdivers": 4424,
      "Ġclasses": 4425,
      "ĠPress": 4426,
      "Ġmoved": 4427,
      "AD": 4428,
      "Ġpip": 4429,
      "ĠTex": 4430,
      "Ġhearing": 4431,
      "ĠPhil": 4432,
      "Ġsquare": 4433,
      "atically": 4434,
      "Ġvoice": 4435,
      "Ġsnow": 4436,
      "Ġcompl": 4437,
      "Ġadapt": 4438,
      "Ġmostly": 4439,
      "Ġcoal": 4440,
      "Ad": 4441,
      "Ġdrink": 4442,
      "road": 4443,
      "Ġadvanced": 4444,
      "Ġfilm": 4445,
      "which": 4446,
      "Ġconcepts": 4447,
      "Ġpages": 4448,
      "Ġmuscles": 4449,
      "Ġlinked": 4450,
      "32": 4451,
      "More": 4452,
      "Ġallerg": 4453,
      "igen": 4454,
      "Ġprefer": 4455,
      "Most": 4456,
      "Ġdrinking": 4457,
      "Ġwet": 4458,
      "Ġemail": 4459,
      "Ġatmosphere": 4460,
      "Ġcalc": 4461,
      "Ġperformed": 4462,
      "poses": 4463,
      "imens": 4464,
      "Ġintellig": 4465,
      "Ġactual": 4466,
      "Ġdistribution": 4467,
      "raction": 4468,
      "Ġvari": 4469,
      "Ġvessel": 4470,
      "Ġupper": 4471,
      "Ġpolicies": 4472,
      "omic": 4473,
      "ĠUnion": 4474,
      "roke": 4475,
      "rog": 4476,
      "Ġdisp": 4477,
      "Ġconnection": 4478,
      "Ġcast": 4479,
      "Ġprepar": 4480,
      "31": 4481,
      "Ġsolid": 4482,
      "Ġremoved": 4483,
      "Ġwanted": 4484,
      "cers": 4485,
      "ĠST": 4486,
      "ĠGeneral": 4487,
      "Ġauthors": 4488,
      "ĠIsland": 4489,
      "Ġcredit": 4490,
      "ĠAir": 4491,
      "Ġsong": 4492,
      "Ġdiscussion": 4493,
      "Ġtips": 4494,
      "Ġfarmers": 4495,
      "Ġengineering": 4496,
      "Ġign": 4497,
      "ado": 4498,
      "Ġemphas": 4499,
      "Ġdepending": 4500,
      "Ġobserved": 4501,
      "omas": 4502,
      "Ġexpert": 4503,
      "ĠCongress": 4504,
      "AM": 4505,
      "Ġsample": 4506,
      "Ġfol": 4507,
      "ĠAv": 4508,
      "Ġhit": 4509,
      "ĠWestern": 4510,
      "Ġspent": 4511,
      "Ġnumerous": 4512,
      "Ġlayer": 4513,
      "ĠFebruary": 4514,
      "CO": 4515,
      "Ġtrend": 4516,
      "Ġgender": 4517,
      "Ġconsult": 4518,
      "Ġfailure": 4519,
      "mal": 4520,
      "Ġopin": 4521,
      "Ġprint": 4522,
      "rum": 4523,
      "Ġleads": 4524,
      "Do": 4525,
      "hetic": 4526,
      "ball": 4527,
      "Ġsac": 4528,
      "ĠDi": 4529,
      "riage": 4530,
      "ndrome": 4531,
      "ferences": 4532,
      "Ġelimin": 4533,
      "38": 4534,
      "key": 4535,
      "ĠEgypt": 4536,
      "Ġexperienced": 4537,
      "Ġnutrients": 4538,
      "icial": 4539,
      "Ġpredict": 4540,
      "Ġincorpor": 4541,
      "ressed": 4542,
      "mark": 4543,
      "Ġmotor": 4544,
      "atform": 4545,
      "ingly": 4546,
      "Ġtreatments": 4547,
      "Ġstorm": 4548,
      "Ġresulting": 4549,
      "Ġforeign": 4550,
      "ĠHel": 4551,
      "Ġseek": 4552,
      "Ġphen": 4553,
      "Ġthoughts": 4554,
      "Ġkill": 4555,
      "Ġrenew": 4556,
      "Ġcook": 4557,
      "uit": 4558,
      "Ġaffects": 4559,
      "Ġoutput": 4560,
      "ĠJewish": 4561,
      "ĠPhys": 4562,
      "Ġelectrical": 4563,
      "ously": 4564,
      "ieties": 4565,
      "Ġsaying": 4566,
      "Ġgene": 4567,
      "Ġkept": 4568,
      "Ġsort": 4569,
      "Ġsend": 4570,
      "Ġsalt": 4571,
      "ĠUnder": 4572,
      "Ġvulner": 4573,
      "Ġeffectively": 4574,
      "Ġcore": 4575,
      "Ġnotice": 4576,
      "Ġcampaign": 4577,
      "Ġnuclear": 4578,
      "37": 4579,
      "Ġvolunt": 4580,
      "Sc": 4581,
      "Ġhop": 4582,
      "Ġserved": 4583,
      "Ġrelationships": 4584,
      "Ġdyn": 4585,
      "Ġgirls": 4586,
      "Ġstraight": 4587,
      "ĠLearning": 4588,
      "ocal": 4589,
      "Ġoperations": 4590,
      "Ġstatement": 4591,
      "Ġdestroy": 4592,
      "Ġfaith": 4593,
      "ĠJapanese": 4594,
      "Ġaren": 4595,
      "ĠDec": 4596,
      "ĠEnergy": 4597,
      "Ġemotional": 4598,
      "porary": 4599,
      "Ġvolume": 4600,
      "Ġfing": 4601,
      "order": 4602,
      "ĠLa": 4603,
      "Ġinitial": 4604,
      "Ġsounds": 4605,
      "Ab": 4606,
      "isher": 4607,
      "Ġadjust": 4608,
      "ĠHuman": 4609,
      "Ġmeeting": 4610,
      "oul": 4611,
      "Ġinput": 4612,
      "zing": 4613,
      "Ġmanufacture": 4614,
      "Ġassum": 4615,
      "Ġviolence": 4616,
      "ĠCouncil": 4617,
      "Ġpresc": 4618,
      "Ġdro": 4619,
      "Ġgar": 4620,
      "ĠRem": 4621,
      "Ġbattle": 4622,
      "Ġcharacteristics": 4623,
      "Ġshar": 4624,
      "iled": 4625,
      "ĠGreek": 4626,
      "ek": 4627,
      "Ġinvent": 4628,
      "ĠSun": 4629,
      "ias": 4630,
      "Ġcurriculum": 4631,
      "clus": 4632,
      "ĠMedicine": 4633,
      "Although": 4634,
      "Ġmoist": 4635,
      "2006": 4636,
      "Ġdram": 4637,
      "ĠOb": 4638,
      "Ġlanguages": 4639,
      "Ġliquid": 4640,
      "Ġtaught": 4641,
      "Ġreaction": 4642,
      "Ġlinks": 4643,
      "Ġadvice": 4644,
      "Ġdiagnosis": 4645,
      "itors": 4646,
      "Ġlose": 4647,
      "ta": 4648,
      "Ġcontribute": 4649,
      "II": 4650,
      "Ġconcerns": 4651,
      "ĠFore": 4652,
      "kin": 4653,
      "Ġecosystem": 4654,
      "ĠIts": 4655,
      "ĠLord": 4656,
      "acing": 4657,
      "New": 4658,
      "Ġlatest": 4659,
      "Ġnorthern": 4660,
      "Ġgod": 4661,
      "Ġclos": 4662,
      "Ġphilos": 4663,
      "Ġastron": 4664,
      "Ġbow": 4665,
      "roph": 4666,
      "ĠMexico": 4667,
      "Ġallowing": 4668,
      "Ġspend": 4669,
      "ĠHIV": 4670,
      "Ġwel": 4671,
      "Ġrace": 4672,
      "tical": 4673,
      "Ġbud": 4674,
      "ĠOrgan": 4675,
      "Ġrh": 4676,
      "ilit": 4677,
      "Ġletters": 4678,
      "Ġreprodu": 4679,
      "ĠTherefore": 4680,
      "RO": 4681,
      "aturally": 4682,
      "Con": 4683,
      "ĠMake": 4684,
      "Ġbegins": 4685,
      "Cl": 4686,
      "chers": 4687,
      "Ġtoxic": 4688,
      "amental": 4689,
      "39": 4690,
      "oxide": 4691,
      "Ġdatab": 4692,
      "Ġvehicle": 4693,
      "Ġexcellent": 4694,
      "Ġprepared": 4695,
      "Ġfoss": 4696,
      "Ġnerv": 4697,
      "Ġplaying": 4698,
      "Ġvital": 4699,
      "Ġcreation": 4700,
      "Ġwaters": 4701,
      "ams": 4702,
      "ĠMount": 4703,
      "Ġmeant": 4704,
      "za": 4705,
      "Ġhom": 4706,
      "Ġessay": 4707,
      "othing": 4708,
      "Ġdigest": 4709,
      "Ġreferred": 4710,
      "Ġaid": 4711,
      "Ġdistinct": 4712,
      "Ġsynt": 4713,
      "Ġtransform": 4714,
      "uke": 4715,
      "Ġheight": 4716,
      "ĠEvery": 4717,
      "rete": 4718,
      "Ġfaster": 4719,
      "mat": 4720,
      "Ġdescribe": 4721,
      "ĠTexas": 4722,
      "Ġpric": 4723,
      "ĠService": 4724,
      "wood": 4725,
      "Ġsurpris": 4726,
      "Ġtopics": 4727,
      "itage": 4728,
      "ĠRel": 4729,
      "Ġexplains": 4730,
      "Ġpaint": 4731,
      "Ġunivers": 4732,
      "standing": 4733,
      "ĠMedical": 4734,
      "onic": 4735,
      "umin": 4736,
      "Ġcris": 4737,
      "Ġsweet": 4738,
      "ĠDise": 4739,
      "cast": 4740,
      "Ġpresident": 4741,
      "ĠNews": 4742,
      "Ġsem": 4743,
      "Ġlegisl": 4744,
      "Ġlic": 4745,
      "Ġjoint": 4746,
      "34": 4747,
      "ady": 4748,
      "iveness": 4749,
      "Ġpreviously": 4750,
      "Ġkilled": 4751,
      "Ġclearly": 4752,
      "Ġfruits": 4753,
      "ĠIS": 4754,
      "Ġord": 4755,
      "akers": 4756,
      "ĠMor": 4757,
      "Ġcounter": 4758,
      "Ġcere": 4759,
      "Ġfacts": 4760,
      "ĠAsia": 4761,
      "Ġefficiency": 4762,
      "Ġstars": 4763,
      "Ġadvantage": 4764,
      "Ġlessons": 4765,
      "Ġvictim": 4766,
      "Ġcontinues": 4767,
      "ĠMark": 4768,
      "Ġprocedure": 4769,
      "ĠJames": 4770,
      "Ġprocessing": 4771,
      "ĠTest": 4772,
      "ĠDavid": 4773,
      "ĠTechnology": 4774,
      "Ġsmart": 4775,
      "Ġimpacts": 4776,
      "ĠClass": 4777,
      "300": 4778,
      "rep": 4779,
      "ĠBel": 4780,
      "Ġfiles": 4781,
      "alled": 4782,
      "Ġinvolve": 4783,
      "Ġindependent": 4784,
      "Ġjobs": 4785,
      "Ġdental": 4786,
      "ixt": 4787,
      "eline": 4788,
      "Ġfelt": 4789,
      "Ġhaz": 4790,
      "US": 4791,
      "iverse": 4792,
      "part": 4793,
      "Ġquar": 4794,
      "ĠOff": 4795,
      "icated": 4796,
      "Ġbrother": 4797,
      "Ġmoon": 4798,
      "Ġoral": 4799,
      "Ġbelong": 4800,
      "Ġnoted": 4801,
      "ĠDirect": 4802,
      "rates": 4803,
      "Of": 4804,
      "Ġcharge": 4805,
      "ded": 4806,
      "Ġvot": 4807,
      "ometimes": 4808,
      "ception": 4809,
      "ĠFlor": 4810,
      "Ġregarding": 4811,
      "vision": 4812,
      "Ġsouthern": 4813,
      "Ġhospital": 4814,
      "Ġkeeping": 4815,
      "Ġsituations": 4816,
      "Ġcert": 4817,
      "ifying": 4818,
      "Ġinternal": 4819,
      "Ġmer": 4820,
      "Ġowners": 4821,
      "Ġship": 4822,
      "Ġgrant": 4823,
      "Ġdefic": 4824,
      "2005": 4825,
      "uration": 4826,
      "Ġroll": 4827,
      "well": 4828,
      "ĠFoundation": 4829,
      "uing": 4830,
      "roup": 4831,
      "Ġminor": 4832,
      "Ġphone": 4833,
      "Ġpractical": 4834,
      "ey": 4835,
      "enth": 4836,
      "Ġdetermined": 4837,
      "asure": 4838,
      "ĠMal": 4839,
      "Ġcompleted": 4840,
      "Read": 4841,
      "Ġkil": 4842,
      "Ġthin": 4843,
      "tes": 4844,
      "Ġfocused": 4845,
      "ĠCle": 4846,
      "Ġdoll": 4847,
      "ĠTur": 4848,
      "Ġisol": 4849,
      "Ġhelpful": 4850,
      "Ġdefinition": 4851,
      "Ġsignal": 4852,
      "Ġdiam": 4853,
      "Ġcomment": 4854,
      "Ġshared": 4855,
      "Ġdoor": 4856,
      "Ġhabitat": 4857,
      "acters": 4858,
      "Ġbank": 4859,
      "2020": 4860,
      "Ġdecided": 4861,
      "ĠAcad": 4862,
      "Ġstone": 4863,
      "Ġther": 4864,
      "Ġimproved": 4865,
      "Ġthee": 4866,
      "OT": 4867,
      "Ġparticles": 4868,
      "cling": 4869,
      "Ġprinciples": 4870,
      "acific": 4871,
      "ago": 4872,
      "ĠToday": 4873,
      "unk": 4874,
      "plant": 4875,
      "Ġshowing": 4876,
      "comes": 4877,
      "Ġrelevant": 4878,
      "arrow": 4879,
      "Ġgenes": 4880,
      "what": 4881,
      "Ġstation": 4882,
      "Ġmainly": 4883,
      "ĠSocial": 4884,
      "uting": 4885,
      "ĠSub": 4886,
      "Ġunits": 4887,
      "ĠGeorge": 4888,
      "Ġplatform": 4889,
      "Ġoperation": 4890,
      "ounced": 4891,
      "Ġfloor": 4892,
      "Ġagg": 4893,
      "rapy": 4894,
      "Ġemergency": 4895,
      "Ġrecorded": 4896,
      "orrow": 4897,
      "Ġparty": 4898,
      "Ġpu": 4899,
      "rations": 4900,
      "Ġrough": 4901,
      "Ġcolors": 4902,
      "Ġinternet": 4903,
      "vis": 4904,
      "ipped": 4905,
      "Ġliterature": 4906,
      "ophy": 4907,
      "Ġpurposes": 4908,
      "ĠCivil": 4909,
      "ĠGoogle": 4910,
      "anch": 4911,
      "ĠSy": 4912,
      "atric": 4913,
      "Ġflat": 4914,
      "Ġconfirm": 4915,
      "Ġconcern": 4916,
      "Ġfreedom": 4917,
      "Ġmanner": 4918,
      "going": 4919,
      "Ġkinds": 4920,
      "ĠUsing": 4921,
      "ING": 4922,
      "Ġconv": 4923,
      "Ġwear": 4924,
      "Ġtouch": 4925,
      "Ġcircum": 4926,
      "Ġstrategy": 4927,
      "Ġwife": 4928,
      "Ġages": 4929,
      "Ġcareer": 4930,
      "Ġhorse": 4931,
      "Ġclim": 4932,
      "Ġoperating": 4933,
      "ander": 4934,
      "ĠRepublic": 4935,
      "bi": 4936,
      "Ġpun": 4937,
      "Ġliver": 4938,
      "Â°": 4939,
      "Te": 4940,
      "band": 4941,
      "Ġdirector": 4942,
      "rastructure": 4943,
      "down": 4944,
      "Ġtrain": 4945,
      "Ġflex": 4946,
      "Ġcoord": 4947,
      "Ġdeaths": 4948,
      "Ġmentioned": 4949,
      "Ġdouble": 4950,
      "Ġtasks": 4951,
      "Pl": 4952,
      "ĠSee": 4953,
      "Ġju": 4954,
      "Ġpray": 4955,
      "Ġonto": 4956,
      "ault": 4957,
      "ĠWind": 4958,
      "ĠPort": 4959,
      "Ġcollected": 4960,
      "Ġideal": 4961,
      "Ġmedications": 4962,
      "EL": 4963,
      "Ġcontrast": 4964,
      "Ġfrequency": 4965,
      "Ġdiscovery": 4966,
      "Ġextensive": 4967,
      "Ġsurrounding": 4968,
      "mas": 4969,
      "Ġfamiliar": 4970,
      "Ġaccurate": 4971,
      "Ġcrops": 4972,
      "oyal": 4973,
      "ĠSam": 4974,
      "Ġwealth": 4975,
      "ĠBas": 4976,
      "rier": 4977,
      "Ġsuffer": 4978,
      "gu": 4979,
      "olester": 4980,
      "Ġreached": 4981,
      "tee": 4982,
      "Re": 4983,
      "Ġpig": 4984,
      "Ġprotected": 4985,
      "ĠLou": 4986,
      "Ġknew": 4987,
      "Ġcoff": 4988,
      "Ġintended": 4989,
      "pen": 4990,
      "Ġgrown": 4991,
      "anguage": 4992,
      "ĠRober": 4993,
      "eria": 4994,
      "Ġobvious": 4995,
      "ĠLatin": 4996,
      "Dr": 4997,
      "Ġinfected": 4998,
      "Ġpretty": 4999,
      "ĠStand": 5000,
      "Ġterrit": 5001,
      "ĠVol": 5002,
      "Ġingred": 5003,
      "AP": 5004,
      "Ġfeelings": 5005,
      "Ġnit": 5006,
      "ĠBook": 5007,
      "Ġsche": 5008,
      "ĠWhite": 5009,
      "ework": 5010,
      "olesterol": 5011,
      "Ġcoin": 5012,
      "Ġresist": 5013,
      "Ġinstruction": 5014,
      "omach": 5015,
      "Ġinches": 5016,
      "ails": 5017,
      "Ġconflict": 5018,
      "Ġhundreds": 5019,
      "Ġcharacters": 5020,
      "Americ": 5021,
      "active": 5022,
      "Ġwalls": 5023,
      "iest": 5024,
      "Ġtalking": 5025,
      "iced": 5026,
      "2018": 5027,
      "Ġconclud": 5028,
      "Ġpregnancy": 5029,
      "ĠAD": 5030,
      "ĠLibrary": 5031,
      "Ġdriving": 5032,
      "col": 5033,
      "ĠHol": 5034,
      "Ġdetailed": 5035,
      "TM": 5036,
      "win": 5037,
      "Ġgrand": 5038,
      "ĠOld": 5039,
      "Ġbrief": 5040,
      "ĠRev": 5041,
      "Ġrul": 5042,
      "verty": 5043,
      "ĠData": 5044,
      "Ġcrucial": 5045,
      "osa": 5046,
      "Ġpoverty": 5047,
      "Ġdownload": 5048,
      "ĠDem": 5049,
      "ville": 5050,
      "Ġmort": 5051,
      "ĠWild": 5052,
      "48": 5053,
      "Ġnav": 5054,
      "ya": 5055,
      "Ġofficial": 5056,
      "Ġconsequences": 5057,
      "95": 5058,
      "Ġwildlife": 5059,
      "ĠQue": 5060,
      "ĠMil": 5061,
      "ĠLife": 5062,
      "tion": 5063,
      "Ġnaturally": 5064,
      "ĠRich": 5065,
      "Ġadding": 5066,
      "Ġstret": 5067,
      "Â·": 5068,
      "ificial": 5069,
      "ĠMart": 5070,
      "ancing": 5071,
      "fered": 5072,
      "rolog": 5073,
      "Ġregularly": 5074,
      "ishes": 5075,
      "Ġstem": 5076,
      "2019": 5077,
      "65": 5078,
      "Ġcertainly": 5079,
      "Ġattacks": 5080,
      "Ġmotiv": 5081,
      "Ġtraffic": 5082,
      "Ġmetab": 5083,
      "Ġraised": 5084,
      "Ġinstrument": 5085,
      "aker": 5086,
      "Ġlik": 5087,
      "Ġinfluen": 5088,
      "Ġbones": 5089,
      "bing": 5090,
      "Ġsatell": 5091,
      "Ġfertil": 5092,
      "Ġconver": 5093,
      "Ġcombined": 5094,
      "Ġcenturies": 5095,
      "Ġble": 5096,
      "Ġperman": 5097,
      "Ġvalu": 5098,
      "Ġdiss": 5099,
      "Ġpictures": 5100,
      "och": 5101,
      "ourney": 5102,
      "Ġagricultural": 5103,
      "Ġpotentially": 5104,
      "Ġsecret": 5105,
      "ĠThus": 5106,
      "mp": 5107,
      "Ġspecifically": 5108,
      "Ġinflammation": 5109,
      "Ġmonitoring": 5110,
      "Us": 5111,
      "Ġotherwise": 5112,
      "Ġvast": 5113,
      "Ġbill": 5114,
      "Ġwest": 5115,
      "ĠBay": 5116,
      "Ġtested": 5117,
      "rans": 5118,
      "Ġsupported": 5119,
      "ras": 5120,
      "astern": 5121,
      "Ġmillions": 5122,
      "Ġreb": 5123,
      "Ġabuse": 5124,
      "enses": 5125,
      "ĠDist": 5126,
      "rich": 5127,
      "aks": 5128,
      "OS": 5129,
      "Ġdepth": 5130,
      "Ġcouple": 5131,
      "west": 5132,
      "cel": 5133,
      "Ġtechnical": 5134,
      "ONE": 5135,
      "itz": 5136,
      "gl": 5137,
      "Ġexpression": 5138,
      "Ġslightly": 5139,
      "ĠDef": 5140,
      "Ġworldwide": 5141,
      "ĠHen": 5142,
      "Ġgall": 5143,
      "eters": 5144,
      "Ġrub": 5145,
      "esity": 5146,
      "Ġfill": 5147,
      "umber": 5148,
      "Ġreduction": 5149,
      "Ġcognitive": 5150,
      "ĠMac": 5151,
      "Ġsubjects": 5152,
      "Ġhappened": 5153,
      "Ġinjuries": 5154,
      "inn": 5155,
      "Ġlib": 5156,
      "espite": 5157,
      "fortunately": 5158,
      "Ġbrown": 5159,
      "Ġtypical": 5160,
      "ĠBritain": 5161,
      "osite": 5162,
      "Ġphase": 5163,
      "ĠInformation": 5164,
      "Ġboost": 5165,
      "Ġsamples": 5166,
      "Ġhyper": 5167,
      "Ġformat": 5168,
      "ĠOut": 5169,
      "Ġexpensive": 5170,
      "Ġvisible": 5171,
      "oper": 5172,
      "Ġsuffering": 5173,
      "Ġattrib": 5174,
      "inate": 5175,
      "Ġoffered": 5176,
      "Ġwindow": 5177,
      "Ġfluid": 5178,
      "ATE": 5179,
      "Ġmuseum": 5180,
      "ague": 5181,
      "ossible": 5182,
      "ij": 5183,
      "99": 5184,
      "icks": 5185,
      "Ġformation": 5186,
      "Another": 5187,
      "ĠLake": 5188,
      "Ġdeliver": 5189,
      "Ġreturned": 5190,
      "Ġsick": 5191,
      "Ġproteins": 5192,
      "Ġprimarily": 5193,
      "ĠBen": 5194,
      "erals": 5195,
      "ĠPaul": 5196,
      "ria": 5197,
      "Ġplayed": 5198,
      "Ġmotion": 5199,
      "Ġprepare": 5200,
      "Ġharvest": 5201,
      "Ġroots": 5202,
      "Ġrefers": 5203,
      "Ġwire": 5204,
      "being": 5205,
      "Your": 5206,
      "Ġadvance": 5207,
      "ĠControl": 5208,
      "ael": 5209,
      "Ġpark": 5210,
      "Ġfacilities": 5211,
      "Ġstudied": 5212,
      "van": 5213,
      "Ġpump": 5214,
      "ĠJe": 5215,
      "CC": 5216,
      "imer": 5217,
      "Ġindicate": 5218,
      "amily": 5219,
      "berg": 5220,
      "Other": 5221,
      "fall": 5222,
      "Ġhappy": 5223,
      "Ġsen": 5224,
      "Ġfinally": 5225,
      "Ġforced": 5226,
      "ĠPacific": 5227,
      "resents": 5228,
      "athy": 5229,
      "Ġlifest": 5230,
      "ĠProfessor": 5231,
      "ĠWomen": 5232,
      "but": 5233,
      "ĠFlorida": 5234,
      "rid": 5235,
      "Ġhealthcare": 5236,
      "ario": 5237,
      "ĠJer": 5238,
      "Ġnan": 5239,
      "Ġconsists": 5240,
      "Ġidentity": 5241,
      "Ġdust": 5242,
      "Ġbear": 5243,
      "Ġtiny": 5244,
      "Ġraise": 5245,
      "flow": 5246,
      "Ġexplained": 5247,
      "Ġappearance": 5248,
      "Ġinstitutions": 5249,
      "Ġexplan": 5250,
      "Not": 5251,
      "Ġinterpret": 5252,
      "ĠMet": 5253,
      "ĠEngine": 5254,
      "ĠCarol": 5255,
      "Ġdin": 5256,
      "Ġmeasured": 5257,
      "long": 5258,
      "Ġresidents": 5259,
      "Ġstarts": 5260,
      "Ġgone": 5261,
      "anges": 5262,
      "ĠEnvironmental": 5263,
      "ulin": 5264,
      "Ġcomputers": 5265,
      "Ġleaf": 5266,
      "ĠScient": 5267,
      "Ġphenomen": 5268,
      "Ġmaximum": 5269,
      "BC": 5270,
      "Ġwish": 5271,
      "Ġrecovery": 5272,
      "ĠCentral": 5273,
      "Ġdespite": 5274,
      "Ġworse": 5275,
      "Ġbiological": 5276,
      "ĠKnow": 5277,
      "iotics": 5278,
      "Ġdoctors": 5279,
      "earchers": 5280,
      "Ġgreatest": 5281,
      "ĠVirgin": 5282,
      "otic": 5283,
      "Ġharmful": 5284,
      "Ġsector": 5285,
      "Ġhunt": 5286,
      "Ġdisapp": 5287,
      "Ġproposed": 5288,
      "Ġcardi": 5289,
      "Ġfr": 5290,
      "Ġsatis": 5291,
      "Ġperspective": 5292,
      "free": 5293,
      "osen": 5294,
      "Ġcreative": 5295,
      "Ġsed": 5296,
      "atever": 5297,
      "Ġperiods": 5298,
      "teries": 5299,
      "Ġmarine": 5300,
      "Ġincreasingly": 5301,
      "Ġseeing": 5302,
      "Stud": 5303,
      "Ġstomach": 5304,
      "obe": 5305,
      "Ġband": 5306,
      "ĠCourt": 5307,
      "Ġdepends": 5308,
      "ctic": 5309,
      "Ġsyn": 5310,
      "Ġdecrease": 5311,
      "ĠInstead": 5312,
      "Ġleaving": 5313,
      "dden": 5314,
      "Ġfly": 5315,
      "Ġgal": 5316,
      "Ġvent": 5317,
      "word": 5318,
      "Ġfab": 5319,
      "ĠPost": 5320,
      "Ġinfrastructure": 5321,
      "clusion": 5322,
      "hma": 5323,
      "igation": 5324,
      "2004": 5325,
      "Ġamaz": 5326,
      "Ġfunding": 5327,
      "DC": 5328,
      "tenance": 5329,
      "Ġrapidly": 5330,
      "Ġconvent": 5331,
      "ĠWell": 5332,
      "Ġvaluable": 5333,
      "Ġwit": 5334,
      "ĠNature": 5335,
      "Ġwarming": 5336,
      "Ġgum": 5337,
      "Ġbusinesses": 5338,
      "ĠSen": 5339,
      "pping": 5340,
      "stitution": 5341,
      "ĠGovernment": 5342,
      "lar": 5343,
      "Ġcatch": 5344,
      "ĠElect": 5345,
      "acts": 5346,
      "Ġenhance": 5347,
      "Lear": 5348,
      "Ġcloud": 5349,
      "nic": 5350,
      "Ġimproving": 5351,
      "Ġwww": 5352,
      "Ġsets": 5353,
      "Ġcomponent": 5354,
      "Ġfif": 5355,
      "Ġrecip": 5356,
      "Ġrail": 5357,
      "ĠSea": 5358,
      "Ġrepresents": 5359,
      "Ġdial": 5360,
      "Let": 5361,
      "agues": 5362,
      "ĠAN": 5363,
      "Ġsettle": 5364,
      "osc": 5365,
      "RI": 5366,
      "ompl": 5367,
      "Ġleader": 5368,
      "gal": 5369,
      "Ġreaders": 5370,
      "Ġbreathing": 5371,
      "zy": 5372,
      "Ġminimum": 5373,
      "Ġeast": 5374,
      "Ġacids": 5375,
      "ĠMass": 5376,
      "ĠPower": 5377,
      "Ġfirm": 5378,
      "ship": 5379,
      "Ġresponsibility": 5380,
      "Ġdomestic": 5381,
      "ga": 5382,
      "nel": 5383,
      "ĠCath": 5384,
      "Ġvehicles": 5385,
      "oom": 5386,
      "pass": 5387,
      "Ġarms": 5388,
      "Ġmanufacturing": 5389,
      "Ġagriculture": 5390,
      "ĠSum": 5391,
      "Ġshel": 5392,
      "Ġinvestment": 5393,
      "1990": 5394,
      "Ġsubstance": 5395,
      "Ġneut": 5396,
      "aser": 5397,
      "Ġappeared": 5398,
      "Ġintake": 5399,
      "roc": 5400,
      "anes": 5401,
      "ested": 5402,
      "Ġreligion": 5403,
      "Ġcars": 5404,
      "Cont": 5405,
      "Ġgenerate": 5406,
      "Ġmobile": 5407,
      "188": 5408,
      "Ġcoffee": 5409,
      "Ġanswers": 5410,
      "Ġtitle": 5411,
      "ĠGet": 5412,
      "Ġelectronic": 5413,
      "Ġseg": 5414,
      "agers": 5415,
      "Ġsyndrome": 5416,
      "Ġinterview": 5417,
      "Ġsight": 5418,
      "Ġsufficient": 5419,
      "Ġprofessionals": 5420,
      "Ġsudden": 5421,
      "Ġrecognize": 5422,
      "Ġmassive": 5423,
      "Ġdivided": 5424,
      "ĠDisc": 5425,
      "field": 5426,
      "Ġdream": 5427,
      "ctor": 5428,
      "cest": 5429,
      "ona": 5430,
      "Ġtun": 5431,
      "Ġsod": 5432,
      "Ġcholesterol": 5433,
      "iated": 5434,
      "asive": 5435,
      "DF": 5436,
      "TS": 5437,
      "celer": 5438,
      "Ġspl": 5439,
      "Ġcorresp": 5440,
      "Ġcontaining": 5441,
      "Ġtow": 5442,
      "Ġcolour": 5443,
      "Ġlaun": 5444,
      "itc": 5445,
      "Ġrural": 5446,
      "Ġremind": 5447,
      "olute": 5448,
      "Ġfollows": 5449,
      "uls": 5450,
      "Ġportion": 5451,
      "Ġwaves": 5452,
      "oto": 5453,
      "Ġsports": 5454,
      "Ġgovernments": 5455,
      "ĠAbout": 5456,
      "Ġsolve": 5457,
      "Ġsecure": 5458,
      "Ġcontinuous": 5459,
      "Ind": 5460,
      "Ġfle": 5461,
      "roid": 5462,
      "Ġtwice": 5463,
      "Ġoccurred": 5464,
      "En": 5465,
      "Ġlargely": 5466,
      "alse": 5467,
      "ĠBible": 5468,
      "Ġchain": 5469,
      "des": 5470,
      "Ġchann": 5471,
      "HO": 5472,
      "Ġstored": 5473,
      "Ġpull": 5474,
      "Ġnormally": 5475,
      "Ġsides": 5476,
      "ĠLand": 5477,
      "ota": 5478,
      "ĠBoth": 5479,
      "Ġinsects": 5480,
      "55": 5481,
      "Ġremote": 5482,
      "ĠEv": 5483,
      "Ġbattery": 5484,
      "Ġjourney": 5485,
      "Ġprevention": 5486,
      "Ġlibrary": 5487,
      "stood": 5488,
      "Ġshell": 5489,
      "ĠSal": 5490,
      "ĠTreat": 5491,
      "Ġclosed": 5492,
      "rem": 5493,
      "Ġmine": 5494,
      "ĠSer": 5495,
      "Ġtrial": 5496,
      "Ġlisted": 5497,
      "Ġbreath": 5498,
      "Ġroutine": 5499,
      "igenous": 5500,
      "ĠIr": 5501,
      "lers": 5502,
      "Ġimmun": 5503,
      "Ġintroduction": 5504,
      "ĠManagement": 5505,
      "Ġmedication": 5506,
      "ĠCommission": 5507,
      "Ġprocedures": 5508,
      "Ġapproaches": 5509,
      "ye": 5510,
      "Ġprices": 5511,
      "Ġsentence": 5512,
      "istan": 5513,
      "Ġedge": 5514,
      "ĠFranc": 5515,
      "Ġoutcomes": 5516,
      "rian": 5517,
      "Ġphotos": 5518,
      "inent": 5519,
      "Ġlots": 5520,
      "Ġinject": 5521,
      "Ġlabel": 5522,
      "Ġrecognized": 5523,
      "Ġdent": 5524,
      "Ġclosely": 5525,
      "Ġextract": 5526,
      "Ġtail": 5527,
      "inations": 5528,
      "Ġmamm": 5529,
      "Ġsky": 5530,
      "ĠExpl": 5531,
      "Ġflight": 5532,
      "Ġstudying": 5533,
      "Ġfell": 5534,
      "ushing": 5535,
      "Ġcreates": 5536,
      "CS": 5537,
      "Ġaccompl": 5538,
      "Ġofficials": 5539,
      "Ġflav": 5540,
      "Ġproducing": 5541,
      "ascular": 5542,
      "ĠUp": 5543,
      "Ġsurvive": 5544,
      "hand": 5545,
      "lements": 5546,
      "Ġlandscape": 5547,
      "Ġrein": 5548,
      "ĠTwo": 5549,
      "igure": 5550,
      "Can": 5551,
      "den": 5552,
      "ropical": 5553,
      "Ġopened": 5554,
      "uilding": 5555,
      "Ġcomprehensive": 5556,
      "faces": 5557,
      "ĠMem": 5558,
      "Ġregul": 5559,
      "ION": 5560,
      "ĠRet": 5561,
      "Ġwestern": 5562,
      "ĠAtlant": 5563,
      "Ġgoods": 5564,
      "ĠColor": 5565,
      "Ġdiversity": 5566,
      "utive": 5567,
      "During": 5568,
      "Ġhabits": 5569,
      "Bl": 5570,
      "Ġneighb": 5571,
      "400": 5572,
      "Ġtal": 5573,
      "Ġnarrow": 5574,
      "Ġaccomp": 5575,
      "2003": 5576,
      "Ġphr": 5577,
      "ĠColumb": 5578,
      "Ġsensitive": 5579,
      "Pe": 5580,
      "ndom": 5581,
      "ashion": 5582,
      "ĠArab": 5583,
      "Ġselected": 5584,
      "See": 5585,
      "Ġemployees": 5586,
      "ĠThomas": 5587,
      "state": 5588,
      "Ġchoices": 5589,
      "idden": 5590,
      "Since": 5591,
      "Ġstick": 5592,
      "ĠBer": 5593,
      "riting": 5594,
      "ĠAnother": 5595,
      "Ġimmig": 5596,
      "orith": 5597,
      "Ġtried": 5598,
      "Ġwave": 5599,
      "ĠMiddle": 5600,
      "olve": 5601,
      "Ġgather": 5602,
      "ca": 5603,
      "Ġengage": 5604,
      "ĠDisease": 5605,
      "Ġdaughter": 5606,
      "Ġplays": 5607,
      "Ġaf": 5608,
      "ĠNor": 5609,
      "Ġhydrogen": 5610,
      "Ġmountain": 5611,
      "cules": 5612,
      "Ġincl": 5613,
      "Ġhus": 5614,
      "Ġwalking": 5615,
      "ĠGood": 5616,
      "Ġnurs": 5617,
      "vironments": 5618,
      "ĠMicro": 5619,
      "ĠCam": 5620,
      "Ġminim": 5621,
      "Ġpil": 5622,
      "Ġdocuments": 5623,
      "Ġnations": 5624,
      "ari": 5625,
      "Ġfundamental": 5626,
      "Ġapart": 5627,
      "Ġcrisis": 5628,
      "Ġshut": 5629,
      "Ġvalid": 5630,
      "ads": 5631,
      "ĠAI": 5632,
      "Ġelev": 5633,
      "tering": 5634,
      "prise": 5635,
      "Ġaqu": 5636,
      "icted": 5637,
      "Se": 5638,
      "othe": 5639,
      "ĠMont": 5640,
      "Ġsin": 5641,
      "ĠHistor": 5642,
      "PHONE": 5643,
      "Ġcourses": 5644,
      "ĠSk": 5645,
      "Ġexternal": 5646,
      "Ġadvoc": 5647,
      "Ġrevolution": 5648,
      "Ġconcentration": 5649,
      "ĠLike": 5650,
      "Ġcalls": 5651,
      "Ġbroken": 5652,
      "Ġphotograph": 5653,
      "Ġforests": 5654,
      "fish": 5655,
      "ĠCap": 5656,
      "body": 5657,
      "hop": 5658,
      "ĠTem": 5659,
      "Ġfiber": 5660,
      "Ġconcerned": 5661,
      "Ġwants": 5662,
      "Ġstroke": 5663,
      "Ġmyself": 5664,
      "Ġoriginally": 5665,
      "Ġcontrolled": 5666,
      "inant": 5667,
      "normal": 5668,
      "Ġcats": 5669,
      "Ġdiverse": 5670,
      "Art": 5671,
      "eper": 5672,
      "Ġhttps": 5673,
      "Ġdatabase": 5674,
      "exp": 5675,
      "Ġproport": 5676,
      "Ġfilled": 5677,
      "Ġskill": 5678,
      "kes": 5679,
      "olars": 5680,
      "Ġcontem": 5681,
      "under": 5682,
      "Ġslowly": 5683,
      "Ġbeneficial": 5684,
      "De": 5685,
      "asp": 5686,
      "Ġsharing": 5687,
      "MS": 5688,
      "Ġcapable": 5689,
      "Ġexperiments": 5690,
      "ii": 5691,
      "Ġdrain": 5692,
      "Ġelectron": 5693,
      "ĠSupp": 5694,
      "stream": 5695,
      "Ġkm": 5696,
      "Ġproduces": 5697,
      "ĠDesign": 5698,
      "Ġraw": 5699,
      "Ġnoise": 5700,
      "ĠJews": 5701,
      "ĠCharles": 5702,
      "Ġfrag": 5703,
      "entle": 5704,
      "ache": 5705,
      "rors": 5706,
      "Ġconsumers": 5707,
      "ĠSecond": 5708,
      "alle": 5709,
      "Ġneck": 5710,
      "Ġremained": 5711,
      "ĠIsl": 5712,
      "Ġfossil": 5713,
      "ĠLouis": 5714,
      "ava": 5715,
      "Ġfasc": 5716,
      "Ã¡": 5717,
      "Ġspeaking": 5718,
      "ditionally": 5719,
      "ĠLabor": 5720,
      "Ġafford": 5721,
      "Ġdu": 5722,
      "inating": 5723,
      "Ġnerve": 5724,
      "ĠBet": 5725,
      "Ġcutting": 5726,
      "born": 5727,
      "Ġmild": 5728,
      "Ġgreenhouse": 5729,
      "Ġsuggested": 5730,
      "Ġsteel": 5731,
      "Ġaudience": 5732,
      "UR": 5733,
      "ĠRobert": 5734,
      "Ġenable": 5735,
      "Ġthousand": 5736,
      "Ġsuitable": 5737,
      "ypes": 5738,
      "ĠFe": 5739,
      "ibilities": 5740,
      "Ġmovements": 5741,
      "Ġguidelines": 5742,
      "Ġneuro": 5743,
      "Ġâ": 5744,
      "Ġtruly": 5745,
      "pat": 5746,
      "Ġpaid": 5747,
      "Ġtall": 5748,
      "Ġtaste": 5749,
      "Ġcalcium": 5750,
      "Ġapprec": 5751,
      "150": 5752,
      "zen": 5753,
      "you": 5754,
      "Ġunlike": 5755,
      "ĠBur": 5756,
      "ĠSte": 5757,
      "EMA": 5758,
      "Ġrandom": 5759,
      "Ġdrawing": 5760,
      "Or": 5761,
      "ĠNatural": 5762,
      "Ġuns": 5763,
      "Ġextent": 5764,
      "eck": 5765,
      "ĠLab": 5766,
      "ĠKeep": 5767,
      "Ġdecline": 5768,
      "Ġvolunte": 5769,
      "Ġdescribes": 5770,
      "Ġsan": 5771,
      "Ġlifestyle": 5772,
      "ĠAny": 5773,
      "Ġbiggest": 5774,
      "Ġprison": 5775,
      "ht": 5776,
      "apping": 5777,
      "Ġdoubt": 5778,
      "Ġnetworks": 5779,
      "ĠCare": 5780,
      "Ġmedium": 5781,
      "Ġdistrict": 5782,
      "Ġsell": 5783,
      "Ġindeed": 5784,
      "ĠDel": 5785,
      "Ġchildhood": 5786,
      "Ġenvironments": 5787,
      "2001": 5788,
      "from": 5789,
      "Ġvoc": 5790,
      "ĠCommon": 5791,
      "Ġfabric": 5792,
      "using": 5793,
      "struct": 5794,
      "Ġpup": 5795,
      "allow": 5796,
      "Ġroof": 5797,
      "ĠSl": 5798,
      "anged": 5799,
      "Ġrelax": 5800,
      "Ġexchange": 5801,
      "Ġwid": 5802,
      "Ġpure": 5803,
      "war": 5804,
      "icking": 5805,
      "gans": 5806,
      "She": 5807,
      "ĠBudd": 5808,
      "add": 5809,
      "Ġindex": 5810,
      "44": 5811,
      "ĠClin": 5812,
      "Ġdioxide": 5813,
      "ĠGlobal": 5814,
      "cho": 5815,
      "Ġgrav": 5816,
      "ato": 5817,
      "Ġconsid": 5818,
      "Ġteen": 5819,
      "hether": 5820,
      "ĠWork": 5821,
      "Ġprem": 5822,
      "rin": 5823,
      "ĠTer": 5824,
      "Ġfoundation": 5825,
      "Ġlocations": 5826,
      "ada": 5827,
      "Ġmyth": 5828,
      "hi": 5829,
      "Ġvillage": 5830,
      "amil": 5831,
      "Ġancest": 5832,
      "Ġsuccessfully": 5833,
      "Ġunknown": 5834,
      "Ġpossibly": 5835,
      "ĠStudies": 5836,
      "inding": 5837,
      "Ġswim": 5838,
      "Ġcolleagues": 5839,
      "then": 5840,
      "Ġstring": 5841,
      "ĠHome": 5842,
      "Ġcontamin": 5843,
      "Ġlisten": 5844,
      "Ġfacilit": 5845,
      "alysis": 5846,
      "Ġtea": 5847,
      "Ġrevealed": 5848,
      "Ġtells": 5849,
      "aph": 5850,
      "Ġmaintenance": 5851,
      "leg": 5852,
      "Ġintelligence": 5853,
      "ÃŃ": 5854,
      "Ġvulnerable": 5855,
      "attle": 5856,
      "Ġunf": 5857,
      "ribe": 5858,
      "ups": 5859,
      "Ġsurvival": 5860,
      "ensus": 5861,
      "Ġdiagnosed": 5862,
      "ictionary": 5863,
      "Ġtraum": 5864,
      "Ġpurchase": 5865,
      "Ġknows": 5866,
      "Ġaccounts": 5867,
      "Ġdecide": 5868,
      "li": 5869,
      "Ġalt": 5870,
      "hemical": 5871,
      "ĠCanadian": 5872,
      "Ġbehaviour": 5873,
      "Ġhur": 5874,
      "Ġfigures": 5875,
      "Ġobesity": 5876,
      "Ġemotions": 5877,
      "Ġprogramming": 5878,
      "Ġlegs": 5879,
      "ĠVict": 5880,
      "Ġsignals": 5881,
      "Ġyounger": 5882,
      "nce": 5883,
      "Ġstages": 5884,
      "ĠVis": 5885,
      "Ġmarriage": 5886,
      "ĠFurther": 5887,
      "Ġhouses": 5888,
      "Ġplate": 5889,
      "ĠStr": 5890,
      "Ġcarefully": 5891,
      "Ġexistence": 5892,
      "ĠĠ": 5893,
      "iration": 5894,
      "net": 5895,
      "Ġopening": 5896,
      "Ġcircumst": 5897,
      "ĠMad": 5898,
      "Ġdistingu": 5899,
      "een": 5900,
      "isp": 5901,
      "ĠConf": 5902,
      "Ġalgorith": 5903,
      "she": 5904,
      "ĠRef": 5905,
      "mary": 5906,
      "Ġbutter": 5907,
      "hips": 5908,
      "izer": 5909,
      "Ġmolecules": 5910,
      "Ġbudget": 5911,
      "wo": 5912,
      "ĠBC": 5913,
      "isk": 5914,
      "Ġviews": 5915,
      "ĠThrough": 5916,
      "irt": 5917,
      "ĠRights": 5918,
      "Ġbot": 5919,
      "lets": 5920,
      "umes": 5921,
      "Ġimpossible": 5922,
      "Ġera": 5923,
      "abul": 5924,
      "Ġrising": 5925,
      "ĠHenry": 5926,
      "Ġcommunicate": 5927,
      "icious": 5928,
      "oster": 5929,
      "Ġblow": 5930,
      "Ġimplic": 5931,
      "Ġholid": 5932,
      "Ġyield": 5933,
      "ĠFre": 5934,
      "Ġmere": 5935,
      "Ġcards": 5936,
      "ĠIll": 5937,
      "ester": 5938,
      "ĠHave": 5939,
      "Ġhighlight": 5940,
      "Ġveter": 5941,
      "IP": 5942,
      "ĠCancer": 5943,
      "ĠGold": 5944,
      "EP": 5945,
      "Ġapparent": 5946,
      "Ġchief": 5947,
      "Ġcarb": 5948,
      "Ġjustice": 5949,
      "Int": 5950,
      "ĠTHE": 5951,
      "Ġbread": 5952,
      "Ġmulti": 5953,
      "Ġgun": 5954,
      "Ġpoet": 5955,
      "gers": 5956,
      "Ġtoler": 5957,
      "Ġstock": 5958,
      "ĠNav": 5959,
      "Ġregional": 5960,
      "Ġhandle": 5961,
      "osm": 5962,
      "Ġaccident": 5963,
      "ĠEconom": 5964,
      "Ġsecondary": 5965,
      "ĠAustralian": 5966,
      "Ġstands": 5967,
      "organ": 5968,
      "stone": 5969,
      "ĠPlease": 5970,
      "Ġdecade": 5971,
      "bert": 5972,
      "Ġsoldiers": 5973,
      "ĠHaw": 5974,
      "ogue": 5975,
      "Ġcandid": 5976,
      "Ġsupplement": 5977,
      "Ġthor": 5978,
      "Ġrid": 5979,
      "Ġgenerated": 5980,
      "Ġmit": 5981,
      "Ġweap": 5982,
      "Ġentirely": 5983,
      "Ġcup": 5984,
      "Ġnob": 5985,
      "Ġprecise": 5986,
      "weight": 5987,
      "Ġturns": 5988,
      "Ġforget": 5989,
      "Ġperce": 5990,
      "2002": 5991,
      "Ġcloser": 5992,
      "UN": 5993,
      "Ġinterests": 5994,
      "Ġreader": 5995,
      "Ġcalories": 5996,
      "Ġboy": 5997,
      "ny": 5998,
      "tage": 5999,
      "Ġourselves": 6000,
      "Ġaer": 6001,
      "Ġsupports": 6002,
      "Ġdifficulty": 6003,
      "Gen": 6004,
      "rite": 6005,
      "ĠTake": 6006,
      "ĠId": 6007,
      "Ġsubstant": 6008,
      "Ġequival": 6009,
      "ĠAtt": 6010,
      "ĠSouthern": 6011,
      "Ġmanaged": 6012,
      "irds": 6013,
      "ĠGroup": 6014,
      "ĠJose": 6015,
      "Ġtro": 6016,
      "Ġabund": 6017,
      "ĠAcademy": 6018,
      "iology": 6019,
      "ĠVirginia": 6020,
      "rants": 6021,
      "ifies": 6022,
      "Ġunless": 6023,
      "Ġcurren": 6024,
      "Ġauthority": 6025,
      "ĠGard": 6026,
      "ĠOcean": 6027,
      "ĠThose": 6028,
      "ĠKore": 6029,
      "ĠSmith": 6030,
      "orter": 6031,
      "Ġclaims": 6032,
      "Ġframework": 6033,
      "Ġtrad": 6034,
      "Ġcovers": 6035,
      "ĠOF": 6036,
      "Ġbabies": 6037,
      "Ġassemb": 6038,
      "gent": 6039,
      "Ġbiod": 6040,
      "ĠWik": 6041,
      "ua": 6042,
      "Ġsuc": 6043,
      "Ġdedicated": 6044,
      "itter": 6045,
      "Ġdiscussed": 6046,
      "ects": 6047,
      "Ġchapter": 6048,
      "LA": 6049,
      "ston": 6050,
      "ĠAp": 6051,
      "formation": 6052,
      "189": 6053,
      "ĠProv": 6054,
      "Ġdepos": 6055,
      "Ġcamera": 6056,
      "Ġassistance": 6057,
      "Ġloved": 6058,
      "Ġcultiv": 6059,
      "DATE": 6060,
      "First": 6061,
      "ĠIN": 6062,
      "ĠGuide": 6063,
      "Ġsmoking": 6064,
      "Ġrenewable": 6065,
      "Qu": 6066,
      "heimer": 6067,
      "earing": 6068,
      "rus": 6069,
      "Ġgreatly": 6070,
      "Ġbio": 6071,
      "Ġformal": 6072,
      "no": 6073,
      "Ġnose": 6074,
      "Ġrestrict": 6075,
      "Ġorbit": 6076,
      "aped": 6077,
      "ait": 6078,
      "Ġuniverse": 6079,
      "Ġnine": 6080,
      "Ġremaining": 6081,
      "Ġhun": 6082,
      "Ġfewer": 6083,
      "Ġcomments": 6084,
      "luding": 6085,
      "Ġopinion": 6086,
      "Ġath": 6087,
      "Ġmur": 6088,
      "Ġattend": 6089,
      "cture": 6090,
      "ĠAC": 6091,
      "ĠExam": 6092,
      "alian": 6093,
      "Ġadequ": 6094,
      "Ġacceler": 6095,
      "ĠNations": 6096,
      "Ġfever": 6097,
      "Ġputting": 6098,
      "ipping": 6099,
      "Ġspiritual": 6100,
      "Ġeveryday": 6101,
      "spec": 6102,
      "Ġpool": 6103,
      "ĠBre": 6104,
      "ĠOnly": 6105,
      "Ġbeauty": 6106,
      "was": 6107,
      "Ġtrouble": 6108,
      "ĠParis": 6109,
      "Ġscan": 6110,
      "ellect": 6111,
      "Ġunus": 6112,
      "Ġpresentation": 6113,
      "sey": 6114,
      "iratory": 6115,
      "elesc": 6116,
      "185": 6117,
      "Ġabsolute": 6118,
      "level": 6119,
      "ĠJud": 6120,
      "how": 6121,
      "orous": 6122,
      "ĠExt": 6123,
      "airy": 6124,
      "Ġuniversity": 6125,
      "ella": 6126,
      "ĠEnd": 6127,
      "Ġdut": 6128,
      "ĠOx": 6129,
      "Once": 6130,
      "Ġsupplies": 6131,
      "bra": 6132,
      "Ġsheet": 6133,
      "Ġgrew": 6134,
      "ĠOffice": 6135,
      "Ġunderstood": 6136,
      "Ġgluc": 6137,
      "inter": 6138,
      "Ġagencies": 6139,
      "Ġstanding": 6140,
      "Ġlands": 6141,
      "Ġpermanent": 6142,
      "yles": 6143,
      "ĠLong": 6144,
      "ourage": 6145,
      "hist": 6146,
      "ĠIP": 6147,
      "Ġfu": 6148,
      "Ġinstruments": 6149,
      "Ġcorrespond": 6150,
      "Ġparticipate": 6151,
      "Ġmeters": 6152,
      "afety": 6153,
      "Ġdiscipl": 6154,
      "ĠAdd": 6155,
      "fit": 6156,
      "Ġtong": 6157,
      "wing": 6158,
      "dule": 6159,
      "Ġinstructions": 6160,
      "ĠFace": 6161,
      "Ġargument": 6162,
      "Äģ": 6163,
      "ĠÃ": 6164,
      "Ġunable": 6165,
      "EMAIL": 6166,
      "Ġfract": 6167,
      "icon": 6168,
      "icians": 6169,
      "ĠCatholic": 6170,
      "Ġtransition": 6171,
      "ĠSciences": 6172,
      "Ġsmoke": 6173,
      "Ġflower": 6174,
      "Ġerror": 6175,
      "Ġpersons": 6176,
      "Ġlaboratory": 6177,
      "American": 6178,
      "Ġburning": 6179,
      "Ġarchitecture": 6180,
      "Ġmeal": 6181,
      "irus": 6182,
      "LE": 6183,
      "ĠArmy": 6184,
      "Over": 6185,
      "ivery": 6186,
      "sts": 6187,
      "Ġends": 6188,
      "Ġpair": 6189,
      "orses": 6190,
      "Ġpossibility": 6191,
      "ĠCompany": 6192,
      "46": 6193,
      "Ġfro": 6194,
      "ĠOh": 6195,
      "Ġrecon": 6196,
      "ymph": 6197,
      "Ġpron": 6198,
      "VID": 6199,
      "Ġkne": 6200,
      "Ġartificial": 6201,
      "Ġpoison": 6202,
      "Ġfixed": 6203,
      "Ġleadership": 6204,
      "Ġconscious": 6205,
      "Ġvessels": 6206,
      "cies": 6207,
      "Ġminerals": 6208,
      "Ġoptim": 6209,
      "Ġcart": 6210,
      "Ġphysics": 6211,
      "Ġopposite": 6212,
      "abulary": 6213,
      "icate": 6214,
      "Ġshop": 6215,
      "Ġserver": 6216,
      "Ġstruggle": 6217,
      "Ġlies": 6218,
      "isters": 6219,
      "Ġacts": 6220,
      "indu": 6221,
      "Ġcrow": 6222,
      "Ġselection": 6223,
      "ĠTime": 6224,
      "cycl": 6225,
      "Ġnewsp": 6226,
      "Ġoccasion": 6227,
      "Even": 6228,
      "ĠEmp": 6229,
      "Ġobtained": 6230,
      "ora": 6231,
      "Ġoutl": 6232,
      "Ġagency": 6233,
      "Ġnest": 6234,
      "Ġcorpor": 6235,
      "Every": 6236,
      "Ġparam": 6237,
      "Ġfavorite": 6238,
      "Ġrepeated": 6239,
      "osph": 6240,
      "ĠLanguage": 6241,
      "ĠStudy": 6242,
      "Ġmachines": 6243,
      "Where": 6244,
      "Ġblocks": 6245,
      "ĠSuch": 6246,
      "Ġinsulin": 6247,
      "olf": 6248,
      "Ġsupporting": 6249,
      "Ġasthma": 6250,
      "ĠAgricult": 6251,
      "Ġfold": 6252,
      "ĠMain": 6253,
      "Ġprove": 6254,
      "Ġmoisture": 6255,
      "Ġahead": 6256,
      "Ġdensity": 6257,
      "Ġmixed": 6258,
      "Ġusage": 6259,
      "Ġphoto": 6260,
      "47": 6261,
      "Don": 6262,
      "Ġwait": 6263,
      "Ġfalse": 6264,
      "ĠBro": 6265,
      "Ġgram": 6266,
      "Ġhole": 6267,
      "Ġconcrete": 6268,
      "Ġbehaviors": 6269,
      "ĠCarolina": 6270,
      "Ġdesire": 6271,
      "ĠResources": 6272,
      "Ġexercises": 6273,
      "Ġconfidence": 6274,
      "ka": 6275,
      "ĠExper": 6276,
      "1980": 6277,
      "Ġachieved": 6278,
      "Ġindicates": 6279,
      "umps": 6280,
      "ĠDig": 6281,
      "Ġthanks": 6282,
      "Ġheating": 6283,
      "Ġtransportation": 6284,
      "ĠValley": 6285,
      "health": 6286,
      "Ġinner": 6287,
      "uts": 6288,
      "riz": 6289,
      "ribed": 6290,
      "Ġconventional": 6291,
      "aria": 6292,
      "Ġorgans": 6293,
      "ĠFederal": 6294,
      "Ġcompounds": 6295,
      "Ġblind": 6296,
      "Ġremark": 6297,
      "ĠReview": 6298,
      "Ġconversation": 6299,
      "Ġsimpl": 6300,
      "burg": 6301,
      "ctive": 6302,
      "ĠClimate": 6303,
      "Ġflo": 6304,
      "Ġmatch": 6305,
      "Ġaccessible": 6306,
      "amps": 6307,
      "Ġsubsequ": 6308,
      "Ġbrings": 6309,
      "Ġnearby": 6310,
      "Ġimper": 6311,
      "Ġarmy": 6312,
      "Ġpersist": 6313,
      "Le": 6314,
      "Rec": 6315,
      "Ġpra": 6316,
      "rooms": 6317,
      "Ġstated": 6318,
      "Ġtransmission": 6319,
      "Ġdescription": 6320,
      "Ġreactions": 6321,
      "rating": 6322,
      "Ġpolice": 6323,
      "aked": 6324,
      "ĠKen": 6325,
      "ĠAdminist": 6326,
      "Ġadopted": 6327,
      "Ġamb": 6328,
      "la": 6329,
      "anda": 6330,
      "Ġpainting": 6331,
      "85": 6332,
      "Ġmice": 6333,
      "Ġparties": 6334,
      "Ġattached": 6335,
      "Ġpossess": 6336,
      "ediatric": 6337,
      "such": 6338,
      "Ġgentle": 6339,
      "utrition": 6340,
      "ĠRome": 6341,
      "Ġcomposition": 6342,
      "Today": 6343,
      "ĠAst": 6344,
      "Ġmaps": 6345,
      "Ġtrained": 6346,
      "zheimer": 6347,
      "Ġmagnetic": 6348,
      "arant": 6349,
      "ini": 6350,
      "Ġplenty": 6351,
      "ĠStep": 6352,
      "Ġaircraft": 6353,
      "ansion": 6354,
      "ĠChristmas": 6355,
      "Ġimplementation": 6356,
      "heast": 6357,
      "Ġbrand": 6358,
      "ĠPsych": 6359,
      "Ġunp": 6360,
      "ĠRussian": 6361,
      "Ġmarried": 6362,
      "Ġnarr": 6363,
      "ĠUSA": 6364,
      "Ġdiscrim": 6365,
      "ĠPract": 6366,
      "oral": 6367,
      "asters": 6368,
      "ĠSol": 6369,
      "Ġcircuit": 6370,
      "Ġworry": 6371,
      "Ġneighbor": 6372,
      "pet": 6373,
      "itan": 6374,
      "ĠCy": 6375,
      "187": 6376,
      "Ġfurn": 6377,
      "Ġmac": 6378,
      "Ġfeeding": 6379,
      "Ġwriter": 6380,
      "Ġtrip": 6381,
      "ĠRussia": 6382,
      "Ġring": 6383,
      "Who": 6384,
      "ĠTeac": 6385,
      "Ġru": 6386,
      "Ġsubstances": 6387,
      "Ġturning": 6388,
      "ocra": 6389,
      "ocking": 6390,
      "ifications": 6391,
      "Ġhoriz": 6392,
      "Ġearn": 6393,
      "ĠScot": 6394,
      "Ġconnections": 6395,
      "Ġcustomers": 6396,
      "phone": 6397,
      "Ġdistur": 6398,
      "Go": 6399,
      "Ġholds": 6400,
      "ican": 6401,
      "oted": 6402,
      "Ġgenerations": 6403,
      "Ġlimits": 6404,
      "Ġinstalled": 6405,
      "uation": 6406,
      "ĠCat": 6407,
      "top": 6408,
      "arn": 6409,
      "icide": 6410,
      "Ġextended": 6411,
      "hered": 6412,
      "ĠRad": 6413,
      "ĠYet": 6414,
      "Ġshapes": 6415,
      "ĠCre": 6416,
      "Ġspaces": 6417,
      "Ġpregnant": 6418,
      "ita": 6419,
      "Ġcultures": 6420,
      "Ġchallenging": 6421,
      "etics": 6422,
      "amins": 6423,
      "ĠPC": 6424,
      "Ġchosen": 6425,
      "Ġtight": 6426,
      "Ġhero": 6427,
      "roduction": 6428,
      "Ġsmooth": 6429,
      "Ġfeedback": 6430,
      "ena": 6431,
      "Ġshift": 6432,
      "rowing": 6433,
      "Ġhem": 6434,
      "1970": 6435,
      "Ġultimately": 6436,
      "Ġvirtual": 6437,
      "lig": 6438,
      "Ġspok": 6439,
      "Ġpartner": 6440,
      "etime": 6441,
      "ĠLeg": 6442,
      "Ġmarked": 6443,
      "ĠTor": 6444,
      "Ġimmediate": 6445,
      "Ġaward": 6446,
      "Ġcooking": 6447,
      "ittle": 6448,
      "Ġpropos": 6449,
      "ĠPenn": 6450,
      "riers": 6451,
      "Ġstimul": 6452,
      "ĠPan": 6453,
      "uter": 6454,
      "anches": 6455,
      "ĠSpain": 6456,
      "Ġmissing": 6457,
      "zil": 6458,
      "Ġinsurance": 6459,
      "Ġingredients": 6460,
      "Ġhusband": 6461,
      "Ġbond": 6462,
      "Ġrequest": 6463,
      "eless": 6464,
      "Ġwasn": 6465,
      "Ġtut": 6466,
      "ĠFree": 6467,
      "Ġcryst": 6468,
      "Ġderived": 6469,
      "Ġgalax": 6470,
      "BS": 6471,
      "ĠCamp": 6472,
      "iform": 6473,
      "Ġwhatever": 6474,
      "180": 6475,
      "Ġdanger": 6476,
      "Ġregulations": 6477,
      "Ġreplaced": 6478,
      "Ġtons": 6479,
      "usiness": 6480,
      "Ġfrequent": 6481,
      "Ġcollaboration": 6482,
      "called": 6483,
      "ferent": 6484,
      "Ġorganisms": 6485,
      "Ġpounds": 6486,
      "ditional": 6487,
      "nam": 6488,
      "ĠWood": 6489,
      "Ġflag": 6490,
      "Ġmood": 6491,
      "Ġkidney": 6492,
      "IR": 6493,
      "Ġplayers": 6494,
      "irty": 6495,
      "Ġreduces": 6496,
      "Ġforth": 6497,
      "ĠYear": 6498,
      "ipedia": 6499,
      "Ġinhab": 6500,
      "ĠAlex": 6501,
      "Ġlaunched": 6502,
      "Ġexamine": 6503,
      "ether": 6504,
      "Ġchick": 6505,
      "Ġoverl": 6506,
      "Ġunderlying": 6507,
      "ĠMuslim": 6508,
      "pan": 6509,
      "1999": 6510,
      "oned": 6511,
      "Ġincred": 6512,
      "ĠDirector": 6513,
      "Ġran": 6514,
      "Ġtissues": 6515,
      "Ġminute": 6516,
      "Ġmechanism": 6517,
      "ritis": 6518,
      "Ġzone": 6519,
      "Ġaccepted": 6520,
      "afe": 6521,
      "Ġcolumn": 6522,
      "Ġdamaged": 6523,
      "Ġframe": 6524,
      "ohyd": 6525,
      "ĠCheck": 6526,
      "Get": 6527,
      "ighter": 6528,
      "ĠDiv": 6529,
      "ĠCult": 6530,
      "Ġrepair": 6531,
      "Ġhistoric": 6532,
      "Ġequivalent": 6533,
      "Ġshot": 6534,
      "Ġmold": 6535,
      "Ġrice": 6536,
      "ĠNative": 6537,
      "Ġclust": 6538,
      "ugh": 6539,
      "ĠDet": 6540,
      "point": 6541,
      "Ġax": 6542,
      "ĠMo": 6543,
      "Ġresponses": 6544,
      "Ġprinciple": 6545,
      "ĠPers": 6546,
      "iox": 6547,
      "Ġlayers": 6548,
      "42": 6549,
      "car": 6550,
      "inction": 6551,
      "Ġgap": 6552,
      "tra": 6553,
      "Ġdepartment": 6554,
      "ĠPlant": 6555,
      "Ġconsistent": 6556,
      "Ġasking": 6557,
      "Ġamazing": 6558,
      "Ġvideos": 6559,
      "Because": 6560,
      "Ġnone": 6561,
      "Ġcentre": 6562,
      "Ġconsumer": 6563,
      "Ġcapture": 6564,
      "ĠRob": 6565,
      "Ġinteraction": 6566,
      "Ġfashion": 6567,
      "lder": 6568,
      "stein": 6569,
      "Ġment": 6570,
      "Ġpercentage": 6571,
      "Ġevaluation": 6572,
      "ĠLearn": 6573,
      "Ġdemonstrate": 6574,
      "Ġprev": 6575,
      "pes": 6576,
      "Ġimpl": 6577,
      "ĠCreat": 6578,
      "Ġbridge": 6579,
      "Ġreform": 6580,
      "nect": 6581,
      "osion": 6582,
      "ĠAlzheimer": 6583,
      "stract": 6584,
      "elled": 6585,
      "asty": 6586,
      "Ġtheme": 6587,
      "Ġconsume": 6588,
      "Ġirrit": 6589,
      "ĠVictor": 6590,
      "Ġbath": 6591,
      "itt": 6592,
      "Ġaccum": 6593,
      "Ġrocks": 6594,
      "while": 6595,
      "Ġzero": 6596,
      "lo": 6597,
      "ĠFamily": 6598,
      "ĠSet": 6599,
      "ĠGal": 6600,
      "Ġglucose": 6601,
      "Ġcleaning": 6602,
      "throp": 6603,
      "Ġorganized": 6604,
      "Ġarchae": 6605,
      "Ġratio": 6606,
      "ĠAS": 6607,
      "Ġsettings": 6608,
      "arsh": 6609,
      "Ġpharm": 6610,
      "adder": 6611,
      "Ġrivers": 6612,
      "Ġcircumstances": 6613,
      "Ġchrom": 6614,
      "Ġrealize": 6615,
      "Ġreserv": 6616,
      "Ġpapers": 6617,
      "Ġrely": 6618,
      "ethod": 6619,
      "Ġvariable": 6620,
      "ĠReport": 6621,
      "ocratic": 6622,
      "itely": 6623,
      "ĠServices": 6624,
      "dered": 6625,
      "Ġwitness": 6626,
      "ĠStreet": 6627,
      "49": 6628,
      "Ġfounded": 6629,
      "Ġdefine": 6630,
      "Ġboys": 6631,
      "Ġtex": 6632,
      "Ġvisitors": 6633,
      "roat": 6634,
      "ĠMichael": 6635,
      "Ġspending": 6636,
      "agon": 6637,
      "hyd": 6638,
      "Ġtank": 6639,
      "Ġscholars": 6640,
      "reland": 6641,
      "Ġseemed": 6642,
      "ĠAgency": 6643,
      "Ġcoastal": 6644,
      "outs": 6645,
      "Ġforg": 6646,
      "Then": 6647,
      "gs": 6648,
      "gical": 6649,
      "ulty": 6650,
      "cons": 6651,
      "Ġintellect": 6652,
      "teen": 6653,
      "ommon": 6654,
      "Ġindustries": 6655,
      "Ġsequence": 6656,
      "Ġstable": 6657,
      "Ġmaintaining": 6658,
      "Ġimprovement": 6659,
      "Ġstreet": 6660,
      "Ġfunds": 6661,
      "ĠGeorg": 6662,
      "Ġtwenty": 6663,
      "Ġpreventing": 6664,
      "Ġaims": 6665,
      "Ġgro": 6666,
      "Ġchest": 6667,
      "About": 6668,
      "esides": 6669,
      "Ġdrought": 6670,
      "ĠList": 6671,
      "Ġsurfaces": 6672,
      "Ġmos": 6673,
      "reed": 6674,
      "Ġjump": 6675,
      "Ġregist": 6676,
      "Ġdestroyed": 6677,
      "Ġcm": 6678,
      "opes": 6679,
      "Ġresolution": 6680,
      "Ġadministration": 6681,
      "Ġsatellite": 6682,
      "ĠPeter": 6683,
      "Ġchart": 6684,
      "Ġscene": 6685,
      "Ġmoral": 6686,
      "Ġnervous": 6687,
      "ĠFrank": 6688,
      "ĠBoard": 6689,
      "ĠStat": 6690,
      "Ġrelief": 6691,
      "inally": 6692,
      "ented": 6693,
      "Ġruns": 6694,
      "Ġearthqu": 6695,
      "ĠDan": 6696,
      "ĠNorthern": 6697,
      "angered": 6698,
      "Ġissued": 6699,
      "Ġjoined": 6700,
      "ĠForest": 6701,
      "night": 6702,
      "ĠMath": 6703,
      "Ġartists": 6704,
      "Ġprincip": 6705,
      "ĠMag": 6706,
      "ustain": 6707,
      "Ġongoing": 6708,
      "Ġclothing": 6709,
      "Ġstrain": 6710,
      "ĠCommit": 6711,
      "Ġcoc": 6712,
      "ĠBig": 6713,
      "Ġmathematics": 6714,
      "icago": 6715,
      "ĠScott": 6716,
      "Ġobservations": 6717,
      "aning": 6718,
      "Ġbrows": 6719,
      "abeth": 6720,
      "ĠRoyal": 6721,
      "press": 6722,
      "DP": 6723,
      "Ġcontained": 6724,
      "ĠAnn": 6725,
      "Ġdesigns": 6726,
      "Ġfinished": 6727,
      "Ġdelay": 6728,
      "ĠConstitution": 6729,
      "Ġdebt": 6730,
      "CH": 6731,
      "Ġfer": 6732,
      "Ġreven": 6733,
      "Ġfacility": 6734,
      "riend": 6735,
      "Ġreliable": 6736,
      "Ġacknow": 6737,
      "Ġconven": 6738,
      "Ġguarant": 6739,
      "Ġod": 6740,
      "Ġenab": 6741,
      "Ġcircle": 6742,
      "Ġevaluate": 6743,
      "Ġdelivery": 6744,
      "Ġvolcan": 6745,
      "ket": 6746,
      "Ġepid": 6747,
      "Ġsport": 6748,
      "Ġliteracy": 6749,
      "ocracy": 6750,
      "ĠCentre": 6751,
      "Ġbiology": 6752,
      "Step": 6753,
      "IM": 6754,
      "Ġcompare": 6755,
      "Ġprotocol": 6756,
      "Ġcompetition": 6757,
      "Ġcomfortable": 6758,
      "Ġthorough": 6759,
      "oding": 6760,
      "Ġchlor": 6761,
      "Ġintervention": 6762,
      "Ġmembr": 6763,
      "Ġpin": 6764,
      "Ġexplanation": 6765,
      "mes": 6766,
      "ĠDar": 6767,
      "ĠEss": 6768,
      "Ġdollars": 6769,
      "inity": 6770,
      "Ġfocuses": 6771,
      "Ġarrived": 6772,
      "ĠCa": 6773,
      "Ġeastern": 6774,
      "Ġrepresented": 6775,
      "htm": 6776,
      "Ġmeasurement": 6777,
      "Ġmessages": 6778,
      "Ġsmell": 6779,
      "Ġrecommendations": 6780,
      "ĠIreland": 6781,
      "inson": 6782,
      "ĠBrown": 6783,
      "1960": 6784,
      "itudes": 6785,
      "Ġsole": 6786,
      "Ġpassing": 6787,
      "Ġbeliefs": 6788,
      "oured": 6789,
      "Ġscientist": 6790,
      "inet": 6791,
      "urrent": 6792,
      "Ġprovider": 6793,
      "ĠTV": 6794,
      "Ġintest": 6795,
      "Me": 6796,
      "Ġentry": 6797,
      "Ġvac": 6798,
      "Ġbringing": 6799,
      "Ġlake": 6800,
      "Ġbees": 6801,
      "Ġitem": 6802,
      "quit": 6803,
      "Ġimagine": 6804,
      "Ġconstantly": 6805,
      "Ġseconds": 6806,
      "Ġrecognition": 6807,
      "Ġcomparison": 6808,
      "Ġislands": 6809,
      "Ġfailed": 6810,
      "azine": 6811,
      "Ġoperate": 6812,
      "iotic": 6813,
      "Ġgiant": 6814,
      "ĠSometimes": 6815,
      "Ġvarieties": 6816,
      "Ġexpressed": 6817,
      "ĠWindows": 6818,
      "Ġpush": 6819,
      "Ġwilling": 6820,
      "Ġdisaster": 6821,
      "Ġpsychological": 6822,
      "Ġagreement": 6823,
      "Ġempt": 6824,
      "Ġcategories": 6825,
      "ĠFacebook": 6826,
      "door": 6827,
      "ĠRevolution": 6828,
      "People": 6829,
      "ĠJoseph": 6830,
      "Ġtongue": 6831,
      "bles": 6832,
      "ĠTop": 6833,
      "Ġfacing": 6834,
      "Ġlaunch": 6835,
      "Ġnecessarily": 6836,
      "Ġfighting": 6837,
      "Ġspin": 6838,
      "Ġmining": 6839,
      "opyright": 6840,
      "reated": 6841,
      "ifts": 6842,
      "Ġestimate": 6843,
      "Ġdecor": 6844,
      "Ġmand": 6845,
      "Ġpreval": 6846,
      "Ġbigger": 6847,
      "IDS": 6848,
      "ĠÎ": 6849,
      "Ġflour": 6850,
      "ki": 6851,
      "ĠWorks": 6852,
      "idity": 6853,
      "Ġvoltage": 6854,
      "ĠRichard": 6855,
      "OL": 6856,
      "Ġbreeding": 6857,
      "Ġlie": 6858,
      "ushed": 6859,
      "Ġrose": 6860,
      "Ġwine": 6861,
      "ĠItaly": 6862,
      "ildren": 6863,
      "Ġmoves": 6864,
      "Ġrespiratory": 6865,
      "Ġrefuge": 6866,
      "Ġdebate": 6867,
      "Ġbreed": 6868,
      "Ġshad": 6869,
      "Ġwindows": 6870,
      "Ġintegrated": 6871,
      "Ġgrid": 6872,
      "aud": 6873,
      "itting": 6874,
      "Ġcenters": 6875,
      "Ġtreating": 6876,
      "pread": 6877,
      "Ġstre": 6878,
      "agram": 6879,
      "Ġmode": 6880,
      "ĠWhere": 6881,
      "Ġproven": 6882,
      "ercury": 6883,
      "ĠMill": 6884,
      "Ġarts": 6885,
      "Ġescape": 6886,
      "hent": 6887,
      "Ġserving": 6888,
      "Ġtrials": 6889,
      "otton": 6890,
      "Ġannounced": 6891,
      "Ġgrows": 6892,
      "Ġneur": 6893,
      "ĠChange": 6894,
      "Ġethnic": 6895,
      "itative": 6896,
      "ĠEU": 6897,
      "Ġprinted": 6898,
      "struction": 6899,
      "ĠBank": 6900,
      "liam": 6901,
      "ĠWord": 6902,
      "zed": 6903,
      "itamin": 6904,
      "ĠClick": 6905,
      "ĠEarly": 6906,
      "ĠReading": 6907,
      "Ġcorner": 6908,
      "ĠSing": 6909,
      "Ġvote": 6910,
      "ivered": 6911,
      "Ġsupposed": 6912,
      "Ġlaid": 6913,
      "Ġintense": 6914,
      "Ġcontrols": 6915,
      "Ġsunlight": 6916,
      "usc": 6917,
      "Ġreceiving": 6918,
      "ishment": 6919,
      "Ġaccuracy": 6920,
      "Ġmixt": 6921,
      "Ġlearners": 6922,
      "Ġwound": 6923,
      "Ġdrawn": 6924,
      "Ġundert": 6925,
      "ĠBrazil": 6926,
      "itivity": 6927,
      "ucky": 6928,
      "ĠAccess": 6929,
      "ĠColumbia": 6930,
      "Ġsections": 6931,
      "Ġroughly": 6932,
      "making": 6933,
      "Ġabnormal": 6934,
      "Ġoffering": 6935,
      "Ġoutbre": 6936,
      "hesis": 6937,
      "Ġbanks": 6938,
      "Ġlights": 6939,
      "Ġartist": 6940,
      "Ġfarming": 6941,
      "Ġhorses": 6942,
      "alls": 6943,
      "Ġske": 6944,
      "Ġstatistics": 6945,
      "ĠFind": 6946,
      "Ġschedule": 6947,
      "600": 6948,
      "Ġexists": 6949,
      "ogether": 6950,
      "Ġmarks": 6951,
      "Ġestimates": 6952,
      "izabeth": 6953,
      "Ġcav": 6954,
      "idespread": 6955,
      "Ġcareful": 6956,
      "Ġinnovative": 6957,
      "Ġvocabulary": 6958,
      "Ġmaybe": 6959,
      "ĠAtlantic": 6960,
      "64": 6961,
      "Ġholes": 6962,
      "Ġhonor": 6963,
      "ĠPlay": 6964,
      "Ġhousing": 6965,
      "Ġhazard": 6966,
      "SS": 6967,
      "omer": 6968,
      "ĠEc": 6969,
      "Ġcomplicated": 6970,
      "ounter": 6971,
      "rieved": 6972,
      "liest": 6973,
      "OC": 6974,
      "Ġsitting": 6975,
      "ĠPub": 6976,
      "sm": 6977,
      "ola": 6978,
      "Ġlatter": 6979,
      "icing": 6980,
      "ĠOpen": 6981,
      "Ġdischar": 6982,
      "Ġmanip": 6983,
      "Ġguidance": 6984,
      "igan": 6985,
      "Ġknowing": 6986,
      "Ġfung": 6987,
      "ĠSpecial": 6988,
      "ioxid": 6989,
      "Ġgut": 6990,
      "Ġstuff": 6991,
      "heric": 6992,
      "Ġterritory": 6993,
      "Ġtub": 6994,
      "estion": 6995,
      "1998": 6996,
      "Ġfalls": 6997,
      "Ġsharp": 6998,
      "aska": 6999,
      "thritis": 7000,
      "Ġelectro": 7001,
      "ĠBefore": 7002,
      "ĠCOVID": 7003,
      "ĠType": 7004,
      "Ġrobot": 7005,
      "Ġhoney": 7006,
      "cyclop": 7007,
      "Ġpublication": 7008,
      "acco": 7009,
      "Ġmeasurements": 7010,
      "Ġtill": 7011,
      "Ġteams": 7012,
      "Ġped": 7013,
      "ointed": 7014,
      "aming": 7015,
      "Ġapproved": 7016,
      "scale": 7017,
      "Ġeducators": 7018,
      "Ġpassage": 7019,
      "Ġcomplications": 7020,
      "ĠWho": 7021,
      "vard": 7022,
      "idential": 7023,
      "Ġpestic": 7024,
      "Ġmic": 7025,
      "rays": 7026,
      "ĠSym": 7027,
      "ovascular": 7028,
      "Ġsucceed": 7029,
      "Ġneither": 7030,
      "hav": 7031,
      "Ġcham": 7032,
      "Ġscar": 7033,
      "ala": 7034,
      "everal": 7035,
      "Ġconclusion": 7036,
      "Ġnitrogen": 7037,
      "RA": 7038,
      "Ġalign": 7039,
      "Ġpresents": 7040,
      "Ġengaged": 7041,
      "Are": 7042,
      "eli": 7043,
      "Ġlistening": 7044,
      "Ġantibiotics": 7045,
      "Ġmetabol": 7046,
      "Ġmechanical": 7047,
      "ifferent": 7048,
      "soft": 7049,
      "oviet": 7050,
      "Su": 7051,
      "ĠEqu": 7052,
      "Pre": 7053,
      "Ġquiet": 7054,
      "asant": 7055,
      "Ġye": 7056,
      "Ġvs": 7057,
      "Ġplus": 7058,
      "Ġparticipation": 7059,
      "gov": 7060,
      "Ġmarkets": 7061,
      "Ġauthorities": 7062,
      "Comp": 7063,
      "Ġviruses": 7064,
      "Ġkilomet": 7065,
      "cher": 7066,
      "Ġfest": 7067,
      "ĠSafety": 7068,
      "Ġentered": 7069,
      "Ġworkshe": 7070,
      "Ġobserve": 7071,
      "Ġdomain": 7072,
      "Ġangle": 7073,
      "78": 7074,
      "ĠDen": 7075,
      "ĠPrevention": 7076,
      "Ġunusual": 7077,
      "Ġinn": 7078,
      "Ġmales": 7079,
      "ocolate": 7080,
      "lu": 7081,
      "ĠMer": 7082,
      "ocation": 7083,
      "han": 7084,
      "ĠFort": 7085,
      "Ġcompound": 7086,
      "Ġinvolving": 7087,
      "liament": 7088,
      "Ġtract": 7089,
      "Ġturb": 7090,
      "ione": 7091,
      "Ġsurve": 7092,
      "Ġcommitted": 7093,
      "ĠAngel": 7094,
      "Ġtube": 7095,
      "Ġprocessed": 7096,
      "Ġnice": 7097,
      "ĠAcc": 7098,
      "Ġsubs": 7099,
      "Ġinteractive": 7100,
      "Ġtransp": 7101,
      "Ġowner": 7102,
      "Ġended": 7103,
      "Ġengineers": 7104,
      "Ġconstructed": 7105,
      "Am": 7106,
      "Ġexplo": 7107,
      "Ġfairly": 7108,
      "sis": 7109,
      "Ġwarning": 7110,
      "Ġstronger": 7111,
      "ĠNetwork": 7112,
      "Ġserves": 7113,
      "Ġvitamins": 7114,
      "Ġobjective": 7115,
      "Ġlungs": 7116,
      "sen": 7117,
      "Ġcaught": 7118,
      "raining": 7119,
      "Ġprinting": 7120,
      "tles": 7121,
      "itual": 7122,
      "oga": 7123,
      "Ġindependence": 7124,
      "Ġscreening": 7125,
      "mers": 7126,
      "occ": 7127,
      "Ġadvert": 7128,
      "ĠChicago": 7129,
      "Ġexciting": 7130,
      "Ġreject": 7131,
      "Ġbranches": 7132,
      "onia": 7133,
      "Ġmeals": 7134,
      "Ġexcessive": 7135,
      "Ġheaven": 7136,
      "Ġfemales": 7137,
      "Ġeliminate": 7138,
      "Note": 7139,
      "Ġarrange": 7140,
      "Ġdys": 7141,
      "Ġinstant": 7142,
      "Ġresearcher": 7143,
      "Ġinnovation": 7144,
      "Ġsession": 7145,
      "ĠSat": 7146,
      "ĠMD": 7147,
      "Ġships": 7148,
      "ĠLess": 7149,
      "berry": 7150,
      "ĠConservation": 7151,
      "Ġpanels": 7152,
      "App": 7153,
      "Ġwidespread": 7154,
      "Ġouter": 7155,
      "Ġanywhere": 7156,
      "Ġbag": 7157,
      "Ġinhib": 7158,
      "ĠDoes": 7159,
      "Ġholding": 7160,
      "ĠSant": 7161,
      "Ġmechanisms": 7162,
      "gien": 7163,
      "Ġusual": 7164,
      "Ġcounty": 7165,
      "ĠAdv": 7166,
      "Ġinteractions": 7167,
      "Ġthreats": 7168,
      "ĠCoast": 7169,
      "Ġpanel": 7170,
      "Ġwheel": 7171,
      "reek": 7172,
      "Ġconsidering": 7173,
      "Ġphysician": 7174,
      "rey": 7175,
      "Ġscore": 7176,
      "Ġtropical": 7177,
      "Ġdates": 7178,
      "Ġhappening": 7179,
      "itals": 7180,
      "Ġplanets": 7181,
      "Ġmicrob": 7182,
      "Ġdeeper": 7183,
      "Ġcategory": 7184,
      "aired": 7185,
      "Ġfo": 7186,
      "Ġdispos": 7187,
      "Ġexperiencing": 7188,
      "ĠCommunity": 7189,
      "Ġfats": 7190,
      "iana": 7191,
      "ĠZeal": 7192,
      "Ġroads": 7193,
      "Ġpreparation": 7194,
      "rane": 7195,
      "Ġdecay": 7196,
      "ĠTimes": 7197,
      "Ġadministr": 7198,
      "ĠLib": 7199,
      "Ġadvent": 7200,
      "neys": 7201,
      "ĠMartin": 7202,
      "ĠSund": 7203,
      "Ġfilter": 7204,
      "Ġhealing": 7205,
      "Ġhence": 7206,
      "Ġrig": 7207,
      "ĠMoon": 7208,
      "Ġinstitution": 7209,
      "ĠAge": 7210,
      "Ġseat": 7211,
      "Ġresulted": 7212,
      "ĠGrand": 7213,
      "Ġwhereas": 7214,
      "ĠEngineering": 7215,
      "rous": 7216,
      "Ġdelivered": 7217,
      "Ġlaser": 7218,
      "Ġexamination": 7219,
      "fts": 7220,
      "ĠHy": 7221,
      "Ġparalle": 7222,
      "Ġrarely": 7223,
      "rd": 7224,
      "ffective": 7225,
      "Ġtrigger": 7226,
      "Ġdepart": 7227,
      "Ġtargets": 7228,
      "Ġfatty": 7229,
      "Ġemployment": 7230,
      "rot": 7231,
      "Ġoldest": 7232,
      "Ġvictims": 7233,
      "hea": 7234,
      "ĠSil": 7235,
      "ĠForm": 7236,
      "Ġbranch": 7237,
      "Ġprompt": 7238,
      "Ġhormone": 7239,
      "ograp": 7240,
      "Ġcopper": 7241,
      "TH": 7242,
      "utch": 7243,
      "AA": 7244,
      "coming": 7245,
      "Ġmeasuring": 7246,
      "Ġlegislation": 7247,
      "Ġfellow": 7248,
      "Ġcombat": 7249,
      "Ġfinger": 7250,
      "Ġphenomenon": 7251,
      "Ġcrime": 7252,
      "Ġcarrying": 7253,
      "Ear": 7254,
      "isdom": 7255,
      "Ġstrongly": 7256,
      "Ġroute": 7257,
      "Ġgases": 7258,
      "igue": 7259,
      "essions": 7260,
      "ĠMa": 7261,
      "ĠRock": 7262,
      "ptions": 7263,
      "Ġmatters": 7264,
      "ĠCommittee": 7265,
      "Ġton": 7266,
      "Ġautism": 7267,
      "Ġfunctional": 7268,
      "rovers": 7269,
      "Ġparas": 7270,
      "ĠItalian": 7271,
      "Ġsoul": 7272,
      "ĠDistrict": 7273,
      "PR": 7274,
      "Ġpp": 7275,
      "Ġcorrectly": 7276,
      "ĠAsian": 7277,
      "Ġchances": 7278,
      "Ġsodium": 7279,
      "ocy": 7280,
      "usal": 7281,
      "otes": 7282,
      "ĠTry": 7283,
      "Ġswitch": 7284,
      "Ġencouraged": 7285,
      "Ġtexts": 7286,
      "Ġrecover": 7287,
      "Ġremed": 7288,
      "Ġinspired": 7289,
      "Ġadequate": 7290,
      "rene": 7291,
      "rine": 7292,
      "ĠFund": 7293,
      "orders": 7294,
      "ĠZealand": 7295,
      "Ġadds": 7296,
      "Ġcure": 7297,
      "Ġbutton": 7298,
      "Ġspectrum": 7299,
      "eness": 7300,
      "ployment": 7301,
      "Ġbiodiversity": 7302,
      "Ġcarbohyd": 7303,
      "ĠThough": 7304,
      "Ġplain": 7305,
      "Ġnewly": 7306,
      "Ġrecycling": 7307,
      "ogs": 7308,
      "anger": 7309,
      "ĠSoviet": 7310,
      "Ġroles": 7311,
      "erior": 7312,
      "Ġmineral": 7313,
      "ounce": 7314,
      "Ġcounsel": 7315,
      "igate": 7316,
      "Ġcooling": 7317,
      "ĠOnline": 7318,
      "Ġformula": 7319,
      "Learn": 7320,
      "Ã±": 7321,
      "Ġborder": 7322,
      "Ġseeking": 7323,
      "Ġstores": 7324,
      "Ġexpansion": 7325,
      "ĠAdministration": 7326,
      "Last": 7327,
      "Ġinfect": 7328,
      "produ": 7329,
      "Ġille": 7330,
      "Ġcash": 7331,
      "Ġstrict": 7332,
      "eping": 7333,
      "Ġsomewhat": 7334,
      "Per": 7335,
      "kins": 7336,
      "Using": 7337,
      "Ġdisabilities": 7338,
      "ĠBab": 7339,
      "Ġadap": 7340,
      "Ġflows": 7341,
      "ĠColorado": 7342,
      "Col": 7343,
      "Also": 7344,
      "Ġfulf": 7345,
      "Ġtrends": 7346,
      "Ġfourth": 7347,
      "fast": 7348,
      "Ġmir": 7349,
      "Ġdesired": 7350,
      "Ġrect": 7351,
      "olving": 7352,
      "Ġphilosophy": 7353,
      "Ġsilver": 7354,
      "yal": 7355,
      "spect": 7356,
      "Ġorient": 7357,
      "ĠStar": 7358,
      "oven": 7359,
      "Ġimplemented": 7360,
      "Ġmountains": 7361,
      "Ġdriver": 7362,
      "ĠLiter": 7363,
      "Ġimplications": 7364,
      "Ġcompost": 7365,
      "Ġmolecular": 7366,
      "Ġedition": 7367,
      "Ġadvantages": 7368,
      "Ġsenior": 7369,
      "ĠEmpire": 7370,
      "Ġchemistry": 7371,
      "HD": 7372,
      "icy": 7373,
      "unicip": 7374,
      "Ġfishing": 7375,
      "vania": 7376,
      "Ġpeak": 7377,
      "urolog": 7378,
      "Ġproof": 7379,
      "Ġalle": 7380,
      "ĠQueen": 7381,
      "Ġdance": 7382,
      "Ġconj": 7383,
      "ĠPet": 7384,
      "ĠLead": 7385,
      "Ġsensors": 7386,
      "Ġclar": 7387,
      "ricts": 7388,
      "Ġworst": 7389,
      "Which": 7390,
      "ĠAmaz": 7391,
      "peror": 7392,
      "words": 7393,
      "oric": 7394,
      "Ġprotecting": 7395,
      "Ġcompris": 7396,
      "ĠStart": 7397,
      "including": 7398,
      "Ġstood": 7399,
      "Ġherb": 7400,
      "43": 7401,
      "ĠEth": 7402,
      "Ġcomposed": 7403,
      "ouds": 7404,
      "Ġrelie": 7405,
      "ĠSign": 7406,
      "Ġarray": 7407,
      "Ġhypothes": 7408,
      "Ġalive": 7409,
      "Ġdrinks": 7410,
      "Ġevening": 7411,
      "Ġsatisf": 7412,
      "Ġfed": 7413,
      "Ġcritic": 7414,
      "Ġinformed": 7415,
      "orph": 7416,
      "Ġabilities": 7417,
      "Ġstead": 7418,
      "Ġheads": 7419,
      "Ġharder": 7420,
      "Ġdress": 7421,
      "ontal": 7422,
      "Ġdistributed": 7423,
      "ĠVen": 7424,
      "Ġrecept": 7425,
      "Ġdemonstrated": 7426,
      "Ã³": 7427,
      "Ġscript": 7428,
      "ĠLar": 7429,
      "agraph": 7430,
      "Ġpolitics": 7431,
      "Ġidentifying": 7432,
      "ĠMel": 7433,
      "ĠHall": 7434,
      "ĠTom": 7435,
      "ĠYoung": 7436,
      "ĠEastern": 7437,
      "Ġsupplements": 7438,
      "Ġreveal": 7439,
      "ĠIrish": 7440,
      "ĠHospital": 7441,
      "Ġcyber": 7442,
      "Com": 7443,
      "lete": 7444,
      "Ġpermission": 7445,
      "Ġtemple": 7446,
      "ĠProtection": 7447,
      "ommod": 7448,
      "Ġepis": 7449,
      "Ġathlet": 7450,
      "IA": 7451,
      "rat": 7452,
      "Ġcrew": 7453,
      "this": 7454,
      "forest": 7455,
      "illa": 7456,
      "Ġdetection": 7457,
      "Ġjudge": 7458,
      "ĠArctic": 7459,
      "Ġupdated": 7460,
      "Ġwheat": 7461,
      "oir": 7462,
      "ĠKids": 7463,
      "Ġcreatures": 7464,
      "Ġremoval": 7465,
      "Ġdairy": 7466,
      "ortion": 7467,
      "Ġalph": 7468,
      "Ġherself": 7469,
      "Ġkeeps": 7470,
      "Ġpand": 7471,
      "Ġweigh": 7472,
      "Ġintroduce": 7473,
      "opl": 7474,
      "ĠFollow": 7475,
      "Ġbiom": 7476,
      "Ġholiday": 7477,
      "box": 7478,
      "Ġears": 7479,
      "Ġmodified": 7480,
      "uality": 7481,
      "Ġsigned": 7482,
      "oln": 7483,
      "Ġeffectiveness": 7484,
      "Ġerrors": 7485,
      "Ġneighborhood": 7486,
      "Ġcancers": 7487,
      "ecess": 7488,
      "Ġcopyright": 7489,
      "Ġdealing": 7490,
      "ĠLow": 7491,
      "Ġdose": 7492,
      "Ġautomatically": 7493,
      "800": 7494,
      "Ġbless": 7495,
      "Ġsurge": 7496,
      "Ġmothers": 7497,
      "TP": 7498,
      "ĠAND": 7499,
      "Ġgrains": 7500,
      "Ġantioxid": 7501,
      "ĠKingdom": 7502,
      "Ġinitiative": 7503,
      "IG": 7504,
      "operation": 7505,
      "ĠEst": 7506,
      "Ġplot": 7507,
      "Ġacute": 7508,
      "Ġreward": 7509,
      "ĠPolic": 7510,
      "ĠWildlife": 7511,
      "Each": 7512,
      "avery": 7513,
      "Ġgirl": 7514,
      "Ġsad": 7515,
      "1950": 7516,
      "Ġgradually": 7517,
      "Ġpowers": 7518,
      "Ġtables": 7519,
      "emia": 7520,
      "ĠResp": 7521,
      "action": 7522,
      "ĠSuper": 7523,
      "Ġcab": 7524,
      "Ġfinds": 7525,
      "Ġengaging": 7526,
      "Ġoccurring": 7527,
      "uten": 7528,
      "Ġdestruction": 7529,
      "Ġfuels": 7530,
      "Ġsacr": 7531,
      "Ġeditor": 7532,
      "ĠIndust": 7533,
      "Ġdietary": 7534,
      "Hist": 7535,
      "ĠAdditionally": 7536,
      "Wor": 7537,
      "Ġwonderful": 7538,
      "Ġclothes": 7539,
      "rance": 7540,
      "Ġtelevision": 7541,
      "Ġunw": 7542,
      "Ġwatching": 7543,
      "Med": 7544,
      "ruit": 7545,
      "41": 7546,
      "ĠMen": 7547,
      "ĠHill": 7548,
      "ih": 7549,
      "Ġcosm": 7550,
      "Ġquarter": 7551,
      "syl": 7552,
      "Ġdiameter": 7553,
      "Ġagreed": 7554,
      "Ġexamined": 7555,
      "inder": 7556,
      "Ġcommission": 7557,
      "ĠSup": 7558,
      "Ġdetected": 7559,
      "Please": 7560,
      "Ġpreserve": 7561,
      "Ġconfirmed": 7562,
      "Ġmixture": 7563,
      "Ġfur": 7564,
      "Ġworship": 7565,
      "print": 7566,
      "Ġcrim": 7567,
      "Ġinher": 7568,
      "aws": 7569,
      "apse": 7570,
      "Ġsentences": 7571,
      "Ġsignificance": 7572,
      "Ġease": 7573,
      "Ġplanting": 7574,
      "ĠOhio": 7575,
      "Ġheritage": 7576,
      "ĠMult": 7577,
      "Ġaged": 7578,
      "Ġcovering": 7579,
      "Ġplanned": 7580,
      "Ġid": 7581,
      "EF": 7582,
      "Ġsus": 7583,
      "angle": 7584,
      "ĠIII": 7585,
      "Ġmathematical": 7586,
      "Ġcough": 7587,
      "Ġhidden": 7588,
      "ĠMS": 7589,
      "rize": 7590,
      "Ġfalling": 7591,
      "Use": 7592,
      "una": 7593,
      "elescope": 7594,
      "tic": 7595,
      "mentia": 7596,
      "Ġadm": 7597,
      "eor": 7598,
      "Ġreaching": 7599,
      "Ġimaging": 7600,
      "Ġurine": 7601,
      "Ġmicrosc": 7602,
      "Ġquantum": 7603,
      "Ġflying": 7604,
      "Ġphosph": 7605,
      "requ": 7606,
      "ĠFire": 7607,
      "Ġvariables": 7608,
      "ĠAL": 7609,
      "ĠDown": 7610,
      "Ġassociation": 7611,
      "Ġceremon": 7612,
      "Under": 7613,
      "iture": 7614,
      "Ġproportion": 7615,
      "Ġstyles": 7616,
      "Ġenorm": 7617,
      "Ġelection": 7618,
      "Ġdependent": 7619,
      "ĠViet": 7620,
      "ĠSecurity": 7621,
      "Ġguard": 7622,
      "Ġfaces": 7623,
      "Ġdifficulties": 7624,
      "Ġmortality": 7625,
      "Ġweakness": 7626,
      "ventions": 7627,
      "Before": 7628,
      "Ġcrown": 7629,
      "Ġintent": 7630,
      "eenth": 7631,
      "mia": 7632,
      "Ġburied": 7633,
      "vin": 7634,
      "apes": 7635,
      "Ġcontemporary": 7636,
      "Ġextend": 7637,
      "Ġov": 7638,
      "athered": 7639,
      "Ġwebsites": 7640,
      "ĠElizabeth": 7641,
      "Ġplayer": 7642,
      "Ġemployed": 7643,
      "Ġcaptured": 7644,
      "opic": 7645,
      "ython": 7646,
      "amination": 7647,
      "ureau": 7648,
      "Ġovercome": 7649,
      "Ġtroops": 7650,
      "Ġconstitution": 7651,
      "Ġaccompan": 7652,
      "swe": 7653,
      "ĠNon": 7654,
      "ĠHeart": 7655,
      "Ġpositions": 7656,
      "Ġintellectual": 7657,
      "Ġoutcome": 7658,
      "brew": 7659,
      "Ġbatteries": 7660,
      "Ġfires": 7661,
      "Ġbeans": 7662,
      "incoln": 7663,
      "Ġappoint": 7664,
      "Ġaffecting": 7665,
      "Ġstrengthen": 7666,
      "ĠSwed": 7667,
      "Ġfunctioning": 7668,
      "astics": 7669,
      "quir": 7670,
      "Ġcalling": 7671,
      "Ġsales": 7672,
      "Ġdeclared": 7673,
      "Ġpla": 7674,
      "Ġcontainer": 7675,
      "Ġprogramme": 7676,
      "HA": 7677,
      "ixote": 7678,
      "Ġguess": 7679,
      "Ġproviders": 7680,
      "Ġexhibit": 7681,
      "Ġconference": 7682,
      "Ġsubt": 7683,
      "Ġmusical": 7684,
      "Ġaband": 7685,
      "Ġdrivers": 7686,
      "Scient": 7687,
      "Ġconfig": 7688,
      "enger": 7689,
      "rox": 7690,
      "ĠPot": 7691,
      "ersonal": 7692,
      "Ġsuscept": 7693,
      "CA": 7694,
      "Ġcelebrate": 7695,
      "Researchers": 7696,
      "iber": 7697,
      "Ġdivision": 7698,
      "Ġjuice": 7699,
      "Ġsister": 7700,
      "amine": 7701,
      "ette": 7702,
      "ĠWall": 7703,
      "Ġdisability": 7704,
      "Ġearliest": 7705,
      "Ġpolar": 7706,
      "Ġentertain": 7707,
      "Ġheavily": 7708,
      "Ed": 7709,
      "Like": 7710,
      "Ġforming": 7711,
      "Ġplane": 7712,
      "dr": 7713,
      "Ġcord": 7714,
      "Ġevolved": 7715,
      "1995": 7716,
      "Ġequally": 7717,
      "ENT": 7718,
      "Ġphrase": 7719,
      "esis": 7720,
      "Ġauthent": 7721,
      "Ġindicated": 7722,
      "made": 7723,
      "Ġlymph": 7724,
      "ĠFour": 7725,
      "Ġinfluenced": 7726,
      "Ġspray": 7727,
      "ibl": 7728,
      "66": 7729,
      "nal": 7730,
      "Ġtheories": 7731,
      "Ġfra": 7732,
      "Ġoverw": 7733,
      "Ġgrain": 7734,
      "Ġessentially": 7735,
      "Ġwaiting": 7736,
      "1997": 7737,
      "ĠAssess": 7738,
      "iability": 7739,
      "lines": 7740,
      "sylvania": 7741,
      "Ã¼": 7742,
      "CT": 7743,
      "oa": 7744,
      "eries": 7745,
      "ĠRh": 7746,
      "ieval": 7747,
      "list": 7748,
      "ĠNaz": 7749,
      "Ġcontrovers": 7750,
      "Ġconsumed": 7751,
      "Ġphotographs": 7752,
      "Ġsought": 7753,
      "ommun": 7754,
      "ĠGeorgia": 7755,
      "ude": 7756,
      "Ġsuffered": 7757,
      "ĠScotland": 7758,
      "Ġinsert": 7759,
      "Ġhosp": 7760,
      "ĠTim": 7761,
      "ensed": 7762,
      "Ġprey": 7763,
      "Ġassume": 7764,
      "Ġthermal": 7765,
      "ĠHawai": 7766,
      "sell": 7767,
      "apor": 7768,
      "Ġinsight": 7769,
      "Ġnegot": 7770,
      "alities": 7771,
      "Ġpainful": 7772,
      "Ġexploration": 7773,
      "Ġteens": 7774,
      "Ġregardless": 7775,
      "bar": 7776,
      "Ġlighting": 7777,
      "Ġbacterial": 7778,
      "ĠRom": 7779,
      "Ġenables": 7780,
      "Ġhabitats": 7781,
      "Ġchannel": 7782,
      "lights": 7783,
      "ading": 7784,
      "forcement": 7785,
      "Ġgast": 7786,
      "ĠBill": 7787,
      "ano": 7788,
      "asting": 7789,
      "ĠHeritage": 7790,
      "just": 7791,
      "ĠDev": 7792,
      "Ġobjectives": 7793,
      "Part": 7794,
      "icit": 7795,
      "ĠOrganization": 7796,
      "Ġdefe": 7797,
      "Ġstopped": 7798,
      "Ġdecreased": 7799,
      "UT": 7800,
      "Ġwouldn": 7801,
      "ĠRoad": 7802,
      "2021": 7803,
      "Ġprotective": 7804,
      "CE": 7805,
      "oli": 7806,
      "Ġbare": 7807,
      "ĠJeff": 7808,
      "Have": 7809,
      "Source": 7810,
      "onym": 7811,
      "ĠUr": 7812,
      "asy": 7813,
      "Ġorange": 7814,
      "ĠMichigan": 7815,
      "ilation": 7816,
      "Ġhardware": 7817,
      "ĠTO": 7818,
      "Ġwash": 7819,
      "Ġcriteria": 7820,
      "osh": 7821,
      "ĠHoly": 7822,
      "Ġaddiction": 7823,
      "otherapy": 7824,
      "abil": 7825,
      "holders": 7826,
      "Ġpupils": 7827,
      "ceans": 7828,
      "mented": 7829,
      "friend": 7830,
      "otype": 7831,
      "Ġstations": 7832,
      "roud": 7833,
      "awn": 7834,
      "Ġinfants": 7835,
      "Ġinfant": 7836,
      "Ġcomputing": 7837,
      "Ġlists": 7838,
      "ima": 7839,
      "Ġtack": 7840,
      "Ġstake": 7841,
      "Ġuncertain": 7842,
      "ani": 7843,
      "Ġthroat": 7844,
      "Ġsafely": 7845,
      "Click": 7846,
      "Ġven": 7847,
      "Ġcardiovascular": 7848,
      "Ġdiscrimination": 7849,
      "Ġsizes": 7850,
      "Ġrab": 7851,
      "Ġstrange": 7852,
      "Ġvaccines": 7853,
      "Ġmanufacturers": 7854,
      "Ġindigenous": 7855,
      "ĠPen": 7856,
      "ĠPhot": 7857,
      "Ġmm": 7858,
      "alm": 7859,
      "ĠVer": 7860,
      "Ġfarms": 7861,
      "250": 7862,
      "76": 7863,
      "Ġdense": 7864,
      "ĠWithout": 7865,
      "Ġmedicines": 7866,
      "ĠSurvey": 7867,
      "Ġstones": 7868,
      "ĠBul": 7869,
      "Ġvan": 7870,
      "ĠProp": 7871,
      "plete": 7872,
      "Ġcotton": 7873,
      "ulpt": 7874,
      "oples": 7875,
      "riptions": 7876,
      "Ġpit": 7877,
      "ĠSar": 7878,
      "Ġmetals": 7879,
      "haust": 7880,
      "BT": 7881,
      "ĠBu": 7882,
      "ĠLight": 7883,
      "Ġmanif": 7884,
      "Ġjoy": 7885,
      "ĠAP": 7886,
      "Ġsug": 7887,
      "ĠUnfortunately": 7888,
      "yr": 7889,
      "ĠEPA": 7890,
      "Ġanalyze": 7891,
      "Ġalter": 7892,
      "ostic": 7893,
      "ĠPrinc": 7894,
      "Ġrelation": 7895,
      "Ġnutrient": 7896,
      "Ġtheore": 7897,
      "Ġsaving": 7898,
      "ĠHand": 7899,
      "oston": 7900,
      "Ġsched": 7901,
      "ĠLaboratory": 7902,
      "foot": 7903,
      "ĠCast": 7904,
      "Ġthreatened": 7905,
      "Ġloose": 7906,
      "Ġpros": 7907,
      "ums": 7908,
      "Up": 7909,
      "Ġpromise": 7910,
      "Ġfaced": 7911,
      "ĠWikipedia": 7912,
      "ĠNever": 7913,
      "Ġphysically": 7914,
      "ĠEp": 7915,
      "Ġdesert": 7916,
      "Ġcoverage": 7917,
      "Ġmoderate": 7918,
      "Ġpurs": 7919,
      "Ġhygien": 7920,
      "medi": 7921,
      "endar": 7922,
      "May": 7923,
      "ĠPop": 7924,
      "bridge": 7925,
      "Ġmosquit": 7926,
      "ĠMethod": 7927,
      "Ġparallel": 7928,
      "iti": 7929,
      "ansas": 7930,
      "Ġhunting": 7931,
      "akistan": 7932,
      "Ġpuzz": 7933,
      "Ġtrauma": 7934,
      "ĠIslands": 7935,
      "har": 7936,
      "inf": 7937,
      "Ġflash": 7938,
      "Ġtransc": 7939,
      "Ġhormones": 7940,
      "Ġempty": 7941,
      "ĠNote": 7942,
      "Ġglac": 7943,
      "ĠBlue": 7944,
      "ulating": 7945,
      "Ġtraditions": 7946,
      "Ġfunded": 7947,
      "ĠAuthor": 7948,
      "Ġdriven": 7949,
      "Ġmovie": 7950,
      "Ġsavings": 7951,
      "hus": 7952,
      "Ġwithd": 7953,
      "ĠObs": 7954,
      "Ġacres": 7955,
      "Ġsustainability": 7956,
      "ĠWay": 7957,
      "Ġchap": 7958,
      "Ġtip": 7959,
      "Ġensuring": 7960,
      "Ġtumor": 7961,
      "cyclopedia": 7962,
      "Ġaccommod": 7963,
      "Ġbeings": 7964,
      "lymp": 7965,
      "Ġattempts": 7966,
      "Ġecosystems": 7967,
      "assium": 7968,
      "Ġfatigue": 7969,
      "Ġremoving": 7970,
      "ĠHelp": 7971,
      "Ġgravity": 7972,
      "rary": 7973,
      "Ġvariation": 7974,
      "Ġstructural": 7975,
      "itory": 7976,
      "estions": 7977,
      "Ġfocusing": 7978,
      "Ġspots": 7979,
      "Ġattach": 7980,
      "98": 7981,
      "ori": 7982,
      "ĠCard": 7983,
      "Ġaddressed": 7984,
      "Ġflexible": 7985,
      "class": 7986,
      "Ġrepresentation": 7987,
      "Ġsaved": 7988,
      "Ġcort": 7989,
      "Ġviewed": 7990,
      "120": 7991,
      "Well": 7992,
      "ĠpH": 7993,
      "Ġgained": 7994,
      "ĠDespite": 7995,
      "ĠAmong": 7996,
      "Ġmaintained": 7997,
      "Ġchocolate": 7998,
      "Ġrank": 7999,
      "Ġtelling": 8000,
      "onday": 8001,
      "Ġshaped": 8002,
      "Ġelder": 8003,
      "acent": 8004,
      "Ġcharacterized": 8005,
      "Ġcelebrated": 8006,
      "ĠCir": 8007,
      "ĠCross": 8008,
      "Car": 8009,
      "ĠAgriculture": 8010,
      "ĠSir": 8011,
      "Ġproved": 8012,
      "ĠÂ©": 8013,
      "Ġbeat": 8014,
      "atively": 8015,
      "Ġdirections": 8016,
      "Ġaudio": 8017,
      "ĠPennsylvania": 8018,
      "Ã¶": 8019,
      "Ġlens": 8020,
      "Ġaging": 8021,
      "Ġpassion": 8022,
      "Ġshock": 8023,
      "ĠThree": 8024,
      "Ġregulation": 8025,
      "gener": 8026,
      "brid": 8027,
      "Ġidentification": 8028,
      "ĠJohnson": 8029,
      "Ġstreets": 8030,
      "eut": 8031,
      "Ġpets": 8032,
      "urning": 8033,
      "HS": 8034,
      "Ġassigned": 8035,
      "Ġoverwhel": 8036,
      "MA": 8037,
      "Â®": 8038,
      "irth": 8039,
      "ĠOxford": 8040,
      "Ġexclus": 8041,
      "Ġachievement": 8042,
      "Ġdifferently": 8043,
      "ĠColl": 8044,
      "Ġtaxes": 8045,
      "MI": 8046,
      "ĠIns": 8047,
      "1930": 8048,
      "Ġnuts": 8049,
      "Ġversions": 8050,
      "EE": 8051,
      "oys": 8052,
      "olesc": 8053,
      "ĠGulf": 8054,
      "Ġspoken": 8055,
      "gon": 8056,
      "ĠSand": 8057,
      "erving": 8058,
      "Ġinitially": 8059,
      "Sim": 8060,
      "Ġfet": 8061,
      "ĠBusiness": 8062,
      "Ġspr": 8063,
      "Ġevil": 8064,
      "uset": 8065,
      "ymes": 8066,
      "Ġembra": 8067,
      "Ġprincipal": 8068,
      "iger": 8069,
      "1996": 8070,
      "ĠHarvard": 8071,
      "itchen": 8072,
      "ĠUt": 8073,
      "ĠAsk": 8074,
      "Ġoils": 8075,
      "Ġchair": 8076,
      "Ġshoot": 8077,
      "Ġradical": 8078,
      "Ġexception": 8079,
      "Cons": 8080,
      "through": 8081,
      "Ġtechnological": 8082,
      "herent": 8083,
      "ashes": 8084,
      "ivest": 8085,
      "Ġswelling": 8086,
      "Ġbalanced": 8087,
      "ĠRetrieved": 8088,
      "Ġprominent": 8089,
      "Ġdeficiency": 8090,
      "ĠSystems": 8091,
      "Ġinterpre": 8092,
      "ĠSolar": 8093,
      "Ġcomprom": 8094,
      "Ġbelieves": 8095,
      "bean": 8096,
      "Ġweapons": 8097,
      "88": 8098,
      "Ġdefend": 8099,
      "Ġuniversities": 8100,
      "Ġinterface": 8101,
      "Ġallergies": 8102,
      "Ġtranslation": 8103,
      "Ġmanaging": 8104,
      "aterials": 8105,
      "ĠAvoid": 8106,
      "Ġbleeding": 8107,
      "Ġbee": 8108,
      "Ġimprovements": 8109,
      "hester": 8110,
      "Ġnutritional": 8111,
      "Ġatoms": 8112,
      "Ġcoat": 8113,
      "Ġverb": 8114,
      "Ġcommitment": 8115,
      "Ġcriminal": 8116,
      "Ġdies": 8117,
      "Ġprohib": 8118,
      "Ġwrites": 8119,
      "Ġspacecraft": 8120,
      "Ġdefinitely": 8121,
      "Students": 8122,
      "Ġtor": 8123,
      "ĠIT": 8124,
      "istant": 8125,
      "His": 8126,
      "Just": 8127,
      "Ġsou": 8128,
      "ĠFinally": 8129,
      "trans": 8130,
      "Ġwisdom": 8131,
      "ĠJac": 8132,
      "there": 8133,
      "Ġanalys": 8134,
      "Ġconcluded": 8135,
      "kind": 8136,
      "Ġhaven": 8137,
      "Ġdisrupt": 8138,
      "isco": 8139,
      "Ġcustomer": 8140,
      "ĠCurrent": 8141,
      "ĠLincoln": 8142,
      "achuset": 8143,
      "amics": 8144,
      "Ġadverse": 8145,
      "Ġsleeping": 8146,
      "ĠQuixote": 8147,
      "achusetts": 8148,
      "oons": 8149,
      "Ġspinal": 8150,
      "Ġracial": 8151,
      "gged": 8152,
      "Ġpoem": 8153,
      "Ġswit": 8154,
      "Ġconvey": 8155,
      "Ġintensity": 8156,
      "uum": 8157,
      "icular": 8158,
      "Ġlosing": 8159,
      "eling": 8160,
      "ĠMoreover": 8161,
      "Ġsessions": 8162,
      "ptom": 8163,
      "ipe": 8164,
      "iat": 8165,
      "ruption": 8166,
      "Ġreverse": 8167,
      "Ġvisited": 8168,
      "Ġvegetable": 8169,
      "Ġabsorb": 8170,
      "Ġtap": 8171,
      "eting": 8172,
      "Ġopposed": 8173,
      "Ġsteam": 8174,
      "Ġtom": 8175,
      "1000": 8176,
      "hire": 8177,
      "pling": 8178,
      "Ġproductivity": 8179,
      "Ġarrest": 8180,
      "Ġsensor": 8181,
      "Ġfisher": 8182,
      "Ġbears": 8183,
      "ema": 8184,
      "iva": 8185,
      "Ġecological": 8186,
      "Ġdynamic": 8187,
      "edu": 8188,
      "ĠJul": 8189,
      "Ġparagraph": 8190,
      "lishing": 8191,
      "hemistry": 8192,
      "unning": 8193,
      "Ġabsence": 8194,
      "Ġdramatic": 8195,
      "Ġwriters": 8196,
      "ĠFrid": 8197,
      "Ġcalculate": 8198,
      "Ġresistant": 8199,
      "istical": 8200,
      "ĠOlymp": 8201,
      "Ġreserved": 8202,
      "Ġclock": 8203,
      "Ġrhyth": 8204,
      "Ġexperimental": 8205,
      "uh": 8206,
      "aret": 8207,
      "Ġassociate": 8208,
      "Ġisolated": 8209,
      "bow": 8210,
      "iological": 8211,
      "Ġemerging": 8212,
      "ĠSunday": 8213,
      "Ġwal": 8214,
      "Ġhath": 8215,
      "Ġquantity": 8216,
      "Ġshore": 8217,
      "ĠGr": 8218,
      "Ġagents": 8219,
      "Ġampl": 8220,
      "Ġslavery": 8221,
      "ĠSupreme": 8222,
      "77": 8223,
      "orted": 8224,
      "Ġexploring": 8225,
      "disc": 8226,
      "Ġtob": 8227,
      "Ġdim": 8228,
      "ĠDou": 8229,
      "Ġfeels": 8230,
      "Ġboat": 8231,
      "aneously": 8232,
      "Sm": 8233,
      "yer": 8234,
      "ĠDO": 8235,
      "Ġcouldn": 8236,
      "asm": 8237,
      "Ġcharged": 8238,
      "rolled": 8239,
      "Ġseparated": 8240,
      "oids": 8241,
      "Ġinequ": 8242,
      "Ġtransmitted": 8243,
      "ĠKar": 8244,
      "Ġdiarr": 8245,
      "chnology": 8246,
      "Ġsolving": 8247,
      "Eng": 8248,
      "ami": 8249,
      "Ġdefense": 8250,
      "Ġcattle": 8251,
      "Ġmerely": 8252,
      "ipher": 8253,
      "Ġresc": 8254,
      "Ġcontribution": 8255,
      "Ġassets": 8256,
      "Ġalarm": 8257,
      "Ġamino": 8258,
      "ĠHead": 8259,
      "Ġendangered": 8260,
      "ographical": 8261,
      "Ġvegetation": 8262,
      "Ġresil": 8263,
      "Ġdistricts": 8264,
      "Ġstatements": 8265,
      "akespe": 8266,
      "Ġdigestive": 8267,
      "ĠPu": 8268,
      "Ġspoke": 8269,
      "Ġoutdoor": 8270,
      "Ġsubstit": 8271,
      "Ġinterior": 8272,
      "claim": 8273,
      "Ġaimed": 8274,
      "green": 8275,
      "Ġrow": 8276,
      "ĠCorn": 8277,
      "Ġtone": 8278,
      "Ġcompens": 8279,
      "ĠIdent": 8280,
      "Ġstability": 8281,
      "ĠIndians": 8282,
      "Ġcow": 8283,
      "Ġthread": 8284,
      "ĠDes": 8285,
      "Ġsuit": 8286,
      "otal": 8287,
      "Ġlowest": 8288,
      "Ġminds": 8289,
      "akespeare": 8290,
      "ĠPDF": 8291,
      "Ġwearing": 8292,
      "ilst": 8293,
      "Ġcontents": 8294,
      "Ġgrades": 8295,
      "Ġgraduate": 8296,
      "Ġfriendly": 8297,
      "Ġequation": 8298,
      "Ġbags": 8299,
      "Ġrays": 8300,
      "ĠAmazon": 8301,
      "Ġrecre": 8302,
      "Ġconsiderable": 8303,
      "ĠImp": 8304,
      "56": 8305,
      "Ġpale": 8306,
      "Ġentering": 8307,
      "Ġstreams": 8308,
      "Ġclient": 8309,
      "Ġcontributed": 8310,
      "IF": 8311,
      "ĠHor": 8312,
      "Ġapplying": 8313,
      "Ġglobe": 8314,
      "Ġchoosing": 8315,
      "Ġemotion": 8316,
      "Ġexpectations": 8317,
      "ĠDigital": 8318,
      "Ġsensitivity": 8319,
      "ivestock": 8320,
      "AB": 8321,
      "iments": 8322,
      "Ġconsideration": 8323,
      "Ġvolunteers": 8324,
      "best": 8325,
      "Ġenemy": 8326,
      "izz": 8327,
      "Ġdemands": 8328,
      "Ġemphasis": 8329,
      "rical": 8330,
      "Ġshed": 8331,
      "chain": 8332,
      "Ġperforming": 8333,
      "ranean": 8334,
      "quar": 8335,
      "fulness": 8336,
      "ometry": 8337,
      "Ġclouds": 8338,
      "ĠPolicy": 8339,
      "mega": 8340,
      "Ġtransmit": 8341,
      "Ġdegrad": 8342,
      "Ġfought": 8343,
      "Ġelected": 8344,
      "Ġconcentrations": 8345,
      "Ġinhabit": 8346,
      "ĠOper": 8347,
      "Ġperm": 8348,
      "advant": 8349,
      "Ġcoron": 8350,
      "ali": 8351,
      "Ġdementia": 8352,
      "Ġdirected": 8353,
      "Ġbreaks": 8354,
      "borne": 8355,
      "Ġexhaust": 8356,
      "Ġnoticed": 8357,
      "Ġsurprised": 8358,
      "ĠBoston": 8359,
      "ĠDictionary": 8360,
      "books": 8361,
      "ĠArts": 8362,
      "ĠFact": 8363,
      "Ġpeer": 8364,
      "ailable": 8365,
      "df": 8366,
      "Ġtab": 8367,
      "esh": 8368,
      "semb": 8369,
      "ĠPakistan": 8370,
      "Ġdevast": 8371,
      "Ġpartnership": 8372,
      "Ġpandemic": 8373,
      "ĠTre": 8374,
      "aying": 8375,
      "antic": 8376,
      "they": 8377,
      "Health": 8378,
      "Ġlady": 8379,
      "Ġavailability": 8380,
      "Ġles": 8381,
      "ĠBooks": 8382,
      "ools": 8383,
      "Ġposts": 8384,
      "world": 8385,
      "Ġtobacco": 8386,
      "Ġrac": 8387,
      "Ġclassified": 8388,
      "Ġsubstantial": 8389,
      "Ġtick": 8390,
      "ĠBattle": 8391,
      "Ġinvestigation": 8392,
      "his": 8393,
      "Ġspan": 8394,
      "ourse": 8395,
      "ĠChapter": 8396,
      "Ġtowns": 8397,
      "etary": 8398,
      "Ġsculpt": 8399,
      "Ġtemporary": 8400,
      "Ġillnesses": 8401,
      "ĠFurthermore": 8402,
      "olk": 8403,
      "century": 8404,
      "erts": 8405,
      "Ġhat": 8406,
      "ĠMrs": 8407,
      "Ġlock": 8408,
      "ĠProcess": 8409,
      "rizona": 8410,
      "Ġgardens": 8411,
      "58": 8412,
      "mail": 8413,
      "Ġvel": 8414,
      "Ġranging": 8415,
      "ocial": 8416,
      "Ġdevelops": 8417,
      "Ġacquired": 8418,
      "Ġobservation": 8419,
      "ĠMassachusetts": 8420,
      "Ġsubsequent": 8421,
      "dep": 8422,
      "aining": 8423,
      "Ġcreativity": 8424,
      "Ġboundaries": 8425,
      "EO": 8426,
      "à¤": 8427,
      "Ġlifetime": 8428,
      "mm": 8429,
      "Ġeru": 8430,
      "oves": 8431,
      "Ġpromoting": 8432,
      "elly": 8433,
      "Ġash": 8434,
      "Ġmyst": 8435,
      "atal": 8436,
      "Ġspecialist": 8437,
      "Ġdeeply": 8438,
      "Ġinvestigate": 8439,
      "Ġenormous": 8440,
      "Ġraising": 8441,
      "Ġjoints": 8442,
      "Ġadvis": 8443,
      "Rel": 8444,
      "Ġblank": 8445,
      "Ġhealthier": 8446,
      "ĠMusic": 8447,
      "Ġdentist": 8448,
      "Ġwat": 8449,
      "Ġlibr": 8450,
      "ĠSpring": 8451,
      "Ġequality": 8452,
      "Ġuniversal": 8453,
      "ĠTreatment": 8454,
      "Ġpill": 8455,
      "Ġtrem": 8456,
      "Ġclaimed": 8457,
      "fly": 8458,
      "ptic": 8459,
      "Ġpointed": 8460,
      "Ġbehavioral": 8461,
      "Ġbomb": 8462,
      "ĠMot": 8463,
      "Ġritual": 8464,
      "bec": 8465,
      "CD": 8466,
      "Ġabstract": 8467,
      "NS": 8468,
      "Ġwider": 8469,
      "Ġreporting": 8470,
      "Ġremarkable": 8471,
      "html": 8472,
      "Ġillegal": 8473,
      "rh": 8474,
      "Ġnoun": 8475,
      "ĠLast": 8476,
      "Ġfavour": 8477,
      "atial": 8478,
      "idal": 8479,
      "rub": 8480,
      "Ġunn": 8481,
      "Ġsurprise": 8482,
      "Ġwise": 8483,
      "Ġconvert": 8484,
      "usive": 8485,
      "Ġvertical": 8486,
      "Ġneutral": 8487,
      "utation": 8488,
      "Ġresid": 8489,
      "Ġeleph": 8490,
      "erman": 8491,
      "Ġinvasive": 8492,
      "Ġcream": 8493,
      "ĠPo": 8494,
      "Ġbreaking": 8495,
      "Ġhal": 8496,
      "irms": 8497,
      "theless": 8498,
      "Post": 8499,
      "Ġreaches": 8500,
      "ĠTrust": 8501,
      "wan": 8502,
      "ifted": 8503,
      "Ġcalm": 8504,
      "Ġhonest": 8505,
      "Ġfrust": 8506,
      "Ġcul": 8507,
      "ĠDom": 8508,
      "Ġbuying": 8509,
      "Ġrestore": 8510,
      "Ġdropped": 8511,
      "Two": 8512,
      "Ġlakes": 8513,
      "Ġtargeted": 8514,
      "Ġsettlement": 8515,
      "DR": 8516,
      "imp": 8517,
      "Ġdiets": 8518,
      "Ġmanager": 8519,
      "ĠKey": 8520,
      "Ġhappiness": 8521,
      "va": 8522,
      "Ġalumin": 8523,
      "Ġtumors": 8524,
      "Tra": 8525,
      "Ġplanted": 8526,
      "Ġrespectively": 8527,
      "omers": 8528,
      "inois": 8529,
      "Ġgods": 8530,
      "Ġnewspaper": 8531,
      "ĠLin": 8532,
      "Ġuniform": 8533,
      "Ġcorrel": 8534,
      "Ġgranted": 8535,
      "Ġlosses": 8536,
      "elfare": 8537,
      "ĠCell": 8538,
      "Ġbene": 8539,
      "Ġfascinating": 8540,
      "pre": 8541,
      "Ġhall": 8542,
      "Ġloud": 8543,
      "Ġcontributions": 8544,
      "ĠHebrew": 8545,
      "mentation": 8546,
      "emb": 8547,
      "ideo": 8548,
      "Ġmodule": 8549,
      "Ġdimens": 8550,
      "Ġpassword": 8551,
      "hal": 8552,
      "Ġthank": 8553,
      "Ġallergic": 8554,
      "Ġpaintings": 8555,
      "ifer": 8556,
      "ĠPur": 8557,
      "Ġmanual": 8558,
      "ĠSecret": 8559,
      "ĠFriday": 8560,
      "hy": 8561,
      "orrect": 8562,
      "Ġpairs": 8563,
      "pled": 8564,
      "ĠWeek": 8565,
      "Ġexhibition": 8566,
      "ustainable": 8567,
      "Ġmature": 8568,
      "ĠPain": 8569,
      "ĠNO": 8570,
      "Ġuncle": 8571,
      "Ġactively": 8572,
      "Ġvariations": 8573,
      "Ġgrammar": 8574,
      "real": 8575,
      "Ġgathered": 8576,
      "Ġtrace": 8577,
      "Ġroyal": 8578,
      "Ġassignment": 8579,
      "orms": 8580,
      "ritten": 8581,
      "ĠVe": 8582,
      "Ġlinear": 8583,
      "ĠContin": 8584,
      "Ġpowder": 8585,
      "Ġshorter": 8586,
      "Ġpursu": 8587,
      "ĠTwitter": 8588,
      "onomic": 8589,
      "ĠBuilding": 8590,
      "ĠLittle": 8591,
      "Ġperception": 8592,
      "Ġsulf": 8593,
      "onom": 8594,
      "Ġreturns": 8595,
      "Ġsongs": 8596,
      "Ġcub": 8597,
      "ĠFarm": 8598,
      "Ġpriority": 8599,
      "Ġwings": 8600,
      "Gl": 8601,
      "Sub": 8602,
      "Ġconqu": 8603,
      "Ġscores": 8604,
      "Ġstraw": 8605,
      "Ġwelcome": 8606,
      "Ġmouse": 8607,
      "Ġworkplace": 8608,
      "Ġhopes": 8609,
      "Ġtens": 8610,
      "Ġgift": 8611,
      "Ġcompass": 8612,
      "ĠMedia": 8613,
      "Ġbeneath": 8614,
      "Ã¢": 8615,
      "Ġtomat": 8616,
      "ĠAnalysis": 8617,
      "shaped": 8618,
      "Ġsplit": 8619,
      "Ġmunicip": 8620,
      "ĠWriting": 8621,
      "Ġordered": 8622,
      "ĠNext": 8623,
      "ĠIran": 8624,
      "Ġkilling": 8625,
      "ĠSancho": 8626,
      "Ġthrow": 8627,
      "Ġhung": 8628,
      "ĠCost": 8629,
      "elve": 8630,
      "Ġcong": 8631,
      "Ġhouseholds": 8632,
      "ĠMicrosoft": 8633,
      "inger": 8634,
      "about": 8635,
      "Ġcheap": 8636,
      "Ġmammals": 8637,
      "ĠPass": 8638,
      "Ġengines": 8639,
      "Ġgrounds": 8640,
      "Ġliterally": 8641,
      "Ġbegun": 8642,
      "Despite": 8643,
      "ĠArizona": 8644,
      "ĠUV": 8645,
      "Ġinterventions": 8646,
      "Ġpersonality": 8647,
      "Ġsummary": 8648,
      "Ġbarriers": 8649,
      "Ġpace": 8650,
      "text": 8651,
      "Ġexpertise": 8652,
      "Ġduty": 8653,
      "68": 8654,
      "imm": 8655,
      "Ġcann": 8656,
      "Ġoverview": 8657,
      "Ġhandling": 8658,
      "ĠDiet": 8659,
      "DS": 8660,
      "Ġanger": 8661,
      "Ġannually": 8662,
      "Ġofficer": 8663,
      "Ġelectrons": 8664,
      "Ġcurrency": 8665,
      "700": 8666,
      "stru": 8667,
      "ffe": 8668,
      "Ġowned": 8669,
      "Ġaggressive": 8670,
      "Ġdish": 8671,
      "Ġsurgical": 8672,
      "Ġcollections": 8673,
      "Ġirrig": 8674,
      "MP": 8675,
      "Ġprofit": 8676,
      "author": 8677,
      "Ġtension": 8678,
      "ĠBack": 8679,
      "Ġseal": 8680,
      "ĠWhether": 8681,
      "ĠCr": 8682,
      "neum": 8683,
      "Ġrestaur": 8684,
      "Ġpaying": 8685,
      "Ġmeaningful": 8686,
      "Ġcommunications": 8687,
      "ogenic": 8688,
      "Will": 8689,
      "umer": 8690,
      "ĠNov": 8691,
      "Ġdisplayed": 8692,
      "Ġchicken": 8693,
      "Ġdating": 8694,
      "adel": 8695,
      "working": 8696,
      "ĠStandards": 8697,
      "Ġpilot": 8698,
      "EA": 8699,
      "ao": 8700,
      "ĠNob": 8701,
      "actions": 8702,
      "ricted": 8703,
      "ĠPage": 8704,
      "ĠThanks": 8705,
      "Ġcapabilities": 8706,
      "ubble": 8707,
      "Ġextension": 8708,
      "ĠRemember": 8709,
      "ker": 8710,
      "sor": 8711,
      "inea": 8712,
      "Ġpasses": 8713,
      "ĠLevel": 8714,
      "Co": 8715,
      "reens": 8716,
      "ĠIV": 8717,
      "ĠWhich": 8718,
      "also": 8719,
      "Ġhurt": 8720,
      "quality": 8721,
      "Ġhygiene": 8722,
      "Pr": 8723,
      "name": 8724,
      "Ġreferences": 8725,
      "Ġoste": 8726,
      "Ġlip": 8727,
      "ĠAction": 8728,
      "ĠOl": 8729,
      "Ġseriously": 8730,
      "ometric": 8731,
      "ĠTown": 8732,
      "Ġchromos": 8733,
      "erally": 8734,
      "Ġbonds": 8735,
      "ĠLook": 8736,
      "Ġbrush": 8737,
      "Ġcontrolling": 8738,
      "Ġperceived": 8739,
      "ĠKorea": 8740,
      "erty": 8741,
      "Ġglob": 8742,
      "Ġmemor": 8743,
      "Ġhomework": 8744,
      "ĠGarden": 8745,
      "Rem": 8746,
      "Ġexped": 8747,
      "rison": 8748,
      "Ġfinish": 8749,
      "John": 8750,
      "izers": 8751,
      "Ġdemocracy": 8752,
      "Ġlogic": 8753,
      "Ġbrains": 8754,
      "Ġsettled": 8755,
      "Ġexpanded": 8756,
      "Ġaccompanied": 8757,
      "Ġproud": 8758,
      "ĠBang": 8759,
      "Ġclassic": 8760,
      "Ġslave": 8761,
      "aded": 8762,
      "Ġclay": 8763,
      "Ġcrack": 8764,
      "RC": 8765,
      "cule": 8766,
      "Ġincident": 8767,
      "ĠParty": 8768,
      "Ġoxid": 8769,
      "operative": 8770,
      "ĠLos": 8771,
      "Ġsheep": 8772,
      "Ġconcerning": 8773,
      "Ġmarketing": 8774,
      "iterranean": 8775,
      "Yes": 8776,
      "iders": 8777,
      "iano": 8778,
      "ĠImpro": 8779,
      "Ġconverted": 8780,
      "ĠPhD": 8781,
      "Ġelsewhere": 8782,
      "iary": 8783,
      "ometer": 8784,
      "Ġphones": 8785,
      "Ġbarrier": 8786,
      "Ġsoph": 8787,
      "oler": 8788,
      "Ġsoils": 8789,
      "Ġprofile": 8790,
      "Ġaddresses": 8791,
      "Ġparameters": 8792,
      "Ke": 8793,
      "Ġadapted": 8794,
      "Follow": 8795,
      "urable": 8796,
      "ĠSaint": 8797,
      "Ġshoes": 8798,
      "Ġintention": 8799,
      "Ġterror": 8800,
      "ĠStation": 8801,
      "ĠVitamin": 8802,
      "ricks": 8803,
      "ĠIslam": 8804,
      "ĠMah": 8805,
      "ivities": 8806,
      "Ġorigins": 8807,
      "Ġelementary": 8808,
      "ĠFrancisco": 8809,
      "asma": 8810,
      "rue": 8811,
      "Ġpeers": 8812,
      "Ġagent": 8813,
      "Ġsubsc": 8814,
      "Ġeverywhere": 8815,
      "Ġinstallation": 8816,
      "opher": 8817,
      "ĠDrug": 8818,
      "berries": 8819,
      "Ġsimult": 8820,
      "Ġvaries": 8821,
      "Ġvibr": 8822,
      "Ġsuddenly": 8823,
      "ĠDivision": 8824,
      "57": 8825,
      "Ġprovince": 8826,
      "aneous": 8827,
      "Ġargue": 8828,
      "Ġcalculated": 8829,
      "Rep": 8830,
      "gment": 8831,
      "Â»": 8832,
      "ifier": 8833,
      "ĠIncre": 8834,
      "Ġsymbols": 8835,
      "Ġpipe": 8836,
      "zone": 8837,
      "Ġshade": 8838,
      "Ġengagement": 8839,
      "Ġcontributing": 8840,
      "Ġreplacement": 8841,
      "Ġinch": 8842,
      "Ġsuperior": 8843,
      "Ġinterpretation": 8844,
      "ĠIllinois": 8845,
      "67": 8846,
      "Ġdil": 8847,
      "Ġpeoples": 8848,
      "Ġclassical": 8849,
      "Ġbullying": 8850,
      "ĠSchools": 8851,
      "Ġpreparing": 8852,
      "Ġpesticides": 8853,
      "Ġclub": 8854,
      "52": 8855,
      "onal": 8856,
      "athers": 8857,
      "Ġvisits": 8858,
      "Ġhumanity": 8859,
      "Ġaddressing": 8860,
      "regon": 8861,
      "bage": 8862,
      "Ġoceans": 8863,
      "Ġasp": 8864,
      "Ġtrail": 8865,
      "Ġprobability": 8866,
      "Ġcraft": 8867,
      "ĠPhysical": 8868,
      "Ġfacilitate": 8869,
      "Ġgate": 8870,
      "Ġmembrane": 8871,
      "eem": 8872,
      "ĠIce": 8873,
      "obile": 8874,
      "Ġcharacteristic": 8875,
      "ĠTH": 8876,
      "Ġclients": 8877,
      "Ġthereby": 8878,
      "Ġblo": 8879,
      "1994": 8880,
      "Ġarguments": 8881,
      "Ġpsychology": 8882,
      "gence": 8883,
      "ĠCT": 8884,
      "Ġunderground": 8885,
      "Ġexecutive": 8886,
      "Ġnarrative": 8887,
      "enter": 8888,
      "ogy": 8889,
      "1920": 8890,
      "Ġeaten": 8891,
      "ĠStandard": 8892,
      "Ġmetabolism": 8893,
      "ician": 8894,
      "Ġshr": 8895,
      "ĠChristians": 8896,
      "Ġregarded": 8897,
      "mod": 8898,
      "Ġborrow": 8899,
      "ĠFair": 8900,
      "Ġcontinuing": 8901,
      "Ġstrike": 8902,
      "ĠArea": 8903,
      "Ġorders": 8904,
      "have": 8905,
      "itarian": 8906,
      "Ġappl": 8907,
      "ishop": 8908,
      "rained": 8909,
      "Ġspine": 8910,
      "Ġdetermining": 8911,
      "Ġvirtually": 8912,
      "healthy": 8913,
      "Ġchamber": 8914,
      "Ġadolesc": 8915,
      "Ġbuff": 8916,
      "Ġfingers": 8917,
      "Ø§": 8918,
      "ĠCDC": 8919,
      "Ġrooms": 8920,
      "eras": 8921,
      "Ġslaves": 8922,
      "Ġol": 8923,
      "ĠMonday": 8924,
      "ĠView": 8925,
      "Ġobst": 8926,
      "Ġvisiting": 8927,
      "ĠShakespeare": 8928,
      "Ġceleb": 8929,
      "zyme": 8930,
      "Ġearthquake": 8931,
      "Ġvom": 8932,
      "rip": 8933,
      "ĠKent": 8934,
      "ĠModern": 8935,
      "53": 8936,
      "cled": 8937,
      "urse": 8938,
      "Ġsees": 8939,
      "CP": 8940,
      "Ġputs": 8941,
      "ĠBeing": 8942,
      "found": 8943,
      "ĠCP": 8944,
      "lectric": 8945,
      "Ġencounter": 8946,
      "Ġkitchen": 8947,
      "Ġpleasure": 8948,
      "Ġbeach": 8949,
      "ĠIndepend": 8950,
      "Ġspecialized": 8951,
      "Ġengineer": 8952,
      "Ġaccurately": 8953,
      "ĠSimilar": 8954,
      "ĠTemple": 8955,
      "ĠID": 8956,
      "arten": 8957,
      "ĠNutrition": 8958,
      "iah": 8959,
      "Ġmarg": 8960,
      "Ġsalmon": 8961,
      "Ġviolent": 8962,
      "Ġembry": 8963,
      "Ġscenario": 8964,
      "59": 8965,
      "erb": 8966,
      "Ġneurolog": 8967,
      "Ġdoors": 8968,
      "Ġswimming": 8969,
      "friendly": 8970,
      "ĠÐ": 8971,
      "ila": 8972,
      "Ġpainted": 8973,
      "Ġcontainers": 8974,
      "Ġhydro": 8975,
      "Ġion": 8976,
      "rection": 8977,
      "osaur": 8978,
      "apped": 8979,
      "Ġpollut": 8980,
      "Ġordinary": 8981,
      "icts": 8982,
      "ura": 8983,
      "ĠMap": 8984,
      "ĠLee": 8985,
      "Ġbasically": 8986,
      "bel": 8987,
      "western": 8988,
      "esium": 8989,
      "Ġasc": 8990,
      "Ġconclus": 8991,
      "Ġlecture": 8992,
      "Ġgrams": 8993,
      "Ġpayment": 8994,
      "Ġwooden": 8995,
      "Ġchose": 8996,
      "ĠDuke": 8997,
      "ĠEdward": 8998,
      "unc": 8999,
      "profit": 9000,
      "Ġencouraging": 9001,
      "ĠMonth": 9002,
      "Ġneurons": 9003,
      "mble": 9004,
      "Ġwing": 9005,
      "Ġscat": 9006,
      "Ġaccidents": 9007,
      "Ġrestoration": 9008,
      "Ġenjoyed": 9009,
      "encing": 9010,
      "ĠMaster": 9011,
      "Ġallergy": 9012,
      "Ġacting": 9013,
      "Ġzones": 9014,
      "agnetic": 9015,
      "Ġpoetry": 9016,
      "Aut": 9017,
      "Ġdear": 9018,
      "ĠLuc": 9019,
      "outheast": 9020,
      "ĠStan": 9021,
      "Ġcaps": 9022,
      "ESS": 9023,
      "Ġcontaminated": 9024,
      "sters": 9025,
      "ĠEr": 9026,
      "Ġrequirement": 9027,
      "Ġpackage": 9028,
      "Ġinvented": 9029,
      "Scientists": 9030,
      "Ġinsights": 9031,
      "ĠOrig": 9032,
      "ĠCode": 9033,
      "Ġsciences": 9034,
      "Ġreasonable": 9035,
      "Ġefficiently": 9036,
      "Ġpreferred": 9037,
      "Ġopinions": 9038,
      "51": 9039,
      "bell": 9040,
      "orus": 9041,
      "Ġhang": 9042,
      "ippi": 9043,
      "def": 9044,
      "iop": 9045,
      "Ġcave": 9046,
      "Ġlivestock": 9047,
      "Ġalgorithm": 9048,
      "Ġhospitals": 9049,
      "uis": 9050,
      "Ġwashing": 9051,
      "ailed": 9052,
      "Ġdefault": 9053,
      "Ġimproves": 9054,
      "Ġpock": 9055,
      "Ġmanagers": 9056,
      "Ġmaxim": 9057,
      "Did": 9058,
      "atoes": 9059,
      "ĠEffect": 9060,
      "ught": 9061,
      "Ġsusceptible": 9062,
      "Ġbell": 9063,
      "ĠLED": 9064,
      "Ġmini": 9065,
      "Ġexcited": 9066,
      "ĠOften": 9067,
      "ursday": 9068,
      "Ġinitiatives": 9069,
      "Ġenthus": 9070,
      "Ġcolonies": 9071,
      "ĠAntar": 9072,
      "Ġmigration": 9073,
      "Ġbottle": 9074,
      "had": 9075,
      "ednes": 9076,
      "ĠOS": 9077,
      "Figure": 9078,
      "Ġcuts": 9079,
      "Ġprescribed": 9080,
      "Ġaccomplish": 9081,
      "ĠMediterranean": 9082,
      "Ġanalyzed": 9083,
      "Ġfifth": 9084,
      "Ġkilometers": 9085,
      "will": 9086,
      "ett": 9087,
      "Ġspecified": 9088,
      "Ġdistant": 9089,
      "Ġtag": 9090,
      "Ġrib": 9091,
      "Ġdiscussions": 9092,
      "Ġcable": 9093,
      "endment": 9094,
      "ĠAlaska": 9095,
      "Ġancestors": 9096,
      "Ġscr": 9097,
      "Ġcompetitive": 9098,
      "Ġreflection": 9099,
      "Ġworkshop": 9100,
      "uits": 9101,
      "ĠDutch": 9102,
      "redit": 9103,
      "Che": 9104,
      "Ġpotassium": 9105,
      "Children": 9106,
      "after": 9107,
      "Ġcirculation": 9108,
      "infl": 9109,
      "Ġpractition": 9110,
      "Ġposted": 9111,
      "Ġpurchased": 9112,
      "Ġperfectly": 9113,
      "Ġcertific": 9114,
      "Ġbull": 9115,
      "ĠGall": 9116,
      "TML": 9117,
      "kl": 9118,
      "anted": 9119,
      "Ġstruck": 9120,
      "ĠÂ£": 9121,
      "Ġow": 9122,
      "uesday": 9123,
      "Ġflavor": 9124,
      "ĠConfed": 9125,
      "uther": 9126,
      "Ġbought": 9127,
      "ĠDC": 9128,
      "ĠDie": 9129,
[...]
